{
  "version": "1.0",
  "truncation": {
    "direction": "Right",
    "max_length": 256,
    "strategy": "LongestFirst",
    "stride": 0
  },
  "padding": {
    "strategy": "BatchLongest",
    "direction": "Right",
    "pad_to_multiple_of": null,
    "pad_id": 0,
    "pad_type_id": 0,
    "pad_token": "<pad>"
  },
  "added_tokens": [
    {
      "id": 0,
      "content": "<pad>",
      "single_word": false,
      "lstrip": false,
      "rstrip": false,
      "normalized": false,
      "special": true
    },
    {
      "id": 1,
      "content": "<unk>",
      "single_word": false,
      "lstrip": false,
      "rstrip": false,
      "normalized": false,
      "special": true
    },
    {
      "id": 2,
      "content": "<s>",
      "single_word": false,
      "lstrip": false,
      "rstrip": false,
      "normalized": false,
      "special": true
    },
    {
      "id": 3,
      "content": "</s>",
      "single_word": false,
      "lstrip": false,
      "rstrip": false,
      "normalized": false,
      "special": true
    }
  ],
  "normalizer": null,
  "pre_tokenizer": {
    "type": "Whitespace"
  },
  "post_processor": null,
  "decoder": null,
  "model": {
    "type": "BPE",
    "dropout": null,
    "unk_token": "<unk>",
    "continuing_subword_prefix": null,
    "end_of_word_suffix": null,
    "fuse_unk": false,
    "byte_fallback": false,
    "ignore_merges": false,
    "vocab": {
      "<pad>": 0,
      "<unk>": 1,
      "<s>": 2,
      "</s>": 3,
      "!": 4,
      "\"": 5,
      "#": 6,
      "$": 7,
      "%": 8,
      "&": 9,
      "'": 10,
      "(": 11,
      ")": 12,
      "*": 13,
      "+": 14,
      ",": 15,
      "-": 16,
      ".": 17,
      "/": 18,
      "0": 19,
      "1": 20,
      "2": 21,
      "3": 22,
      "4": 23,
      "5": 24,
      "6": 25,
      "7": 26,
      "8": 27,
      "9": 28,
      ":": 29,
      ";": 30,
      "<": 31,
      ">": 32,
      "?": 33,
      "@": 34,
      "A": 35,
      "B": 36,
      "C": 37,
      "D": 38,
      "E": 39,
      "F": 40,
      "G": 41,
      "H": 42,
      "I": 43,
      "J": 44,
      "K": 45,
      "L": 46,
      "M": 47,
      "N": 48,
      "O": 49,
      "P": 50,
      "Q": 51,
      "R": 52,
      "S": 53,
      "T": 54,
      "U": 55,
      "V": 56,
      "W": 57,
      "X": 58,
      "Y": 59,
      "Z": 60,
      "[": 61,
      "]": 62,
      "_": 63,
      "a": 64,
      "b": 65,
      "c": 66,
      "d": 67,
      "e": 68,
      "f": 69,
      "g": 70,
      "h": 71,
      "i": 72,
      "j": 73,
      "k": 74,
      "l": 75,
      "m": 76,
      "n": 77,
      "o": 78,
      "p": 79,
      "q": 80,
      "r": 81,
      "s": 82,
      "t": 83,
      "u": 84,
      "v": 85,
      "w": 86,
      "x": 87,
      "y": 88,
      "z": 89,
      "¡": 90,
      "¨": 91,
      "ª": 92,
      "«": 93,
      "­": 94,
      "°": 95,
      "³": 96,
      "´": 97,
      "º": 98,
      "»": 99,
      "¿": 100,
      "Á": 101,
      "Ã": 102,
      "Ç": 103,
      "É": 104,
      "Í": 105,
      "Ñ": 106,
      "Ó": 107,
      "Ú": 108,
      "Ü": 109,
      "ß": 110,
      "à": 111,
      "á": 112,
      "â": 113,
      "ã": 114,
      "ä": 115,
      "å": 116,
      "ç": 117,
      "è": 118,
      "é": 119,
      "ê": 120,
      "ë": 121,
      "í": 122,
      "î": 123,
      "ï": 124,
      "ð": 125,
      "ñ": 126,
      "ó": 127,
      "ö": 128,
      "ø": 129,
      "ú": 130,
      "ü": 131,
      "ā": 132,
      "Ć": 133,
      "Ĉ": 134,
      "č": 135,
      "ę": 136,
      "ī": 137,
      "ĺ": 138,
      "ł": 139,
      "ń": 140,
      "ō": 141,
      "œ": 142,
      "ś": 143,
      "ŝ": 144,
      "ş": 145,
      "ū": 146,
      "́": 147,
      "π": 148,
      "М": 149,
      "Ч": 150,
      "а": 151,
      "з": 152,
      "и": 153,
      "к": 154,
      "л": 155,
      "о": 156,
      "р": 157,
      "с": 158,
      "т": 159,
      "ы": 160,
      "э": 161,
      "ứ": 162,
      "​": 163,
      "‎": 164,
      "‐": 165,
      "–": 166,
      "—": 167,
      "‘": 168,
      "’": 169,
      "“": 170,
      "”": 171,
      "…": 172,
      "₂": 173,
      "€": 174,
      "─": 175,
      "☭": 176,
      "⨯": 177,
      "、": 178,
      "た": 179,
      "っ": 180,
      "て": 181,
      "の": 182,
      "ア": 183,
      "マ": 184,
      "リ": 185,
      "何": 186,
      "言": 187,
      "？": 188,
      "er": 189,
      "es": 190,
      "en": 191,
      "ar": 192,
      "an": 193,
      "in": 194,
      "th": 195,
      "to": 196,
      "as": 197,
      "on": 198,
      "om": 199,
      "is": 200,
      "de": 201,
      "or": 202,
      "ou": 203,
      "os": 204,
      "ue": 205,
      "do": 206,
      "al": 207,
      "re": 208,
      "te": 209,
      "la": 210,
      "un": 211,
      "ha": 212,
      "le": 213,
      "the": 214,
      "he": 215,
      "ta": 216,
      "Tom": 217,
      "no": 218,
      "el": 219,
      "ti": 220,
      "que": 221,
      "me": 222,
      "ing": 223,
      "you": 224,
      "se": 225,
      "ci": 226,
      "di": 227,
      "tr": 228,
      "ve": 229,
      "da": 230,
      "at": 231,
      "lo": 232,
      "ch": 233,
      "li": 234,
      "us": 235,
      "go": 236,
      "ca": 237,
      "con": 238,
      "ro": 239,
      "be": 240,
      "ri": 241,
      "ver": 242,
      "of": 243,
      "ed": 244,
      "it": 245,
      "est": 246,
      "ab": 247,
      "qu": 248,
      "ma": 249,
      "ll": 250,
      "mi": 251,
      "cu": 252,
      "ía": 253,
      "ce": 254,
      "com": 255,
      "vi": 256,
      "su": 257,
      "Es": 258,
      "No": 259,
      "ra": 260,
      "ere": 261,
      "par": 262,
      "The": 263,
      "ent": 264,
      "for": 265,
      "ol": 266,
      "and": 267,
      "per": 268,
      "si": 269,
      "El": 270,
      "ke": 271,
      "wi": 272,
      "mu": 273,
      "hi": 274,
      "ter": 275,
      "ad": 276,
      "por": 277,
      "una": 278,
      "ón": 279,
      "ir": 280,
      "co": 281,
      "He": 282,
      "ay": 283,
      "tu": 284,
      "po": 285,
      "ne": 286,
      "pe": 287,
      "mos": 288,
      "ld": 289,
      "Mar": 290,
      "was": 291,
      "ant": 292,
      "that": 293,
      "los": 294,
      "his": 295,
      "hat": 296,
      "ás": 297,
      "gh": 298,
      "all": 299,
      "ente": 300,
      "are": 301,
      "res": 302,
      "las": 303,
      "can": 304,
      "Mary": 305,
      "gu": 306,
      "ho": 307,
      "pa": 308,
      "ba": 309,
      "so": 310,
      "man": 311,
      "ten": 312,
      "bi": 313,
      "mo": 314,
      "have": 315,
      "pi": 316,
      "des": 317,
      "esta": 318,
      "one": 319,
      "am": 320,
      "ge": 321,
      "está": 322,
      "You": 323,
      "my": 324,
      "bo": 325,
      "em": 326,
      "bu": 327,
      "qui": 328,
      "fa": 329,
      "jo": 330,
      "pr": 331,
      "fi": 332,
      "now": 333,
      "with": 334,
      "pro": 335,
      "here": 336,
      "not": 337,
      "ni": 338,
      "ould": 339,
      "ly": 340,
      "out": 341,
      "ga": 342,
      "pu": 343,
      "cer": 344,
      "ght": 345,
      "sa": 346,
      "para": 347,
      "ome": 348,
      "ted": 349,
      "ando": 350,
      "ex": 351,
      "her": 352,
      "ther": 353,
      "Él": 354,
      "pre": 355,
      "era": 356,
      "ok": 357,
      "ero": 358,
      "tra": 359,
      "dos": 360,
      "Qu": 361,
      "She": 362,
      "very": 363,
      "cas": 364,
      "your": 365,
      "car": 366,
      "na": 367,
      "son": 368,
      "It": 369,
      "fr": 370,
      "hab": 371,
      "ces": 372,
      "ck": 373,
      "cho": 374,
      "fe": 375,
      "fu": 376,
      "don": 377,
      "más": 378,
      "tar": 379,
      "this": 380,
      "we": 381,
      "La": 382,
      "der": 383,
      "has": 384,
      "ble": 385,
      "tion": 386,
      "thing": 387,
      "tien": 388,
      "We": 389,
      "day": 390,
      "dad": 391,
      "want": 392,
      "know": 393,
      "bre": 394,
      "mor": 395,
      "Me": 396,
      "wor": 397,
      "od": 398,
      "ado": 399,
      "ción": 400,
      "like": 401,
      "ac": 402,
      "pue": 403,
      "vo": 404,
      "ven": 405,
      "Ella": 406,
      "tan": 407,
      "pen": 408,
      "im": 409,
      "did": 410,
      "him": 411,
      "ple": 412,
      "del": 413,
      "ur": 414,
      "id": 415,
      "tos": 416,
      "et": 417,
      "min": 418,
      "lar": 419,
      "és": 420,
      "va": 421,
      "pas": 422,
      "mente": 423,
      "aba": 424,
      "ink": 425,
      "mar": 426,
      "mis": 427,
      "gus": 428,
      "hor": 429,
      "ser": 430,
      "ien": 431,
      "any": 432,
      "What": 433,
      "ber": 434,
      "che": 435,
      "gr": 436,
      "ap": 437,
      "will": 438,
      "qué": 439,
      "st": 440,
      "end": 441,
      "ust": 442,
      "what": 443,
      "up": 444,
      "lan": 445,
      "gi": 446,
      "This": 447,
      "gar": 448,
      "Do": 449,
      "pla": 450,
      "men": 451,
      "lle": 452,
      "some": 453,
      "toy": 454,
      "oun": 455,
      "les": 456,
      "vis": 457,
      "án": 458,
      "muy": 459,
      "cre": 460,
      "tiene": 461,
      "dis": 462,
      "time": 463,
      "way": 464,
      "get": 465,
      "hacer": 466,
      "En": 467,
      "tor": 468,
      "hen": 469,
      "Cu": 470,
      "za": 471,
      "él": 472,
      "lla": 473,
      "tro": 474,
      "had": 475,
      "dar": 476,
      "from": 477,
      "cor": 478,
      "ty": 479,
      "think": 480,
      "como": 481,
      "about": 482,
      "ali": 483,
      "ase": 484,
      "They": 485,
      "ese": 486,
      "cia": 487,
      "ow": 488,
      "De": 489,
      "pos": 490,
      "our": 491,
      "ong": 492,
      "by": 493,
      "sh": 494,
      "Por": 495,
      "Qué": 496,
      "cos": 497,
      "vor": 498,
      "ear": 499,
      "dr": 500,
      "fin": 501,
      "ana": 502,
      "does": 503,
      "mas": 504,
      "ish": 505,
      "chi": 506,
      "My": 507,
      "du": 508,
      "Mi": 509,
      "bro": 510,
      "much": 511,
      "but": 512,
      "fue": 513,
      "ak": 514,
      "Qui": 515,
      "work": 516,
      "tal": 517,
      "ño": 518,
      "én": 519,
      "au": 520,
      "casa": 521,
      "favor": 522,
      "traba": 523,
      "br": 524,
      "ías": 525,
      "gun": 526,
      "ves": 527,
      "ell": 528,
      "come": 529,
      "ja": 530,
      "cal": 531,
      "fri": 532,
      "fer": 533,
      "nos": 534,
      "quí": 535,
      "she": 536,
      "use": 537,
      "ano": 538,
      "lu": 539,
      "cion": 540,
      "ard": 541,
      "ina": 542,
      "ños": 543,
      "pero": 544,
      "Ten": 545,
      "estaba": 546,
      "Yo": 547,
      "see": 548,
      "To": 549,
      "eso": 550,
      "than": 551,
      "endo": 552,
      "ton": 553,
      "sal": 554,
      "were": 555,
      "Los": 556,
      "didn": 557,
      "Esta": 558,
      "more": 559,
      "je": 560,
      "eli": 561,
      "ally": 562,
      "den": 563,
      "yo": 564,
      "There": 565,
      "ts": 566,
      "would": 567,
      "hora": 568,
      "gra": 569,
      "dy": 570,
      "good": 571,
      "tiem": 572,
      "cri": 573,
      "look": 574,
      "ren": 575,
      "going": 576,
      "there": 577,
      "Si": 578,
      "hy": 579,
      "read": 580,
      "sin": 581,
      "gusta": 582,
      "deci": 583,
      "ning": 584,
      "tiempo": 585,
      "ante": 586,
      "aquí": 587,
      "cen": 588,
      "este": 589,
      "gua": 590,
      "every": 591,
      "pres": 592,
      "That": 593,
      "How": 594,
      "how": 595,
      "sus": 596,
      "Don": 597,
      "ree": 598,
      "tas": 599,
      "hap": 600,
      "lp": 601,
      "spe": 602,
      "die": 603,
      "todo": 604,
      "Estoy": 605,
      "vez": 606,
      "bus": 607,
      "ous": 608,
      "Se": 609,
      "oy": 610,
      "cha": 611,
      "ento": 612,
      "nu": 613,
      "person": 614,
      "old": 615,
      "tri": 616,
      "need": 617,
      "ella": 618,
      "book": 619,
      "buen": 620,
      "sab": 621,
      "Te": 622,
      "proble": 623,
      "new": 624,
      "bien": 625,
      "mes": 626,
      "zo": 627,
      "estu": 628,
      "inter": 629,
      "ep": 630,
      "friend": 631,
      "should": 632,
      "esto": 633,
      "ought": 634,
      "doesn": 635,
      "ded": 636,
      "día": 637,
      "mucho": 638,
      "pri": 639,
      "sel": 640,
      "say": 641,
      "Lo": 642,
      "mon": 643,
      "io": 644,
      "got": 645,
      "jar": 646,
      "been": 647,
      "ting": 648,
      "ami": 649,
      "din": 650,
      "algo": 651,
      "help": 652,
      "stu": 653,
      "could": 654,
      "row": 655,
      "nada": 656,
      "ach": 657,
      "hom": 658,
      "eron": 659,
      "af": 660,
      "ans": 661,
      "sta": 662,
      "dio": 663,
      "when": 664,
      "Le": 665,
      "ido": 666,
      "eres": 667,
      "ound": 668,
      "plan": 669,
      "eat": 670,
      "able": 671,
      "who": 672,
      "ry": 673,
      "ople": 674,
      "ct": 675,
      "hu": 676,
      "ayu": 677,
      "antes": 678,
      "mal": 679,
      "puedo": 680,
      "play": 681,
      "mer": 682,
      "tros": 683,
      "ómo": 684,
      "ave": 685,
      "king": 686,
      "too": 687,
      "puede": 688,
      "In": 689,
      "Pue": 690,
      "il": 691,
      "sol": 692,
      "tter": 693,
      "never": 694,
      "pare": 695,
      "just": 696,
      "red": 697,
      "if": 698,
      "ine": 699,
      "speak": 700,
      "gan": 701,
      "jor": 702,
      "ru": 703,
      "unca": 704,
      "sto": 705,
      "dif": 706,
      "das": 707,
      "cuando": 708,
      "vol": 709,
      "fo": 710,
      "llos": 711,
      "hay": 712,
      "ved": 713,
      "ful": 714,
      "take": 715,
      "Est": 716,
      "tes": 717,
      "year": 718,
      "pad": 719,
      "estar": 720,
      "cul": 721,
      "ger": 722,
      "cle": 723,
      "wo": 724,
      "ju": 725,
      "bar": 726,
      "low": 727,
      "people": 728,
      "ónde": 729,
      "home": 730,
      "Su": 731,
      "ún": 732,
      "kes": 733,
      "ión": 734,
      "ñana": 735,
      "tell": 736,
      "ked": 737,
      "nue": 738,
      "empre": 739,
      "gre": 740,
      "mejor": 741,
      "pon": 742,
      "Tengo": 743,
      "cono": 744,
      "neces": 745,
      "contr": 746,
      "segu": 747,
      "compr": 748,
      "Al": 749,
      "oney": 750,
      "dió": 751,
      "oso": 752,
      "años": 753,
      "tur": 754,
      "trabajo": 755,
      "last": 756,
      "self": 757,
      "wat": 758,
      "impor": 759,
      "todos": 760,
      "sé": 761,
      "ide": 762,
      "esper": 763,
      "iste": 764,
      "night": 765,
      "may": 766,
      "wn": 767,
      "fore": 768,
      "mí": 769,
      "they": 770,
      "vida": 771,
      "ocu": 772,
      "only": 773,
      "ouse": 774,
      "long": 775,
      "mana": 776,
      "under": 777,
      "gas": 778,
      "Este": 779,
      "sti": 780,
      "hablar": 781,
      "said": 782,
      "If": 783,
      "ess": 784,
      "tengo": 785,
      "ways": 786,
      "pregun": 787,
      "Jap": 788,
      "ob": 789,
      "room": 790,
      "Why": 791,
      "love": 792,
      "many": 793,
      "Is": 794,
      "dijo": 795,
      "dinero": 796,
      "money": 797,
      "Cuán": 798,
      "tó": 799,
      "dre": 800,
      "must": 801,
      "went": 802,
      "mañana": 803,
      "ment": 804,
      "verdad": 805,
      "ada": 806,
      "cam": 807,
      "dor": 808,
      "back": 809,
      "bor": 810,
      "ida": 811,
      "tle": 812,
      "always": 813,
      "them": 814,
      "dent": 815,
      "enta": 816,
      "try": 817,
      "won": 818,
      "tras": 819,
      "house": 820,
      "ban": 821,
      "ito": 822,
      "ving": 823,
      "other": 824,
      "quer": 825,
      "ough": 826,
      "tru": 827,
      "jos": 828,
      "anc": 829,
      "led": 830,
      "libro": 831,
      "gran": 832,
      "medi": 833,
      "wa": 834,
      "Hay": 835,
      "fun": 836,
      "mat": 837,
      "something": 838,
      "Bos": 839,
      "Tien": 840,
      "child": 841,
      "Quiero": 842,
      "gain": 843,
      "poco": 844,
      "Boston": 845,
      "cil": 846,
      "right": 847,
      "stand": 848,
      "Can": 849,
      "tem": 850,
      "make": 851,
      "estoy": 852,
      "bas": 853,
      "lot": 854,
      "Jo": 855,
      "Cre": 856,
      "ion": 857,
      "quiero": 858,
      "When": 859,
      "decir": 860,
      "ita": 861,
      "ind": 862,
      "whi": 863,
      "fir": 864,
      "gl": 865,
      "tir": 866,
      "Las": 867,
      "están": 868,
      "ill": 869,
      "Di": 870,
      "nues": 871,
      "esa": 872,
      "pal": 873,
      "mun": 874,
      "two": 875,
      "body": 876,
      "hace": 877,
      "Are": 878,
      "sed": 879,
      "Ple": 880,
      "estudi": 881,
      "ino": 882,
      "Joh": 883,
      "John": 884,
      "Please": 885,
      "hombre": 886,
      "pel": 887,
      "ña": 888,
      "made": 889,
      "really": 890,
      "cio": 891,
      "cto": 892,
      "sobre": 893,
      "father": 894,
      "ciones": 895,
      "escri": 896,
      "ia": 897,
      "ist": 898,
      "Let": 899,
      "haber": 900,
      "again": 901,
      "ins": 902,
      "gente": 903,
      "sent": 904,
      "tel": 905,
      "solo": 906,
      "Ne": 907,
      "clas": 908,
      "into": 909,
      "where": 910,
      "ya": 911,
      "pren": 912,
      "ft": 913,
      "tres": 914,
      "mber": 915,
      "reg": 916,
      "over": 917,
      "bol": 918,
      "chool": 919,
      "ctor": 920,
      "gen": 921,
      "uel": 922,
      "told": 923,
      "came": 924,
      "well": 925,
      "var": 926,
      "ers": 927,
      "deber": 928,
      "gir": 929,
      "col": 930,
      "ttle": 931,
      "tado": 932,
      "ran": 933,
      "noche": 934,
      "op": 935,
      "cuer": 936,
      "dur": 937,
      "sen": 938,
      "anything": 939,
      "bir": 940,
      "ic": 941,
      "masi": 942,
      "Ellos": 943,
      "Where": 944,
      "poli": 945,
      "school": 946,
      "demasi": 947,
      "ose": 948,
      "fami": 949,
      "Engl": 950,
      "off": 951,
      "happen": 952,
      "siempre": 953,
      "mano": 954,
      "sor": 955,
      "uni": 956,
      "Th": 957,
      "star": 958,
      "gn": 959,
      "aron": 960,
      "erta": 961,
      "chan": 962,
      "erte": 963,
      "late": 964,
      "after": 965,
      "vas": 966,
      "cep": 967,
      "life": 968,
      "ds": 969,
      "today": 970,
      "ul": 971,
      "gos": 972,
      "Ch": 973,
      "padre": 974,
      "tic": 975,
      "había": 976,
      "lis": 977,
      "almente": 978,
      "ara": 979,
      "dog": 980,
      "ise": 981,
      "fas": 982,
      "Un": 983,
      "len": 984,
      "sabe": 985,
      "erto": 986,
      "isn": 987,
      "ío": 988,
      "ahora": 989,
      "via": 990,
      "quiere": 991,
      "auto": 992,
      "demasiado": 993,
      "three": 994,
      "cin": 995,
      "ores": 996,
      "tarde": 997,
      "Who": 998,
      "An": 999,
      "uno": 1000,
      "most": 1001,
      "nunca": 1002,
      "mundo": 1003,
      "their": 1004,
      "ready": 1005,
      "ped": 1006,
      "better": 1007,
      "mother": 1008,
      "vel": 1009,
      "coun": 1010,
      "ros": 1011,
      "cause": 1012,
      "first": 1013,
      "Con": 1014,
      "before": 1015,
      "still": 1016,
      "rá": 1017,
      "eve": 1018,
      "hed": 1019,
      "feel": 1020,
      "vía": 1021,
      "rench": 1022,
      "French": 1023,
      "usted": 1024,
      "María": 1025,
      "girl": 1026,
      "thought": 1027,
      "itar": 1028,
      "tido": 1029,
      "English": 1030,
      "idea": 1031,
      "cat": 1032,
      "ras": 1033,
      "Re": 1034,
      "sho": 1035,
      "encontr": 1036,
      "talk": 1037,
      "tre": 1038,
      "toda": 1039,
      "ale": 1040,
      "little": 1041,
      "rió": 1042,
      "hear": 1043,
      "Creo": 1044,
      "pit": 1045,
      "mir": 1046,
      "Cómo": 1047,
      "jer": 1048,
      "years": 1049,
      "ales": 1050,
      "lear": 1051,
      "live": 1052,
      "minu": 1053,
      "dido": 1054,
      ".\"": 1055,
      "tran": 1056,
      "down": 1057,
      "cía": 1058,
      "int": 1059,
      "teach": 1060,
      "py": 1061,
      "tele": 1062,
      "Tomás": 1063,
      "raz": 1064,
      "give": 1065,
      "wer": 1066,
      "left": 1067,
      "Ha": 1068,
      "hizo": 1069,
      "ele": 1070,
      "xi": 1071,
      "har": 1072,
      "buy": 1073,
      "boy": 1074,
      "llo": 1075,
      "bed": 1076,
      "vie": 1077,
      "beli": 1078,
      "ene": 1079,
      "Japan": 1080,
      "ever": 1081,
      "ester": 1082,
      "00": 1083,
      "Did": 1084,
      "ís": 1085,
      "entes": 1086,
      "turn": 1087,
      "let": 1088,
      "Com": 1089,
      "lés": 1090,
      "inglés": 1091,
      "Eso": 1092,
      "ancés": 1093,
      "emos": 1094,
      "francés": 1095,
      "tions": 1096,
      "posi": 1097,
      "ence": 1098,
      "nuevo": 1099,
      "wan": 1100,
      "ate": 1101,
      "tomor": 1102,
      "tomorrow": 1103,
      "call": 1104,
      "wri": 1105,
      "quier": 1106,
      "otros": 1107,
      "dan": 1108,
      "stay": 1109,
      "pli": 1110,
      "His": 1111,
      "Ya": 1112,
      "zar": 1113,
      "tante": 1114,
      "uela": 1115,
      "Dónde": 1116,
      "bra": 1117,
      "jó": 1118,
      "ner": 1119,
      "lado": 1120,
      "problem": 1121,
      "mom": 1122,
      "estás": 1123,
      "vir": 1124,
      "tori": 1125,
      "mismo": 1126,
      "bes": 1127,
      "sing": 1128,
      "port": 1129,
      "pes": 1130,
      "ek": 1131,
      "ph": 1132,
      "encia": 1133,
      "char": 1134,
      "comer": 1135,
      "leep": 1136,
      "cado": 1137,
      "taría": 1138,
      "Está": 1139,
      "tenía": 1140,
      "saw": 1141,
      "guien": 1142,
      "understand": 1143,
      "ary": 1144,
      "cias": 1145,
      "dó": 1146,
      "acci": 1147,
      "Every": 1148,
      "So": 1149,
      "esterday": 1150,
      "días": 1151,
      "ál": 1152,
      "hecho": 1153,
      "job": 1154,
      "ayudar": 1155,
      "Soy": 1156,
      "friends": 1157,
      "wanted": 1158,
      "feli": 1159,
      "name": 1160,
      "sit": 1161,
      "erra": 1162,
      "asked": 1163,
      "ried": 1164,
      "termin": 1165,
      "bri": 1166,
      "fes": 1167,
      "care": 1168,
      "tación": 1169,
      "put": 1170,
      "coche": 1171,
      "vent": 1172,
      "ques": 1173,
      "hand": 1174,
      "perro": 1175,
      "langua": 1176,
      "wal": 1177,
      "esc": 1178,
      "alg": 1179,
      "hoy": 1180,
      "madre": 1181,
      "ones": 1182,
      "Na": 1183,
      "xt": 1184,
      "hasta": 1185,
      "nothing": 1186,
      "ciu": 1187,
      "cerca": 1188,
      "world": 1189,
      "uso": 1190,
      "Quién": 1191,
      "cómo": 1192,
      "Have": 1193,
      "lti": 1194,
      "habi": 1195,
      "tú": 1196,
      "sur": 1197,
      "find": 1198,
      "pie": 1199,
      "ario": 1200,
      "lun": 1201,
      "beau": 1202,
      "estado": 1203,
      "pens": 1204,
      "ólo": 1205,
      "pués": 1206,
      "Ta": 1207,
      "cti": 1208,
      "sue": 1209,
      "ador": 1210,
      "hard": 1211,
      "children": 1212,
      "week": 1213,
      "Todos": 1214,
      "quería": 1215,
      "dir": 1216,
      "libr": 1217,
      "ciente": 1218,
      "rain": 1219,
      "ged": 1220,
      "ctu": 1221,
      "pan": 1222,
      "señ": 1223,
      "happy": 1224,
      "table": 1225,
      "Some": 1226,
      "med": 1227,
      "dri": 1228,
      "así": 1229,
      "um": 1230,
      "Tienes": 1231,
      "palab": 1232,
      "ciudad": 1233,
      "ados": 1234,
      "gue": 1235,
      "podr": 1236,
      "amos": 1237,
      "ris": 1238,
      "sis": 1239,
      "soy": 1240,
      "problema": 1241,
      "wait": 1242,
      "ses": 1243,
      "took": 1244,
      "without": 1245,
      "gustaría": 1246,
      "tener": 1247,
      "away": 1248,
      "fuera": 1249,
      "drink": 1250,
      "..": 1251,
      "van": 1252,
      "yesterday": 1253,
      "because": 1254,
      "voy": 1255,
      "used": 1256,
      "ían": 1257,
      "meet": 1258,
      "ció": 1259,
      "next": 1260,
      "ges": 1261,
      "member": 1262,
      "menos": 1263,
      "Neces": 1264,
      "everything": 1265,
      "cambi": 1266,
      "door": 1267,
      "stop": 1268,
      "study": 1269,
      "gó": 1270,
      "Hab": 1271,
      "Esto": 1272,
      "please": 1273,
      "brother": 1274,
      "parece": 1275,
      "otra": 1276,
      "doctor": 1277,
      "dic": 1278,
      "forma": 1279,
      "pital": 1280,
      "learn": 1281,
      "corre": 1282,
      "cosas": 1283,
      "Tu": 1284,
      "amente": 1285,
      "apren": 1286,
      "ki": 1287,
      "leave": 1288,
      "anim": 1289,
      "camin": 1290,
      "lost": 1291,
      "beauti": 1292,
      "veces": 1293,
      "Nunca": 1294,
      "sea": 1295,
      "sure": 1296,
      "nadie": 1297,
      "even": 1298,
      "sleep": 1299,
      "ice": 1300,
      "tren": 1301,
      "agua": 1302,
      "cada": 1303,
      "water": 1304,
      "err": 1305,
      "tamente": 1306,
      "win": 1307,
      "morning": 1308,
      "beautiful": 1309,
      "believe": 1310,
      "pris": 1311,
      "wom": 1312,
      "arri": 1313,
      "éis": 1314,
      "amigos": 1315,
      "contra": 1316,
      "entre": 1317,
      "pron": 1318,
      "watch": 1319,
      "amor": 1320,
      "Cuando": 1321,
      "equi": 1322,
      "año": 1323,
      "profes": 1324,
      "mó": 1325,
      "tam": 1326,
      "best": 1327,
      "dónde": 1328,
      "cur": 1329,
      "exam": 1330,
      "comprar": 1331,
      "times": 1332,
      "difí": 1333,
      "ciendo": 1334,
      "gave": 1335,
      "escuela": 1336,
      "bad": 1337,
      "already": 1338,
      "porque": 1339,
      "niños": 1340,
      "Cuál": 1341,
      "Has": 1342,
      "han": 1343,
      "vos": 1344,
      "pañ": 1345,
      "big": 1346,
      "ár": 1347,
      "cl": 1348,
      "otro": 1349,
      "doing": 1350,
      "pasado": 1351,
      "ocupa": 1352,
      "nom": 1353,
      "show": 1354,
      "days": 1355,
      "bli": 1356,
      "eas": 1357,
      "ign": 1358,
      "wants": 1359,
      "zó": 1360,
      "respon": 1361,
      "tus": 1362,
      "Eres": 1363,
      "cial": 1364,
      "bought": 1365,
      "mayor": 1366,
      "tin": 1367,
      "ity": 1368,
      "couldn": 1369,
      "pl": 1370,
      "escu": 1371,
      "habla": 1372,
      "unto": 1373,
      "its": 1374,
      "same": 1375,
      "soon": 1376,
      "til": 1377,
      "seem": 1378,
      "Puedo": 1379,
      "últi": 1380,
      "semana": 1381,
      "ents": 1382,
      "buena": 1383,
      "fal": 1384,
      "great": 1385,
      "amigo": 1386,
      "mé": 1387,
      "ze": 1388,
      "pido": 1389,
      "puedes": 1390,
      "youn": 1391,
      "consi": 1392,
      "bién": 1393,
      "Deber": 1394,
      "dres": 1395,
      "tió": 1396,
      "ícu": 1397,
      "enfer": 1398,
      "ask": 1399,
      "sm": 1400,
      "anto": 1401,
      "Puedes": 1402,
      "personas": 1403,
      "gin": 1404,
      "cy": 1405,
      "clo": 1406,
      "open": 1407,
      "quién": 1408,
      "things": 1409,
      "famili": 1410,
      "difícil": 1411,
      "az": 1412,
      "niño": 1413,
      "puerta": 1414,
      "mus": 1415,
      "being": 1416,
      "compu": 1417,
      "All": 1418,
      "prim": 1419,
      "hun": 1420,
      "vuel": 1421,
      "bla": 1422,
      "desde": 1423,
      "found": 1424,
      "hour": 1425,
      "Uni": 1426,
      "sister": 1427,
      "ste": 1428,
      "ficul": 1429,
      "ced": 1430,
      "far": 1431,
      "oí": 1432,
      "fast": 1433,
      "habitación": 1434,
      "As": 1435,
      "invi": 1436,
      "tienes": 1437,
      "hacerlo": 1438,
      "jas": 1439,
      "quieres": 1440,
      "comple": 1441,
      "Sé": 1442,
      "ista": 1443,
      "persona": 1444,
      "teacher": 1445,
      "fon": 1446,
      "ues": 1447,
      "war": 1448,
      "trans": 1449,
      "elo": 1450,
      "llegar": 1451,
      "bal": 1452,
      "país": 1453,
      "lugar": 1454,
      "pá": 1455,
      "Your": 1456,
      "cción": 1457,
      "kind": 1458,
      "quedar": 1459,
      "likes": 1460,
      "done": 1461,
      "ket": 1462,
      "cons": 1463,
      "empe": 1464,
      "saber": 1465,
      "cuerdo": 1466,
      "cannot": 1467,
      "ey": 1468,
      "dejar": 1469,
      "có": 1470,
      "llas": 1471,
      "bl": 1472,
      "ut": 1473,
      "cted": 1474,
      "después": 1475,
      "hur": 1476,
      "why": 1477,
      "cir": 1478,
      "wr": 1479,
      "own": 1480,
      "migo": 1481,
      "Estás": 1482,
      "Tú": 1483,
      "nosotros": 1484,
      "train": 1485,
      "mujer": 1486,
      "hermano": 1487,
      "ín": 1488,
      "secre": 1489,
      "pien": 1490,
      "cant": 1491,
      "nor": 1492,
      "mien": 1493,
      "nombre": 1494,
      "remember": 1495,
      "feliz": 1496,
      "Voy": 1497,
      "ió": 1498,
      "often": 1499,
      "cuenta": 1500,
      "Be": 1501,
      "Vi": 1502,
      "bres": 1503,
      "died": 1504,
      "side": 1505,
      "run": 1506,
      "Nos": 1507,
      "ugh": 1508,
      "peque": 1509,
      "debería": 1510,
      "val": 1511,
      "enough": 1512,
      "looking": 1513,
      "dice": 1514,
      "gado": 1515,
      "keep": 1516,
      "language": 1517,
      "alone": 1518,
      "lim": 1519,
      "té": 1520,
      "tanto": 1521,
      "interes": 1522,
      "Sab": 1523,
      "ath": 1524,
      "gs": 1525,
      "mil": 1526,
      "ayuda": 1527,
      "tain": 1528,
      "phone": 1529,
      "reali": 1530,
      "ellos": 1531,
      "gry": 1532,
      "televis": 1533,
      "ball": 1534,
      "demos": 1535,
      "light": 1536,
      "Todo": 1537,
      "answer": 1538,
      "volver": 1539,
      "visto": 1540,
      "letter": 1541,
      "también": 1542,
      "ure": 1543,
      "clos": 1544,
      "student": 1545,
      "durante": 1546,
      "hos": 1547,
      "dec": 1548,
      "sica": 1549,
      "ayer": 1550,
      "married": 1551,
      "less": 1552,
      "wrong": 1553,
      "alguien": 1554,
      "ight": 1555,
      "true": 1556,
      "fá": 1557,
      "jue": 1558,
      "muchos": 1559,
      "vio": 1560,
      "tienen": 1561,
      "place": 1562,
      "pin": 1563,
      "condu": 1564,
      "knows": 1565,
      "bab": 1566,
      "bel": 1567,
      "ars": 1568,
      "tuvo": 1569,
      "cus": 1570,
      "cold": 1571,
      "around": 1572,
      "these": 1573,
      "todas": 1574,
      "ely": 1575,
      "Mu": 1576,
      "heard": 1577,
      "met": 1578,
      "pra": 1579,
      "rom": 1580,
      "country": 1581,
      "hí": 1582,
      "aste": 1583,
      "once": 1584,
      "allí": 1585,
      "miento": 1586,
      "seguro": 1587,
      "comida": 1588,
      "histori": 1589,
      "Cuándo": 1590,
      "úni": 1591,
      "sible": 1592,
      "month": 1593,
      "fé": 1594,
      "pay": 1595,
      "exper": 1596,
      "ding": 1597,
      "spa": 1598,
      "dom": 1599,
      "break": 1600,
      "happened": 1601,
      "wim": 1602,
      "grande": 1603,
      "profesor": 1604,
      "May": 1605,
      "hope": 1606,
      "ken": 1607,
      "ari": 1608,
      "party": 1609,
      "meri": 1610,
      "pt": 1611,
      "parte": 1612,
      "food": 1613,
      "tigo": 1614,
      "difficul": 1615,
      "univer": 1616,
      "seen": 1617,
      "tory": 1618,
      "ley": 1619,
      "encontrar": 1620,
      "Pen": 1621,
      "city": 1622,
      "hermana": 1623,
      "Fu": 1624,
      "ena": 1625,
      "eras": 1626,
      "alia": 1627,
      "swim": 1628,
      "fee": 1629,
      "Ameri": 1630,
      "entr": 1631,
      "dia": 1632,
      "andon": 1633,
      "tomar": 1634,
      "leer": 1635,
      "books": 1636,
      "aca": 1637,
      "gri": 1638,
      "lor": 1639,
      "olvi": 1640,
      "mucha": 1641,
      "fru": 1642,
      "mind": 1643,
      "Una": 1644,
      "ite": 1645,
      "rela": 1646,
      "café": 1647,
      "wasn": 1648,
      "grand": 1649,
      "mú": 1650,
      "offee": 1651,
      "prom": 1652,
      "looks": 1653,
      "libros": 1654,
      "pronto": 1655,
      "gustan": 1656,
      "Ese": 1657,
      "cked": 1658,
      "word": 1659,
      "alguna": 1660,
      "gro": 1661,
      "fiesta": 1662,
      "ank": 1663,
      "young": 1664,
      "Pod": 1665,
      "bos": 1666,
      "shi": 1667,
      "wish": 1668,
      "tired": 1669,
      "such": 1670,
      "part": 1671,
      "Hoy": 1672,
      "algun": 1673,
      "key": 1674,
      "ría": 1675,
      "vino": 1676,
      "while": 1677,
      "sat": 1678,
      "yer": 1679,
      "yet": 1680,
      "blo": 1681,
      "mple": 1682,
      "manos": 1683,
      "podría": 1684,
      "coffee": 1685,
      "extra": 1686,
      "necesita": 1687,
      "habl": 1688,
      "lled": 1689,
      "avi": 1690,
      "tant": 1691,
      "diez": 1692,
      "fort": 1693,
      "clase": 1694,
      "another": 1695,
      "Ahora": 1696,
      "Go": 1697,
      "ago": 1698,
      "Par": 1699,
      "dente": 1700,
      "cual": 1701,
      "truth": 1702,
      "cent": 1703,
      "eno": 1704,
      "hotel": 1705,
      "llama": 1706,
      "Japón": 1707,
      "ación": 1708,
      "pain": 1709,
      "ef": 1710,
      "sólo": 1711,
      "abandon": 1712,
      "full": 1713,
      "sabía": 1714,
      "busy": 1715,
      "dé": 1716,
      "ima": 1717,
      "debe": 1718,
      "ustr": 1719,
      "resul": 1720,
      "smo": 1721,
      "arse": 1722,
      "hate": 1723,
      "Necesito": 1724,
      "bur": 1725,
      "solu": 1726,
      "nuestra": 1727,
      "Nadie": 1728,
      "Toda": 1729,
      "vivir": 1730,
      "visit": 1731,
      "Mon": 1732,
      "ive": 1733,
      "sk": 1734,
      "sufi": 1735,
      "creo": 1736,
      "inci": 1737,
      "wife": 1738,
      "woman": 1739,
      "conmigo": 1740,
      "bueno": 1741,
      "Would": 1742,
      "contigo": 1743,
      "sion": 1744,
      "carta": 1745,
      "rápido": 1746,
      "\".": 1747,
      "Pare": 1748,
      "bit": 1749,
      "capa": 1750,
      "Tenemos": 1751,
      "accident": 1752,
      "atur": 1753,
      "momento": 1754,
      "sí": 1755,
      "aré": 1756,
      "cido": 1757,
      "Siempre": 1758,
      "which": 1759,
      "Solo": 1760,
      "udo": 1761,
      "ished": 1762,
      "usu": 1763,
      "hijo": 1764,
      "differ": 1765,
      "ahí": 1766,
      "vive": 1767,
      "family": 1768,
      "gni": 1769,
      "jun": 1770,
      "enten": 1771,
      "todavía": 1772,
      "Des": 1773,
      "Per": 1774,
      "parents": 1775,
      "sido": 1776,
      "conse": 1777,
      "familia": 1778,
      "fácil": 1779,
      "Her": 1780,
      "arme": 1781,
      "opin": 1782,
      "age": 1783,
      "má": 1784,
      "cama": 1785,
      "called": 1786,
      "padres": 1787,
      "haciendo": 1788,
      "suficiente": 1789,
      "som": 1790,
      "five": 1791,
      "cosa": 1792,
      "tall": 1793,
      "ham": 1794,
      "cios": 1795,
      "joven": 1796,
      "media": 1797,
      "hospital": 1798,
      "dire": 1799,
      "damente": 1800,
      "tive": 1801,
      "casi": 1802,
      "queda": 1803,
      "knew": 1804,
      "mit": 1805,
      "muchas": 1806,
      "nuestro": 1807,
      "historia": 1808,
      "Come": 1809,
      "toe": 1810,
      "quiera": 1811,
      "gato": 1812,
      "caso": 1813,
      "atro": 1814,
      "oma": 1815,
      "salir": 1816,
      "matter": 1817,
      "vió": 1818,
      "plain": 1819,
      "hon": 1820,
      "chos": 1821,
      "propi": 1822,
      "top": 1823,
      "alo": 1824,
      "resta": 1825,
      "tried": 1826,
      "donde": 1827,
      "música": 1828,
      "each": 1829,
      "ason": 1830,
      "cinco": 1831,
      "seems": 1832,
      "Ma": 1833,
      "inten": 1834,
      "Tiene": 1835,
      "Japanese": 1836,
      "osotros": 1837,
      "Cuánto": 1838,
      "posible": 1839,
      "als": 1840,
      "perfe": 1841,
      "coming": 1842,
      "podía": 1843,
      "walk": 1844,
      "ather": 1845,
      "edad": 1846,
      "jap": 1847,
      "emp": 1848,
      "pasa": 1849,
      "cel": 1850,
      "sali": 1851,
      "zco": 1852,
      "then": 1853,
      "tely": 1854,
      "lives": 1855,
      "puesto": 1856,
      "plane": 1857,
      "small": 1858,
      "lev": 1859,
      "respe": 1860,
      "Austr": 1861,
      "difficult": 1862,
      "mp": 1863,
      "pelícu": 1864,
      "cou": 1865,
      "dow": 1866,
      "cole": 1867,
      "question": 1868,
      "aprender": 1869,
      "sun": 1870,
      "Para": 1871,
      "puso": 1872,
      "bajo": 1873,
      "toeba": 1874,
      "fish": 1875,
      "expe": 1876,
      "primera": 1877,
      "vay": 1878,
      "reci": 1879,
      "venir": 1880,
      "nad": 1881,
      "law": 1882,
      "talking": 1883,
      "police": 1884,
      "cina": 1885,
      "raid": 1886,
      "dream": 1887,
      "listen": 1888,
      "Fue": 1889,
      "abri": 1890,
      "vaca": 1891,
      "few": 1892,
      "horas": 1893,
      "cook": 1894,
      "important": 1895,
      "lengua": 1896,
      "ms": 1897,
      "looked": 1898,
      "afraid": 1899,
      "change": 1900,
      "cr": 1901,
      "getting": 1902,
      "trabajar": 1903,
      "Tatoeba": 1904,
      "ud": 1905,
      "Puede": 1906,
      "wonder": 1907,
      "Australia": 1908,
      "cuán": 1909,
      "yourself": 1910,
      "restaur": 1911,
      "agra": 1912,
      "idi": 1913,
      "land": 1914,
      "cabe": 1915,
      "fono": 1916,
      "puesta": 1917,
      "early": 1918,
      "Tok": 1919,
      "espos": 1920,
      "pregunta": 1921,
      "telé": 1922,
      "ction": 1923,
      "cierto": 1924,
      "high": 1925,
      "produ": 1926,
      "problemas": 1927,
      "Pensé": 1928,
      "llor": 1929,
      "arte": 1930,
      "hubi": 1931,
      "ocupado": 1932,
      "acuerdo": 1933,
      "alth": 1934,
      "class": 1935,
      "ojos": 1936,
      "hair": 1937,
      "trat": 1938,
      "compañ": 1939,
      "sup": 1940,
      "eyes": 1941,
      "Our": 1942,
      "san": 1943,
      "estos": 1944,
      "tum": 1945,
      "intent": 1946,
      "music": 1947,
      "Whi": 1948,
      "siento": 1949,
      "fire": 1950,
      "acerca": 1951,
      "dej": 1952,
      "wear": 1953,
      "trabaj": 1954,
      "says": 1955,
      "pelo": 1956,
      "haven": 1957,
      "Esa": 1958,
      "rough": 1959,
      "ings": 1960,
      "possible": 1961,
      "pol": 1962,
      "ye": 1963,
      "abi": 1964,
      "teléfono": 1965,
      "19": 1966,
      "jus": 1967,
      "face": 1968,
      "exac": 1969,
      "iz": 1970,
      "eng": 1971,
      "art": 1972,
      "realmente": 1973,
      "spo": 1974,
      "those": 1975,
      "cansa": 1976,
      "air": 1977,
      "almost": 1978,
      "hijos": 1979,
      "aque": 1980,
      "tica": 1981,
      "might": 1982,
      "cando": 1983,
      "iendo": 1984,
      "seguir": 1985,
      "mie": 1986,
      "pictu": 1987,
      "pasar": 1988,
      "mento": 1989,
      "Estaba": 1990,
      "bles": 1991,
      "later": 1992,
      "dico": 1993,
      "comes": 1994,
      "última": 1995,
      "lea": 1996,
      "ches": 1997,
      "bió": 1998,
      "30": 1999,
      "fica": 2000,
      "reading": 2001,
      "importante": 2002,
      "write": 2003,
      "accidente": 2004,
      "peli": 2005,
      "uro": 2006,
      "ús": 2007,
      "takes": 2008,
      "estas": 2009,
      "easy": 2010,
      "pueden": 2011,
      "depen": 2012,
      "else": 2013,
      "fuerte": 2014,
      "flow": 2015,
      "ness": 2016,
      "inte": 2017,
      "head": 2018,
      "game": 2019,
      "bastante": 2020,
      "miedo": 2021,
      "free": 2022,
      "super": 2023,
      "menudo": 2024,
      "started": 2025,
      "Todavía": 2026,
      "Fran": 2027,
      "ér": 2028,
      "real": 2029,
      "near": 2030,
      "himself": 2031,
      "present": 2032,
      "anti": 2033,
      "canta": 2034,
      "tiendo": 2035,
      "ag": 2036,
      "Mr": 2037,
      "difer": 2038,
      "joy": 2039,
      "vin": 2040,
      "viene": 2041,
      "Esper": 2042,
      "mesa": 2043,
      "camino": 2044,
      "glas": 2045,
      "suc": 2046,
      "palabra": 2047,
      "palabras": 2048,
      "ward": 2049,
      "comen": 2050,
      "cara": 2051,
      "policía": 2052,
      "Lle": 2053,
      "through": 2054,
      "order": 2055,
      "alto": 2056,
      "until": 2057,
      "gether": 2058,
      "hombres": 2059,
      "error": 2060,
      "blan": 2061,
      "ught": 2062,
      "hours": 2063,
      "mientras": 2064,
      "cli": 2065,
      "espe": 2066,
      "tad": 2067,
      "tico": 2068,
      "vista": 2069,
      "ocur": 2070,
      "tempr": 2071,
      "Ger": 2072,
      "reun": 2073,
      "offi": 2074,
      "popu": 2075,
      "enti": 2076,
      "cuar": 2077,
      "Espero": 2078,
      "mine": 2079,
      "anyone": 2080,
      "mero": 2081,
      "pis": 2082,
      "sy": 2083,
      "parti": 2084,
      "sola": 2085,
      "razón": 2086,
      "Nues": 2087,
      "Son": 2088,
      "mean": 2089,
      "dinner": 2090,
      "TV": 2091,
      "clu": 2092,
      "cuida": 2093,
      "jugar": 2094,
      "fel": 2095,
      "bet": 2096,
      "extran": 2097,
      "meeting": 2098,
      "window": 2099,
      "flo": 2100,
      "shor": 2101,
      "temprano": 2102,
      "ation": 2103,
      "adu": 2104,
      "ería": 2105,
      "noti": 2106,
      "estudiar": 2107,
      "For": 2108,
      "lie": 2109,
      "gol": 2110,
      "rible": 2111,
      "someone": 2112,
      "dormir": 2113,
      "ace": 2114,
      "tivo": 2115,
      "myself": 2116,
      "Pe": 2117,
      "viendo": 2118,
      "Dios": 2119,
      "cine": 2120,
      "igu": 2121,
      "isi": 2122,
      "confi": 2123,
      "road": 2124,
      "pret": 2125,
      "favorite": 2126,
      "danger": 2127,
      "Deberías": 2128,
      "dí": 2129,
      "nú": 2130,
      "ener": 2131,
      "together": 2132,
      "working": 2133,
      "turned": 2134,
      "árbol": 2135,
      "dado": 2136,
      "usa": 2137,
      "cry": 2138,
      "erno": 2139,
      "Does": 2140,
      "hue": 2141,
      "sick": 2142,
      "pró": 2143,
      "levant": 2144,
      "Ar": 2145,
      "str": 2146,
      "muerte": 2147,
      "Estamos": 2148,
      "sigu": 2149,
      "fueron": 2150,
      "situ": 2151,
      "enseñ": 2152,
      "town": 2153,
      "estación": 2154,
      "prefer": 2155,
      "number": 2156,
      "importa": 2157,
      "lunes": 2158,
      "lunch": 2159,
      "computer": 2160,
      "These": 2161,
      "...": 2162,
      "ot": 2163,
      "dejó": 2164,
      "tipo": 2165,
      "atten": 2166,
      "forget": 2167,
      "piano": 2168,
      "llevar": 2169,
      "cabeza": 2170,
      "God": 2171,
      "ated": 2172,
      "atra": 2173,
      "bon": 2174,
      "ará": 2175,
      "having": 2176,
      "pier": 2177,
      "pasó": 2178,
      "playing": 2179,
      "color": 2180,
      "Tell": 2181,
      "llamar": 2182,
      "escribir": 2183,
      "dou": 2184,
      "gal": 2185,
      "ane": 2186,
      "words": 2187,
      "Quieres": 2188,
      "since": 2189,
      "ited": 2190,
      "angry": 2191,
      "condi": 2192,
      "stre": 2193,
      "cualquier": 2194,
      "arro": 2195,
      "death": 2196,
      "comp": 2197,
      "quite": 2198,
      "station": 2199,
      "Could": 2200,
      "Po": 2201,
      "ast": 2202,
      "eating": 2203,
      "decis": 2204,
      "Lon": 2205,
      "ned": 2206,
      "murió": 2207,
      "bici": 2208,
      "Pre": 2209,
      "snow": 2210,
      "tradu": 2211,
      "sum": 2212,
      "Thank": 2213,
      "minutos": 2214,
      "nadar": 2215,
      "dicho": 2216,
      "pidió": 2217,
      "ici": 2218,
      "rar": 2219,
      "dress": 2220,
      "Sabes": 2221,
      "película": 2222,
      "At": 2223,
      "ka": 2224,
      "reason": 2225,
      "ween": 2226,
      "equivo": 2227,
      "Monday": 2228,
      "One": 2229,
      "cá": 2230,
      "lá": 2231,
      "set": 2232,
      "tenemos": 2233,
      "estaban": 2234,
      "llev": 2235,
      "dere": 2236,
      "fra": 2237,
      "fol": 2238,
      "fall": 2239,
      "sos": 2240,
      "tura": 2241,
      "zapa": 2242,
      "anoche": 2243,
      "wouldn": 2244,
      "japon": 2245,
      "cta": 2246,
      "zado": 2247,
      "tonight": 2248,
      "ases": 2249,
      "conta": 2250,
      "tonces": 2251,
      "vari": 2252,
      "aremos": 2253,
      "televisión": 2254,
      "Ken": 2255,
      "ama": 2256,
      "lidad": 2257,
      "makes": 2258,
      "expli": 2259,
      "cess": 2260,
      "nueva": 2261,
      "born": 2262,
      "minutes": 2263,
      "consider": 2264,
      "oud": 2265,
      "cover": 2266,
      "both": 2267,
      "pudo": 2268,
      "human": 2269,
      "against": 2270,
      "igh": 2271,
      "pped": 2272,
      "punto": 2273,
      "spen": 2274,
      "signi": 2275,
      "pedir": 2276,
      "students": 2277,
      "dro": 2278,
      "story": 2279,
      "orden": 2280,
      "hot": 2281,
      "appe": 2282,
      "ughter": 2283,
      "Sami": 2284,
      "ire": 2285,
      "futu": 2286,
      "será": 2287,
      "Parece": 2288,
      "ties": 2289,
      "adas": 2290,
      "interest": 2291,
      "pretty": 2292,
      "próxi": 2293,
      "Sus": 2294,
      "jero": 2295,
      "sp": 2296,
      "eran": 2297,
      "band": 2298,
      "test": 2299,
      "guas": 2300,
      "China": 2301,
      "waiting": 2302,
      "Euro": 2303,
      "eo": 2304,
      "six": 2305,
      "gio": 2306,
      "Estados": 2307,
      "Ayer": 2308,
      "aría": 2309,
      "esposa": 2310,
      "Ex": 2311,
      "Ven": 2312,
      "sound": 2313,
      "ura": 2314,
      "aren": 2315,
      "anas": 2316,
      "thir": 2317,
      "deli": 2318,
      "cuen": 2319,
      "quien": 2320,
      "start": 2321,
      "experien": 2322,
      "four": 2323,
      "rest": 2324,
      "rich": 2325,
      "itas": 2326,
      "hermos": 2327,
      "frío": 2328,
      "felt": 2329,
      "adi": 2330,
      "gone": 2331,
      "relo": 2332,
      "noon": 2333,
      "diver": 2334,
      "sive": 2335,
      "guitar": 2336,
      "lares": 2337,
      "ningún": 2338,
      "arrived": 2339,
      "número": 2340,
      "tón": 2341,
      "hacia": 2342,
      "memor": 2343,
      "trou": 2344,
      "beb": 2345,
      "nice": 2346,
      "Unidos": 2347,
      "fre": 2348,
      "swe": 2349,
      "dije": 2350,
      "contin": 2351,
      "pagar": 2352,
      "box": 2353,
      "princi": 2354,
      "decided": 2355,
      "Gra": 2356,
      "stran": 2357,
      "health": 2358,
      "heart": 2359,
      "aún": 2360,
      "cla": 2361,
      "ither": 2362,
      "aten": 2363,
      "others": 2364,
      "shoes": 2365,
      "Everyone": 2366,
      "Sta": 2367,
      "bús": 2368,
      "esca": 2369,
      "usar": 2370,
      "flu": 2371,
      "pun": 2372,
      "abo": 2373,
      "podemos": 2374,
      "bido": 2375,
      "finished": 2376,
      "reloj": 2377,
      "yó": 2378,
      "vice": 2379,
      "anymore": 2380,
      "needs": 2381,
      "Ju": 2382,
      "dra": 2383,
      "ater": 2384,
      "guerra": 2385,
      "estamos": 2386,
      "ched": 2387,
      "office": 2388,
      "Ti": 2389,
      "zed": 2390,
      "informa": 2391,
      "goes": 2392,
      "vimos": 2393,
      "sub": 2394,
      "acos": 2395,
      "creer": 2396,
      "clock": 2397,
      "único": 2398,
      "zapatos": 2399,
      "cí": 2400,
      "natur": 2401,
      "conver": 2402,
      "cleta": 2403,
      "jug": 2404,
      "deberías": 2405,
      "shop": 2406,
      "algún": 2407,
      "cra": 2408,
      "kill": 2409,
      "osa": 2410,
      "uelo": 2411,
      "calle": 2412,
      "hurt": 2413,
      "Sin": 2414,
      "encanta": 2415,
      "loves": 2416,
      "everyone": 2417,
      "gy": 2418,
      "hici": 2419,
      "case": 2420,
      "fuer": 2421,
      "trying": 2422,
      "unos": 2423,
      "tienda": 2424,
      "chica": 2425,
      "estudiantes": 2426,
      "baby": 2427,
      "fl": 2428,
      "gent": 2429,
      "hal": 2430,
      "ping": 2431,
      "doll": 2432,
      "prepar": 2433,
      "Take": 2434,
      "Tr": 2435,
      "dades": 2436,
      "seri": 2437,
      "primer": 2438,
      "clean": 2439,
      "ete": 2440,
      "río": 2441,
      "daughter": 2442,
      "living": 2443,
      "river": 2444,
      "viol": 2445,
      "broke": 2446,
      "On": 2447,
      "kid": 2448,
      "cidad": 2449,
      "Which": 2450,
      "street": 2451,
      "tree": 2452,
      "eri": 2453,
      "ori": 2454,
      "recor": 2455,
      "movie": 2456,
      "misma": 2457,
      "señor": 2458,
      "cts": 2459,
      "hablando": 2460,
      "between": 2461,
      "ps": 2462,
      "enjoy": 2463,
      "cut": 2464,
      "cuatro": 2465,
      "perder": 2466,
      "sueño": 2467,
      "different": 2468,
      "cansado": 2469,
      "Give": 2470,
      "ack": 2471,
      "ild": 2472,
      "radio": 2473,
      "manz": 2474,
      "clear": 2475,
      "killed": 2476,
      "Que": 2477,
      "ming": 2478,
      "estre": 2479,
      "point": 2480,
      "manera": 2481,
      "weather": 2482,
      "chico": 2483,
      "sorry": 2484,
      "drive": 2485,
      "fortuna": 2486,
      "company": 2487,
      "apo": 2488,
      "fell": 2489,
      "sas": 2490,
      "ating": 2491,
      "prob": 2492,
      "foto": 2493,
      "sentence": 2494,
      "cuarto": 2495,
      "cious": 2496,
      "mane": 2497,
      "lleva": 2498,
      "Sun": 2499,
      "cru": 2500,
      "ofic": 2501,
      "tador": 2502,
      "short": 2503,
      "bicicleta": 2504,
      "begin": 2505,
      "pid": 2506,
      "limpi": 2507,
      "ech": 2508,
      "mol": 2509,
      "Nobody": 2510,
      "park": 2511,
      "presid": 2512,
      "birth": 2513,
      "ventana": 2514,
      "entender": 2515,
      "strong": 2516,
      "Li": 2517,
      "kis": 2518,
      "lin": 2519,
      "dolor": 2520,
      "seis": 2521,
      "area": 2522,
      "bado": 2523,
      "build": 2524,
      "pensar": 2525,
      "reunión": 2526,
      "dera": 2527,
      "ñas": 2528,
      "also": 2529,
      "conven": 2530,
      "dedor": 2531,
      "usually": 2532,
      "verano": 2533,
      "edu": 2534,
      "poner": 2535,
      "preguntó": 2536,
      "cept": 2537,
      "inv": 2538,
      "breakfast": 2539,
      "colegio": 2540,
      "picture": 2541,
      "Us": 2542,
      "whe": 2543,
      "sever": 2544,
      "libre": 2545,
      "uste": 2546,
      "forgot": 2547,
      "actu": 2548,
      "Algun": 2549,
      "autobús": 2550,
      "realidad": 2551,
      "hubiera": 2552,
      "sorpren": 2553,
      "oír": 2554,
      "Gracias": 2555,
      "ustedes": 2556,
      "Nosotros": 2557,
      "Vamos": 2558,
      "dij": 2559,
      "began": 2560,
      "ninguna": 2561,
      "black": 2562,
      "oficina": 2563,
      "Mis": 2564,
      "fing": 2565,
      "enter": 2566,
      "tera": 2567,
      "fai": 2568,
      "homework": 2569,
      "esperar": 2570,
      "gener": 2571,
      "viejo": 2572,
      "follow": 2573,
      "Will": 2574,
      "iness": 2575,
      "rob": 2576,
      "simple": 2577,
      "trouble": 2578,
      "Sólo": 2579,
      "dead": 2580,
      "embar": 2581,
      "luz": 2582,
      "Aquí": 2583,
      "Bu": 2584,
      "deb": 2585,
      "gamos": 2586,
      "summer": 2587,
      "Many": 2588,
      "edi": 2589,
      "jeres": 2590,
      "sou": 2591,
      "ters": 2592,
      "poder": 2593,
      "coraz": 2594,
      "Alguien": 2595,
      "Get": 2596,
      "ised": 2597,
      "reli": 2598,
      "novel": 2599,
      "dieron": 2600,
      "trás": 2601,
      "conf": 2602,
      "llu": 2603,
      "luck": 2604,
      "mand": 2605,
      "smi": 2606,
      "caja": 2607,
      "mujeres": 2608,
      "respuesta": 2609,
      "pass": 2610,
      "idad": 2611,
      "rist": 2612,
      "lejos": 2613,
      "hice": 2614,
      "desay": 2615,
      "satis": 2616,
      "10": 2617,
      "aver": 2618,
      "clar": 2619,
      "fla": 2620,
      "tou": 2621,
      "ciencia": 2622,
      "hija": 2623,
      "desper": 2624,
      "examen": 2625,
      "nis": 2626,
      "perdido": 2627,
      "afternoon": 2628,
      "cycle": 2629,
      "tea": 2630,
      "dida": 2631,
      "esté": 2632,
      "eremos": 2633,
      "fui": 2634,
      "llegó": 2635,
      "médico": 2636,
      "capaz": 2637,
      "cali": 2638,
      "lí": 2639,
      "lived": 2640,
      "capital": 2641,
      "fumar": 2642,
      "shouldn": 2643,
      "America": 2644,
      "dden": 2645,
      "ig": 2646,
      "ello": 2647,
      "cake": 2648,
      "absolu": 2649,
      "canción": 2650,
      "bai": 2651,
      "large": 2652,
      "elec": 2653,
      "guy": 2654,
      "tenido": 2655,
      "descu": 2656,
      "speaks": 2657,
      "Christ": 2658,
      "Debería": 2659,
      "hus": 2660,
      "preocu": 2661,
      "song": 2662,
      "cena": 2663,
      "isiera": 2664,
      "along": 2665,
      "become": 2666,
      "became": 2667,
      "pati": 2668,
      "pur": 2669,
      "acep": 2670,
      "due": 2671,
      "drá": 2672,
      "compró": 2673,
      "mío": 2674,
      "moment": 2675,
      "Fui": 2676,
      "avión": 2677,
      "dge": 2678,
      "pó": 2679,
      "older": 2680,
      "mistake": 2681,
      "final": 2682,
      "languages": 2683,
      "ignor": 2684,
      "algunos": 2685,
      "Usted": 2686,
      "Jane": 2687,
      "hit": 2688,
      "chas": 2689,
      "dark": 2690,
      "duro": 2691,
      "white": 2692,
      "unidad": 2693,
      "ks": 2694,
      "enamor": 2695,
      "taxi": 2696,
      "rico": 2697,
      "muer": 2698,
      "niña": 2699,
      "works": 2700,
      "surpris": 2701,
      "falta": 2702,
      "doming": 2703,
      "tennis": 2704,
      "oído": 2705,
      "emplo": 2706,
      "Dé": 2707,
      "Jack": 2708,
      "ense": 2709,
      "anci": 2710,
      "ork": 2711,
      "bamos": 2712,
      "sino": 2713,
      "buscando": 2714,
      "chance": 2715,
      "juntos": 2716,
      "cien": 2717,
      "whole": 2718,
      "volu": 2719,
      "conoce": 2720,
      "obje": 2721,
      "enfermo": 2722,
      "juego": 2723,
      "japonés": 2724,
      "Era": 2725,
      "agu": 2726,
      "ny": 2727,
      "medio": 2728,
      "quit": 2729,
      "emple": 2730,
      "pose": 2731,
      "pájar": 2732,
      "American": 2733,
      "corazón": 2734,
      "Ho": 2735,
      "Sí": 2736,
      "oport": 2737,
      "encuen": 2738,
      "news": 2739,
      "longer": 2740,
      "dormi": 2741,
      "20": 2742,
      "rece": 2743,
      "leche": 2744,
      "caught": 2745,
      "viera": 2746,
      "prote": 2747,
      "vamos": 2748,
      "visitar": 2749,
      "stupid": 2750,
      "esperando": 2751,
      "diction": 2752,
      "popular": 2753,
      "bebé": 2754,
      "rep": 2755,
      "cación": 2756,
      "ropa": 2757,
      "diendo": 2758,
      "ature": 2759,
      "store": 2760,
      "hind": 2761,
      "conozco": 2762,
      "cloth": 2763,
      "pequeño": 2764,
      "milk": 2765,
      "interesting": 2766,
      "Ni": 2767,
      "ji": 2768,
      "toma": 2769,
      "antas": 2770,
      "known": 2771,
      "Como": 2772,
      "torio": 2773,
      "constru": 2774,
      "idioma": 2775,
      "German": 2776,
      "spend": 2777,
      "apare": 2778,
      "wel": 2779,
      "ído": 2780,
      "enga": 2781,
      "unas": 2782,
      "cap": 2783,
      "nego": 2784,
      "lose": 2785,
      "tenis": 2786,
      "estuvo": 2787,
      "Af": 2788,
      "apar": 2789,
      "fle": 2790,
      "ug": 2791,
      "anza": 2792,
      "reco": 2793,
      "trust": 2794,
      "ries": 2795,
      "permi": 2796,
      "quick": 2797,
      "Debes": 2798,
      "saying": 2799,
      "ross": 2800,
      "Cana": 2801,
      "ví": 2802,
      "concer": 2803,
      "rica": 2804,
      "poor": 2805,
      "earth": 2806,
      "And": 2807,
      "bat": 2808,
      "gor": 2809,
      "spi": 2810,
      "expen": 2811,
      "culpa": 2812,
      "terminar": 2813,
      "asi": 2814,
      "quedó": 2815,
      "terrible": 2816,
      "net": 2817,
      "travel": 2818,
      "sería": 2819,
      "viaje": 2820,
      "smoking": 2821,
      "flores": 2822,
      "Christmas": 2823,
      "ame": 2824,
      "gina": 2825,
      "ko": 2826,
      "incre": 2827,
      "oscu": 2828,
      "lad": 2829,
      "rote": 2830,
      "verte": 2831,
      "piz": 2832,
      "fic": 2833,
      "animales": 2834,
      "Span": 2835,
      "arm": 2836,
      "tocar": 2837,
      "riendo": 2838,
      "rather": 2839,
      "paper": 2840,
      "peligr": 2841,
      "Co": 2842,
      "jam": 2843,
      "esti": 2844,
      "alre": 2845,
      "segun": 2846,
      "ush": 2847,
      "making": 2848,
      "suerte": 2849,
      "Look": 2850,
      "jard": 2851,
      "éx": 2852,
      "admi": 2853,
      "movi": 2854,
      "pueda": 2855,
      "ganas": 2856,
      "Cuántos": 2857,
      "hands": 2858,
      "studying": 2859,
      "close": 2860,
      "gg": 2861,
      "mant": 2862,
      "demás": 2863,
      "dian": 2864,
      "soci": 2865,
      "business": 2866,
      "Cono": 2867,
      "Hace": 2868,
      "watching": 2869,
      "normal": 2870,
      "ship": 2871,
      "appear": 2872,
      "éxito": 2873,
      "entonces": 2874,
      "behind": 2875,
      "mach": 2876,
      "ants": 2877,
      "cks": 2878,
      "sabes": 2879,
      "selves": 2880,
      "listo": 2881,
      "hambre": 2882,
      "cuidado": 2883,
      "evi": 2884,
      "vidad": 2885,
      "publi": 2886,
      "explain": 2887,
      "calor": 2888,
      "Dis": 2889,
      "tly": 2890,
      "wrote": 2891,
      "ance": 2892,
      "itch": 2893,
      "prove": 2894,
      "pude": 2895,
      "fron": 2896,
      "control": 2897,
      "vacaciones": 2898,
      "moun": 2899,
      "ring": 2900,
      "parado": 2901,
      "largo": 2902,
      "Estu": 2903,
      "wash": 2904,
      "expres": 2905,
      "choco": 2906,
      "funcion": 2907,
      "dólares": 2908,
      "pieza": 2909,
      "flowers": 2910,
      "cámar": 2911,
      "Spanish": 2912,
      "Wi": 2913,
      "York": 2914,
      "base": 2915,
      "ies": 2916,
      "date": 2917,
      "perdió": 2918,
      "allá": 2919,
      "fil": 2920,
      "bring": 2921,
      "foreign": 2922,
      "Chi": 2923,
      "Sa": 2924,
      "secon": 2925,
      "veo": 2926,
      "nee": 2927,
      "lying": 2928,
      "garden": 2929,
      "thinking": 2930,
      "Había": 2931,
      "diccion": 2932,
      "expensive": 2933,
      "alrededor": 2934,
      "Ke": 2935,
      "team": 2936,
      "cielo": 2937,
      "cabal": 2938,
      "main": 2939,
      "trabaja": 2940,
      "necesito": 2941,
      "colle": 2942,
      "sentido": 2943,
      "opinion": 2944,
      "fres": 2945,
      "gon": 2946,
      "jal": 2947,
      "sell": 2948,
      "refu": 2949,
      "tados": 2950,
      "novia": 2951,
      "pudi": 2952,
      "finish": 2953,
      "during": 2954,
      "count": 2955,
      "vuelta": 2956,
      "transla": 2957,
      "entrar": 2958,
      "After": 2959,
      "slow": 2960,
      "anos": 2961,
      "isten": 2962,
      "neigh": 2963,
      "amar": 2964,
      "inteli": 2965,
      "Just": 2966,
      "wed": 2967,
      "advice": 2968,
      "preguntas": 2969,
      "000": 2970,
      "hungry": 2971,
      "interesante": 2972,
      "glasses": 2973,
      "half": 2974,
      "touch": 2975,
      "Col": 2976,
      "Pien": 2977,
      "sul": 2978,
      "salud": 2979,
      "haya": 2980,
      "conoci": 2981,
      "salió": 2982,
      "compañía": 2983,
      "floor": 2984,
      "jardín": 2985,
      "econ": 2986,
      "sof": 2987,
      "cumple": 2988,
      "cocina": 2989,
      "miss": 2990,
      "malo": 2991,
      "ruido": 2992,
      "foot": 2993,
      "computador": 2994,
      "dangerous": 2995,
      "Pas": 2996,
      "Stop": 2997,
      "fam": 2998,
      "grow": 2999,
      "zas": 3000,
      "cabo": 3001,
      "parque": 3002,
      "kept": 3003,
      "mostr": 3004,
      "prome": 3005,
      "fight": 3006,
      "discus": 3007,
      "animals": 3008,
      "women": 3009,
      "extranjero": 3010,
      "lluvia": 3011,
      "husband": 3012,
      "ote": 3013,
      "españ": 3014,
      "orgu": 3015,
      "least": 3016,
      "llave": 3017,
      "conducir": 3018,
      "español": 3019,
      "ev": 3020,
      "ples": 3021,
      "ré": 3022,
      "rías": 3023,
      "though": 3024,
      "haga": 3025,
      "leg": 3026,
      "iento": 3027,
      "monta": 3028,
      "surprised": 3029,
      "oportunidad": 3030,
      "Bill": 3031,
      "oc": 3032,
      "omas": 3033,
      "abur": 3034,
      "gué": 3035,
      "bicycle": 3036,
      "alidad": 3037,
      "New": 3038,
      "algunas": 3039,
      "tten": 3040,
      "indi": 3041,
      "lity": 3042,
      "perros": 3043,
      "cocin": 3044,
      "manas": 3045,
      "nieve": 3046,
      "morir": 3047,
      "worry": 3048,
      "cree": 3049,
      "regalo": 3050,
      "sense": 3051,
      "covered": 3052,
      "Oh": 3053,
      "jado": 3054,
      "ences": 3055,
      "ueva": 3056,
      "frase": 3057,
      "impres": 3058,
      "ore": 3059,
      "contar": 3060,
      "vide": 3061,
      "viste": 3062,
      "Debe": 3063,
      "animal": 3064,
      "serious": 3065,
      "birthday": 3066,
      "bom": 3067,
      "tí": 3068,
      "olver": 3069,
      "conocer": 3070,
      "Chin": 3071,
      "questions": 3072,
      "mientos": 3073,
      "chocolate": 3074,
      "tbol": 3075,
      "tomó": 3076,
      "allow": 3077,
      "taken": 3078,
      "Now": 3079,
      "girlfriend": 3080,
      "diccionario": 3081,
      "deser": 3082,
      "jame": 3083,
      "careful": 3084,
      "success": 3085,
      "spent": 3086,
      "dictionary": 3087,
      "clothes": 3088,
      "cámara": 3089,
      "Em": 3090,
      "cour": 3091,
      "iba": 3092,
      "taking": 3093,
      "gió": 3094,
      "Today": 3095,
      "stood": 3096,
      "lista": 3097,
      "Sunday": 3098,
      "ata": 3099,
      "ily": 3100,
      "progra": 3101,
      "carne": 3102,
      "pueblo": 3103,
      "helped": 3104,
      "secret": 3105,
      "building": 3106,
      "edifi": 3107,
      "Chinese": 3108,
      "Tra": 3109,
      "unque": 3110,
      "hagas": 3111,
      "cient": 3112,
      "estú": 3113,
      "porte": 3114,
      "guar": 3115,
      "nuestros": 3116,
      "problems": 3117,
      "stopped": 3118,
      "primero": 3119,
      "vaya": 3120,
      "People": 3121,
      "atención": 3122,
      "jalá": 3123,
      "ctos": 3124,
      "sha": 3125,
      "ír": 3126,
      "envi": 3127,
      "alta": 3128,
      "dese": 3129,
      "fico": 3130,
      "vestido": 3131,
      "polí": 3132,
      "Ojalá": 3133,
      "Pero": 3134,
      "beber": 3135,
      "thinks": 3136,
      "vesti": 3137,
      "ideas": 3138,
      "shir": 3139,
      "cumpleaños": 3140,
      "Jim": 3141,
      "hose": 3142,
      "ling": 3143,
      "eros": 3144,
      "muse": 3145,
      "bath": 3146,
      "pleas": 3147,
      "pequeña": 3148,
      "sky": 3149,
      "agree": 3150,
      "Cada": 3151,
      "tío": 3152,
      "ists": 3153,
      "hea": 3154,
      "tiva": 3155,
      "logi": 3156,
      "tud": 3157,
      "bag": 3158,
      "upon": 3159,
      "brero": 3160,
      "ject": 3161,
      "estudiante": 3162,
      "changed": 3163,
      "secreto": 3164,
      "opinión": 3165,
      "senta": 3166,
      "ticas": 3167,
      "usi": 3168,
      "ridad": 3169,
      "mur": 3170,
      "papel": 3171,
      "gets": 3172,
      "camera": 3173,
      "banco": 3174,
      "ctive": 3175,
      "Después": 3176,
      "dollars": 3177,
      "aire": 3178,
      "gres": 3179,
      "ior": 3180,
      "pho": 3181,
      "lion": 3182,
      "siete": 3183,
      "move": 3184,
      "famos": 3185,
      "profun": 3186,
      "volvió": 3187,
      "mayoría": 3188,
      "única": 3189,
      "agrada": 3190,
      "doub": 3191,
      "acostum": 3192,
      "tarea": 3193,
      "escal": 3194,
      "total": 3195,
      "debes": 3196,
      "laugh": 3197,
      "loved": 3198,
      "liber": 3199,
      "aban": 3200,
      "maes": 3201,
      "ented": 3202,
      "regres": 3203,
      "equipo": 3204,
      "Tokyo": 3205,
      "Nuestro": 3206,
      "significa": 3207,
      "sad": 3208,
      "tent": 3209,
      "noise": 3210,
      "tional": 3211,
      "solía": 3212,
      "United": 3213,
      "Tokio": 3214,
      "famous": 3215,
      "aw": 3216,
      "ciste": 3217,
      "gía": 3218,
      "hol": 3219,
      "mel": 3220,
      "scar": 3221,
      "incl": 3222,
      "alem": 3223,
      "Quisiera": 3224,
      "Deja": 3225,
      "Están": 3226,
      "extraño": 3227,
      "consejo": 3228,
      "second": 3229,
      "oper": 3230,
      "oro": 3231,
      "means": 3232,
      "cup": 3233,
      "siti": 3234,
      "mando": 3235,
      "prend": 3236,
      "certain": 3237,
      "hasn": 3238,
      "dentro": 3239,
      "bank": 3240,
      "catch": 3241,
      "llover": 3242,
      "errores": 3243,
      "perfect": 3244,
      "craz": 3245,
      "idio": 3246,
      "ang": 3247,
      "meat": 3248,
      "seat": 3249,
      "conseguir": 3250,
      "Not": 3251,
      "bibli": 3252,
      "frente": 3253,
      "eaten": 3254,
      "pregunto": 3255,
      "encontré": 3256,
      "fully": 3257,
      "sigui": 3258,
      "probable": 3259,
      "eta": 3260,
      "glad": 3261,
      "seven": 3262,
      "mail": 3263,
      "extre": 3264,
      "escuch": 3265,
      "escuchar": 3266,
      "Mañana": 3267,
      "whether": 3268,
      "quickly": 3269,
      "dred": 3270,
      "fú": 3271,
      "wine": 3272,
      "yen": 3273,
      "inmedia": 3274,
      "offer": 3275,
      "sign": 3276,
      "baño": 3277,
      "cerra": 3278,
      "corr": 3279,
      "dul": 3280,
      "smell": 3281,
      "restaurant": 3282,
      "wearing": 3283,
      "espa": 3284,
      "arlo": 3285,
      "uego": 3286,
      "silen": 3287,
      "pió": 3288,
      "outside": 3289,
      "cream": 3290,
      "somos": 3291,
      "religi": 3292,
      "alemán": 3293,
      "vy": 3294,
      "camis": 3295,
      "rate": 3296,
      "pobre": 3297,
      "fied": 3298,
      "mala": 3299,
      "cuerda": 3300,
      "tics": 3301,
      "writing": 3302,
      "cantar": 3303,
      "?\"": 3304,
      "But": 3305,
      "pir": 3306,
      "enci": 3307,
      "preten": 3308,
      "drun": 3309,
      "trip": 3310,
      "barco": 3311,
      "dogs": 3312,
      "terminado": 3313,
      "curso": 3314,
      "bibliote": 3315,
      "adores": 3316,
      "belie": 3317,
      "written": 3318,
      "Podría": 3319,
      "crazy": 3320,
      "Lu": 3321,
      "otras": 3322,
      "úbli": 3323,
      "vieron": 3324,
      "proud": 3325,
      "cost": 3326,
      "brought": 3327,
      "ments": 3328,
      "quieras": 3329,
      "hundred": 3330,
      "closed": 3331,
      "restaurante": 3332,
      "igual": 3333,
      "encontra": 3334,
      "arre": 3335,
      "tada": 3336,
      "compra": 3337,
      "safe": 3338,
      "yours": 3339,
      "meses": 3340,
      "temper": 3341,
      "Everybody": 3342,
      "Am": 3343,
      "Sal": 3344,
      "Tur": 3345,
      "Yes": 3346,
      "pul": 3347,
      "fine": 3348,
      "sale": 3349,
      "gracias": 3350,
      "speaking": 3351,
      "completamente": 3352,
      "justo": 3353,
      "Europe": 3354,
      "Keep": 3355,
      "fútbol": 3356,
      "Ale": 3357,
      "vac": 3358,
      "uncle": 3359,
      "mad": 3360,
      "gatos": 3361,
      "mistakes": 3362,
      "distan": 3363,
      "blanco": 3364,
      "strange": 3365,
      "agre": 3366,
      "emo": 3367,
      "ony": 3368,
      "return": 3369,
      "mid": 3370,
      "sil": 3371,
      "fair": 3372,
      "fix": 3373,
      "weight": 3374,
      "crees": 3375,
      "posed": 3376,
      "worked": 3377,
      "cenar": 3378,
      "played": 3379,
      "necess": 3380,
      "Alg": 3381,
      "Compr": 3382,
      "quieren": 3383,
      "último": 3384,
      "piensa": 3385,
      "Podrías": 3386,
      "attention": 3387,
      "derecho": 3388,
      "With": 3389,
      "orgullos": 3390,
      "Aún": 3391,
      "Put": 3392,
      "lies": 3393,
      "complain": 3394,
      "sidad": 3395,
      "siquiera": 3396,
      "fiero": 3397,
      "bread": 3398,
      "given": 3399,
      "interested": 3400,
      "llorar": 3401,
      "Bob": 3402,
      "Rus": 3403,
      "send": 3404,
      "veza": 3405,
      "mate": 3406,
      "vivo": 3407,
      "muerto": 3408,
      "figu": 3409,
      "penas": 3410,
      "fuego": 3411,
      "ruin": 3412,
      "completely": 3413,
      "blue": 3414,
      "decision": 3415,
      "edificio": 3416,
      "biblioteca": 3417,
      "Cor": 3418,
      "eth": 3419,
      "nar": 3420,
      "entiendo": 3421,
      "ora": 3422,
      "alla": 3423,
      "dientes": 3424,
      "triste": 3425,
      "gover": 3426,
      "beer": 3427,
      "cerveza": 3428,
      "excep": 3429,
      "venido": 3430,
      "obli": 3431,
      "Everything": 3432,
      "library": 3433,
      "empezó": 3434,
      "neighbor": 3435,
      "Vas": 3436,
      "ff": 3437,
      "line": 3438,
      "ost": 3439,
      "teen": 3440,
      "une": 3441,
      "liked": 3442,
      "mira": 3443,
      "parar": 3444,
      "trata": 3445,
      "obser": 3446,
      "bird": 3447,
      "equivocado": 3448,
      "Bo": 3449,
      "Even": 3450,
      "ró": 3451,
      "inta": 3452,
      "cuanto": 3453,
      "boca": 3454,
      "voz": 3455,
      "temá": 3456,
      "clases": 3457,
      "honest": 3458,
      "trabajando": 3459,
      "States": 3460,
      "front": 3461,
      "Gu": 3462,
      "wit": 3463,
      "outh": 3464,
      "beach": 3465,
      "pared": 3466,
      "despi": 3467,
      "board": 3468,
      "apple": 3469,
      "chair": 3470,
      "learning": 3471,
      "months": 3472,
      "Maybe": 3473,
      "grandes": 3474,
      "sombrero": 3475,
      "próximo": 3476,
      "Ser": 3477,
      "obe": 3478,
      "asunto": 3479,
      "form": 3480,
      "fear": 3481,
      "worth": 3482,
      "presa": 3483,
      "parecía": 3484,
      "Navidad": 3485,
      "enferme": 3486,
      "running": 3487,
      "patient": 3488,
      "hold": 3489,
      "ible": 3490,
      "alcan": 3491,
      "puerto": 3492,
      "herself": 3493,
      "cking": 3494,
      "pensa": 3495,
      "horse": 3496,
      "servi": 3497,
      "mentir": 3498,
      "discu": 3499,
      "preguntar": 3500,
      "Cuántas": 3501,
      "Haz": 3502,
      "dance": 3503,
      "stayed": 3504,
      "prison": 3505,
      "propia": 3506,
      "cuándo": 3507,
      "Tierra": 3508,
      "several": 3509,
      "shirt": 3510,
      "smar": 3511,
      "vege": 3512,
      "matemá": 3513,
      "siendo": 3514,
      "paid": 3515,
      "probab": 3516,
      "missed": 3517,
      "cambiar": 3518,
      "golf": 3519,
      "fat": 3520,
      "ual": 3521,
      "wall": 3522,
      "conten": 3523,
      "sometimes": 3524,
      "favorito": 3525,
      "playa": 3526,
      "television": 3527,
      "exactly": 3528,
      "spoke": 3529,
      "Here": 3530,
      "cere": 3531,
      "mía": 3532,
      "entien": 3533,
      "ladr": 3534,
      "cation": 3535,
      "cuesta": 3536,
      "canadi": 3537,
      "precio": 3538,
      "acá": 3539,
      "zada": 3540,
      "Mira": 3541,
      "smoke": 3542,
      "club": 3543,
      "London": 3544,
      "future": 3545,
      "needed": 3546,
      "sitio": 3547,
      "cis": 3548,
      "quina": 3549,
      "suit": 3550,
      "Estos": 3551,
      "biendo": 3552,
      "despe": 3553,
      "imposible": 3554,
      "golpe": 3555,
      "Londres": 3556,
      "principi": 3557,
      "Hu": 3558,
      "Ro": 3559,
      "lay": 3560,
      "vela": 3561,
      "villa": 3562,
      "shall": 3563,
      "seemed": 3564,
      "leyendo": 3565,
      "bailar": 3566,
      "econom": 3567,
      "Dame": 3568,
      "Nor": 3569,
      "Was": 3570,
      "apro": 3571,
      "ror": 3572,
      "stra": 3573,
      "twi": 3574,
      "uti": 3575,
      "vues": 3576,
      "inted": 3577,
      "organ": 3578,
      "lead": 3579,
      "hemos": 3580,
      "irme": 3581,
      "negro": 3582,
      "gues": 3583,
      "pena": 3584,
      "Debo": 3585,
      "montón": 3586,
      "Inter": 3587,
      "ganar": 3588,
      "wake": 3589,
      "Those": 3590,
      "inteligente": 3591,
      "peor": 3592,
      "moder": 3593,
      "talked": 3594,
      "encontró": 3595,
      "arrive": 3596,
      "invierno": 3597,
      "Paris": 3598,
      "thirty": 3599,
      "cris": 3600,
      "jes": 3601,
      "ueve": 3602,
      "digas": 3603,
      "rojo": 3604,
      "advis": 3605,
      "admit": 3606,
      "tendr": 3607,
      "impossible": 3608,
      "serio": 3609,
      "anybody": 3610,
      "ancy": 3611,
      "feeling": 3612,
      "girls": 3613,
      "learned": 3614,
      "invited": 3615,
      "imagin": 3616,
      "expected": 3617,
      "ego": 3618,
      "hes": 3619,
      "ona": 3620,
      "deep": 3621,
      "cum": 3622,
      "viven": 3623,
      "hiciste": 3624,
      "paciente": 3625,
      "finally": 3626,
      "evening": 3627,
      "rompió": 3628,
      "exactamente": 3629,
      "Déjame": 3630,
      "public": 3631,
      "Fin": 3632,
      "ico": 3633,
      "peso": 3634,
      "tando": 3635,
      "arreg": 3636,
      "omos": 3637,
      "reac": 3638,
      "loco": 3639,
      "hip": 3640,
      "passed": 3641,
      "dirección": 3642,
      "ben": 3643,
      "ej": 3644,
      "rí": 3645,
      "sá": 3646,
      "enfa": 3647,
      "rey": 3648,
      "ames": 3649,
      "prue": 3650,
      "tries": 3651,
      "wood": 3652,
      "sentences": 3653,
      "Realmente": 3654,
      "telephone": 3655,
      "pensando": 3656,
      "raining": 3657,
      "swimming": 3658,
      "blood": 3659,
      "lucky": 3660,
      "peligroso": 3661,
      "movies": 3662,
      "aburri": 3663,
      "tation": 3664,
      "rid": 3665,
      "comien": 3666,
      "Estar": 3667,
      "habría": 3668,
      "web": 3669,
      "accept": 3670,
      "delante": 3671,
      "fool": 3672,
      "rápi": 3673,
      "umbre": 3674,
      "ocupada": 3675,
      "opened": 3676,
      "abandoned": 3677,
      "Sh": 3678,
      "públi": 3679,
      "útil": 3680,
      "escon": 3681,
      "thre": 3682,
      "dies": 3683,
      "uses": 3684,
      "abuelo": 3685,
      "vil": 3686,
      "suce": 3687,
      "ramos": 3688,
      "tero": 3689,
      "irse": 3690,
      "bote": 3691,
      "carro": 3692,
      "habit": 3693,
      "llamó": 3694,
      "drinking": 3695,
      "París": 3696,
      "idiomas": 3697,
      "France": 3698,
      "baseball": 3699,
      "cket": 3700,
      "ggs": 3701,
      "ie": 3702,
      "kni": 3703,
      "infor": 3704,
      "taza": 3705,
      "suf": 3706,
      "coat": 3707,
      "pair": 3708,
      "descri": 3709,
      "past": 3710,
      "necesitas": 3711,
      "waited": 3712,
      "piensas": 3713,
      "Francia": 3714,
      "huevos": 3715,
      "béis": 3716,
      "eight": 3717,
      "fit": 3718,
      "investi": 3719,
      "tate": 3720,
      "liter": 3721,
      "cele": 3722,
      "compe": 3723,
      "partido": 3724,
      "resolver": 3725,
      "sopor": 3726,
      "fif": 3727,
      "urch": 3728,
      "shar": 3729,
      "graf": 3730,
      "ils": 3731,
      "campo": 3732,
      "medicine": 3733,
      "haría": 3734,
      "pesar": 3735,
      "eye": 3736,
      "Muchos": 3737,
      "abrir": 3738,
      "glass": 3739,
      "situación": 3740,
      "futuro": 3741,
      "hermosa": 3742,
      "manzana": 3743,
      "twice": 3744,
      "aero": 3745,
      "idos": 3746,
      "sle": 3747,
      "def": 3748,
      "deal": 3749,
      "atta": 3750,
      "cuchi": 3751,
      "desk": 3752,
      "viajar": 3753,
      "piece": 3754,
      "necessary": 3755,
      "Casi": 3756,
      "bí": 3757,
      "winter": 3758,
      "arma": 3759,
      "anda": 3760,
      "convin": 3761,
      "estabas": 3762,
      "paraguas": 3763,
      "rown": 3764,
      "senti": 3765,
      "treinta": 3766,
      "Tuve": 3767,
      "showed": 3768,
      "Esperanto": 3769,
      "ocurrió": 3770,
      "crying": 3771,
      "jugando": 3772,
      "Pienso": 3773,
      "Tan": 3774,
      "Uste": 3775,
      "apa": 3776,
      "eggs": 3777,
      "nas": 3778,
      "vale": 3779,
      "hacen": 3780,
      "bear": 3781,
      "comiendo": 3782,
      "cional": 3783,
      "volun": 3784,
      "temp": 3785,
      "minute": 3786,
      "Someone": 3787,
      "correct": 3788,
      "hurry": 3789,
      "arios": 3790,
      "cuánto": 3791,
      "presidente": 3792,
      "Canadian": 3793,
      "caballo": 3794,
      "drunk": 3795,
      "Ustedes": 3796,
      "Uno": 3797,
      "dest": 3798,
      "kitch": 3799,
      "regre": 3800,
      "lago": 3801,
      "abroad": 3802,
      "mill": 3803,
      "cuid": 3804,
      "exp": 3805,
      "pasada": 3806,
      "mensa": 3807,
      "broken": 3808,
      "cionado": 3809,
      "gradu": 3810,
      "ult": 3811,
      "vanta": 3812,
      "especi": 3813,
      "kitchen": 3814,
      "Dan": 3815,
      "Les": 3816,
      "Sol": 3817,
      "Somos": 3818,
      "ocho": 3819,
      "ass": 3820,
      "ats": 3821,
      "cayó": 3822,
      "curi": 3823,
      "power": 3824,
      "menta": 3825,
      "lesia": 3826,
      "borra": 3827,
      "regal": 3828,
      "durmi": 3829,
      "empezar": 3830,
      "custo": 3831,
      "universidad": 3832,
      "succe": 3833,
      "natural": 3834,
      "kiss": 3835,
      "Ber": 3836,
      "osos": 3837,
      "novio": 3838,
      "sex": 3839,
      "mamá": 3840,
      "peace": 3841,
      "cano": 3842,
      "across": 3843,
      "marido": 3844,
      "visited": 3845,
      "walked": 3846,
      "cambio": 3847,
      "taller": 3848,
      "smile": 3849,
      "montaña": 3850,
      "course": 3851,
      "probably": 3852,
      "dando": 3853,
      "ffic": 3854,
      "ived": 3855,
      "rent": 3856,
      "esos": 3857,
      "inse": 3858,
      "asleep": 3859,
      "istas": 3860,
      "paz": 3861,
      "quiet": 3862,
      "fact": 3863,
      "carry": 3864,
      "Quiz": 3865,
      "jeros": 3866,
      "suelo": 3867,
      "decisión": 3868,
      "mountain": 3869,
      "siguiente": 3870,
      "umbrella": 3871,
      "béisbol": 3872,
      "Os": 3873,
      "ging": 3874,
      "almuer": 3875,
      "causa": 3876,
      "beg": 3877,
      "cuse": 3878,
      "comió": 3879,
      "caro": 3880,
      "dura": 3881,
      "everybody": 3882,
      "solve": 3883,
      "conocido": 3884,
      "cats": 3885,
      "boyfriend": 3886,
      "driver": 3887,
      "blame": 3888,
      "dejes": 3889,
      "Traba": 3890,
      "domingo": 3891,
      "Ge": 3892,
      "Pr": 3893,
      "ade": 3894,
      "sand": 3895,
      "esp": 3896,
      "debo": 3897,
      "haces": 3898,
      "tical": 3899,
      "sudden": 3900,
      "entas": 3901,
      "perió": 3902,
      "iría": 3903,
      "poem": 3904,
      "choice": 3905,
      "post": 3906,
      "sala": 3907,
      "ousand": 3908,
      "gers": 3909,
      "position": 3910,
      "fruit": 3911,
      "suficientemente": 3912,
      "coura": 3913,
      "leaves": 3914,
      "Ellas": 3915,
      "OK": 3916,
      "Sos": 3917,
      "cell": 3918,
      "zando": 3919,
      "alim": 3920,
      "tie": 3921,
      "tira": 3922,
      "divor": 3923,
      "cated": 3924,
      "lleno": 3925,
      "común": 3926,
      "bot": 3927,
      "thank": 3928,
      "rules": 3929,
      "Crees": 3930,
      "sleeping": 3931,
      "noticias": 3932,
      "situation": 3933,
      "abogado": 3934,
      "jamás": 3935,
      "doubt": 3936,
      "Alguna": 3937,
      "Pon": 3938,
      "argu": 3939,
      "repe": 3940,
      "ticos": 3941,
      "reser": 3942,
      "pic": 3943,
      "casado": 3944,
      "acti": 3945,
      "alive": 3946,
      "taste": 3947,
      "saben": 3948,
      "decirle": 3949,
      "boys": 3950,
      "singing": 3951,
      "Thanks": 3952,
      "Algunos": 3953,
      "caliente": 3954,
      "knife": 3955,
      "Ning": 3956,
      "zos": 3957,
      "iso": 3958,
      "alco": 3959,
      "abuela": 3960,
      "history": 3961,
      "soli": 3962,
      "descan": 3963,
      "larga": 3964,
      "marry": 3965,
      "appro": 3966,
      "esperaba": 3967,
      "responder": 3968,
      "vacation": 3969,
      "peligro": 3970,
      "experiencia": 3971,
      "guitarra": 3972,
      "evitar": 3973,
      "correr": 3974,
      "50": 3975,
      "Tal": 3976,
      "aconse": 3977,
      "uda": 3978,
      "ying": 3979,
      "zz": 3980,
      "ñe": 3981,
      "inside": 3982,
      "ons": 3983,
      "seas": 3984,
      "cita": 3985,
      "church": 3986,
      "cular": 3987,
      "tuve": 3988,
      "amable": 3989,
      "hermanos": 3990,
      "llegado": 3991,
      "seeing": 3992,
      "green": 3993,
      "escribió": 3994,
      "instru": 3995,
      "cuerpo": 3996,
      "ticket": 3997,
      "spaper": 3998,
      "fruta": 3999,
      "keys": 4000,
      "vayas": 4001,
      "información": 4002,
      "slowly": 4003,
      "govern": 4004,
      "glo": 4005,
      "junto": 4006,
      "mouth": 4007,
      "ocul": 4008,
      "inst": 4009,
      "orge": 4010,
      "cuad": 4011,
      "suici": 4012,
      "Nothing": 4013,
      "traffic": 4014,
      "worse": 4015,
      "crimin": 4016,
      "amiga": 4017,
      "plays": 4018,
      "estará": 4019,
      "deberes": 4020,
      "caminar": 4021,
      "prisa": 4022,
      "promise": 4023,
      "hatever": 4024,
      "aquel": 4025,
      "divertido": 4026,
      "Acabo": 4027,
      "nes": 4028,
      "wind": 4029,
      "ismo": 4030,
      "docu": 4031,
      "olvida": 4032,
      "moved": 4033,
      "Good": 4034,
      "expect": 4035,
      "comenzó": 4036,
      "apologi": 4037,
      "dijiste": 4038,
      "canadiense": 4039,
      "Nancy": 4040,
      "Smi": 4041,
      "either": 4042,
      "flor": 4043,
      "mere": 4044,
      "melo": 4045,
      "sar": 4046,
      "esas": 4047,
      "almor": 4048,
      "rieron": 4049,
      "partir": 4050,
      "Hemos": 4051,
      "bio": 4052,
      "minis": 4053,
      "Tenía": 4054,
      "newspaper": 4055,
      "estudiando": 4056,
      "Chris": 4057,
      "view": 4058,
      "correcto": 4059,
      "ículo": 4060,
      "lawyer": 4061,
      "próxima": 4062,
      "information": 4063,
      "kids": 4064,
      "failed": 4065,
      "camisa": 4066,
      "Hi": 4067,
      "apart": 4068,
      "atrás": 4069,
      "fly": 4070,
      "stor": 4071,
      "indepen": 4072,
      "insul": 4073,
      "thor": 4074,
      "defin": 4075,
      "digo": 4076,
      "concierto": 4077,
      "hood": 4078,
      "sage": 4079,
      "vendrá": 4080,
      "grat": 4081,
      "diste": 4082,
      "decidió": 4083,
      "eats": 4084,
      "necesario": 4085,
      "nervi": 4086,
      "sity": 4087,
      "younger": 4088,
      "grandfather": 4089,
      "difference": 4090,
      "justi": 4091,
      "leaving": 4092,
      "piso": 4093,
      "concert": 4094,
      "Sr": 4095,
      "ccer": 4096,
      "dle": 4097,
      "gü": 4098,
      "wise": 4099,
      "tici": 4100,
      "cate": 4101,
      "comfor": 4102,
      "compli": 4103,
      "Estas": 4104,
      "rato": 4105,
      "porta": 4106,
      "casó": 4107,
      "voice": 4108,
      "prima": 4109,
      "ilt": 4110,
      "escrito": 4111,
      "haré": 4112,
      "acaba": 4113,
      "iglesia": 4114,
      "mantener": 4115,
      "machine": 4116,
      "cuchillo": 4117,
      "fantas": 4118,
      "atura": 4119,
      "sir": 4120,
      "ture": 4121,
      "moto": 4122,
      "taron": 4123,
      "fotos": 4124,
      "risa": 4125,
      "enfermedad": 4126,
      "regret": 4127,
      "Wa": 4128,
      "fan": 4129,
      "gando": 4130,
      "pat": 4131,
      "yed": 4132,
      "úcar": 4133,
      "entos": 4134,
      "reír": 4135,
      "common": 4136,
      "comido": 4137,
      "pick": 4138,
      "ambi": 4139,
      "dence": 4140,
      "monos": 4141,
      "segura": 4142,
      "stitu": 4143,
      "borrow": 4144,
      "matar": 4145,
      "mérica": 4146,
      "azúcar": 4147,
      "practi": 4148,
      "entró": 4149,
      "Life": 4150,
      "general": 4151,
      "engañ": 4152,
      "Debemos": 4153,
      "estúpido": 4154,
      "murder": 4155,
      "acostumbra": 4156,
      "aeropuerto": 4157,
      "Tony": 4158,
      "clim": 4159,
      "tron": 4160,
      "rit": 4161,
      "sigue": 4162,
      "hide": 4163,
      "iré": 4164,
      "guess": 4165,
      "proye": 4166,
      "Quer": 4167,
      "hablan": 4168,
      "fur": 4169,
      "tingu": 4170,
      "esperanto": 4171,
      "miró": 4172,
      "sitting": 4173,
      "driving": 4174,
      "Necesita": 4175,
      "belong": 4176,
      "clima": 4177,
      "sweet": 4178,
      "invit": 4179,
      "totalmente": 4180,
      "100": 4181,
      "entra": 4182,
      "isla": 4183,
      "ates": 4184,
      "chino": 4185,
      "simi": 4186,
      "moon": 4187,
      "pasando": 4188,
      "maravi": 4189,
      "compren": 4190,
      "Dima": 4191,
      "escritorio": 4192,
      "Any": 4193,
      "brazo": 4194,
      "single": 4195,
      "escucha": 4196,
      "experience": 4197,
      "recordar": 4198,
      "pájaro": 4199,
      "almuerzo": 4200,
      "Dese": 4201,
      "Odio": 4202,
      "áis": 4203,
      "ini": 4204,
      "regu": 4205,
      "nobody": 4206,
      "cioso": 4207,
      "cont": 4208,
      "culp": 4209,
      "silla": 4210,
      "ports": 4211,
      "fiel": 4212,
      "feed": 4213,
      "venga": 4214,
      "speech": 4215,
      "buenas": 4216,
      "necesit": 4217,
      "wenty": 4218,
      "ctory": 4219,
      "vaso": 4220,
      "trees": 4221,
      "enemy": 4222,
      "responsab": 4223,
      "warm": 4224,
      "izquier": 4225,
      "airport": 4226,
      "diferencia": 4227,
      "Europa": 4228,
      "beginning": 4229,
      "duele": 4230,
      "dormido": 4231,
      "encontrado": 4232,
      "suffer": 4233,
      "Try": 4234,
      "cán": 4235,
      "lik": 4236,
      "sugar": 4237,
      "paró": 4238,
      "sión": 4239,
      "multi": 4240,
      "nació": 4241,
      "ety": 4242,
      "Mike": 4243,
      "personal": 4244,
      "standing": 4245,
      "bello": 4246,
      "promised": 4247,
      "pizza": 4248,
      "Russi": 4249,
      "América": 4250,
      "amo": 4251,
      "ahor": 4252,
      "crow": 4253,
      "dón": 4254,
      "stru": 4255,
      "zen": 4256,
      "esfuer": 4257,
      "thi": 4258,
      "thousand": 4259,
      "bille": 4260,
      "hablo": 4261,
      "shut": 4262,
      "buenos": 4263,
      "humor": 4264,
      "telling": 4265,
      "tranqui": 4266,
      "países": 4267,
      "olvidar": 4268,
      "boss": 4269,
      "18": 4270,
      "ato": 4271,
      "ctamente": 4272,
      "echar": 4273,
      "ster": 4274,
      "tw": 4275,
      "ísi": 4276,
      "mania": 4277,
      "native": 4278,
      "gros": 4279,
      "llega": 4280,
      "Encontr": 4281,
      "Habla": 4282,
      "pienso": 4283,
      "heavy": 4284,
      "advised": 4285,
      "likely": 4286,
      "Ve": 4287,
      "ler": 4288,
      "mb": 4289,
      "yel": 4290,
      "detrás": 4291,
      "recuerdo": 4292,
      "teeth": 4293,
      "leído": 4294,
      "tierra": 4295,
      "gold": 4296,
      "holi": 4297,
      "pied": 4298,
      "precia": 4299,
      "traje": 4300,
      "lenguas": 4301,
      "pedí": 4302,
      "azul": 4303,
      "usual": 4304,
      "propio": 4305,
      "sangre": 4306,
      "spoken": 4307,
      "llevaba": 4308,
      "shopping": 4309,
      "cumpli": 4310,
      "Smith": 4311,
      "!\"": 4312,
      "Nueva": 4313,
      "cting": 4314,
      "cros": 4315,
      "ios": 4316,
      "luego": 4317,
      "vosotros": 4318,
      "ances": 4319,
      "regar": 4320,
      "cuál": 4321,
      "sito": 4322,
      "fault": 4323,
      "dose": 4324,
      "market": 4325,
      "gico": 4326,
      "llaves": 4327,
      "chicos": 4328,
      "terminó": 4329,
      "Así": 4330,
      "Prefiero": 4331,
      "llevó": 4332,
      "signifi": 4333,
      "conversa": 4334,
      "manzanas": 4335,
      "desayuno": 4336,
      "film": 4337,
      "Internet": 4338,
      "Ay": 4339,
      "glater": 4340,
      "ier": 4341,
      "sna": 4342,
      "stem": 4343,
      "suel": 4344,
      "vó": 4345,
      "remain": 4346,
      "diga": 4347,
      "rite": 4348,
      "permis": 4349,
      "address": 4350,
      "cartas": 4351,
      "pase": 4352,
      "ánd": 4353,
      "duer": 4354,
      "Inglater": 4355,
      "illo": 4356,
      "reglas": 4357,
      "pescado": 4358,
      "weekend": 4359,
      "brothers": 4360,
      "Hasta": 4361,
      "fishing": 4362,
      "sospe": 4363,
      "guys": 4364,
      "maestro": 4365,
      "slept": 4366,
      "Inglaterra": 4367,
      "Lay": 4368,
      "Osa": 4369,
      "Satur": 4370,
      "acer": 4371,
      "twenty": 4372,
      "eral": 4373,
      "inno": 4374,
      "assu": 4375,
      "recom": 4376,
      "titu": 4377,
      "dader": 4378,
      "logy": 4379,
      "queremos": 4380,
      "soccer": 4381,
      "tenga": 4382,
      "cars": 4383,
      "etas": 4384,
      "visita": 4385,
      "tribu": 4386,
      "price": 4387,
      "esperanza": 4388,
      "mirando": 4389,
      "enemi": 4390,
      "partici": 4391,
      "Algunas": 4392,
      "pudiera": 4393,
      "comprado": 4394,
      "smart": 4395,
      "comfortable": 4396,
      "Osaka": 4397,
      "cé": 4398,
      "ker": 4399,
      "arti": 4400,
      "ism": 4401,
      "lake": 4402,
      "tivos": 4403,
      "verde": 4404,
      "coger": 4405,
      "sopa": 4406,
      "mante": 4407,
      "pies": 4408,
      "pring": 4409,
      "exist": 4410,
      "venta": 4411,
      "creen": 4412,
      "corriendo": 4413,
      "birds": 4414,
      "velo": 4415,
      "countries": 4416,
      "shot": 4417,
      "adora": 4418,
      "easily": 4419,
      "valor": 4420,
      "grandmother": 4421,
      "sounds": 4422,
      "soup": 4423,
      "electri": 4424,
      "repente": 4425,
      "video": 4426,
      "government": 4427,
      "Nada": 4428,
      "Pro": 4429,
      "aj": 4430,
      "gest": 4431,
      "plu": 4432,
      "phy": 4433,
      "encant": 4434,
      "inar": 4435,
      "island": 4436,
      "decep": 4437,
      "tex": 4438,
      "semanas": 4439,
      "vivi": 4440,
      "ently": 4441,
      "sight": 4442,
      "prohi": 4443,
      "apples": 4444,
      "disap": 4445,
      "jefe": 4446,
      "iones": 4447,
      "Germany": 4448,
      "explicar": 4449,
      "continue": 4450,
      "incluso": 4451,
      "Alemania": 4452,
      "Layla": 4453,
      "Aunque": 4454,
      "San": 4455,
      "cciones": 4456,
      "pone": 4457,
      "aly": 4458,
      "tec": 4459,
      "ingen": 4460,
      "cience": 4461,
      "trod": 4462,
      "lido": 4463,
      "using": 4464,
      "papá": 4465,
      "joke": 4466,
      "gaz": 4467,
      "gru": 4468,
      "favorita": 4469,
      "materi": 4470,
      "nuestras": 4471,
      "weren": 4472,
      "considera": 4473,
      "enferma": 4474,
      "Podemos": 4475,
      "continu": 4476,
      "Since": 4477,
      "claro": 4478,
      "pájaros": 4479,
      "público": 4480,
      "mensaje": 4481,
      "Ali": 4482,
      "Lla": 4483,
      "Say": 4484,
      "gel": 4485,
      "siste": 4486,
      "cier": 4487,
      "diciendo": 4488,
      "liza": 4489,
      "culo": 4490,
      "commit": 4491,
      "ney": 4492,
      "social": 4493,
      "prin": 4494,
      "paso": 4495,
      "gift": 4496,
      "Dej": 4497,
      "buscar": 4498,
      "mejores": 4499,
      "espera": 4500,
      "mediate": 4501,
      "funny": 4502,
      "felices": 4503,
      "bosque": 4504,
      "abrigo": 4505,
      "noticia": 4506,
      "origin": 4507,
      "Both": 4508,
      "proyecto": 4509,
      "Lin": 4510,
      "pant": 4511,
      "vali": 4512,
      "whose": 4513,
      "espal": 4514,
      "veinte": 4515,
      "daño": 4516,
      "beat": 4517,
      "ounded": 4518,
      "interna": 4519,
      "sentir": 4520,
      "England": 4521,
      "Sometimes": 4522,
      "vuelto": 4523,
      "listening": 4524,
      "intentando": 4525,
      "diferente": 4526,
      "employe": 4527,
      "Compré": 4528,
      "matemáticas": 4529,
      "village": 4530,
      "Anoche": 4531,
      "Braz": 4532,
      "vés": 4533,
      "lavar": 4534,
      "robar": 4535,
      "vera": 4536,
      "abrió": 4537,
      "Escri": 4538,
      "cot": 4539,
      "pod": 4540,
      "bierno": 4541,
      "motor": 4542,
      "built": 4543,
      "trai": 4544,
      "Quería": 4545,
      "worried": 4546,
      "sty": 4547,
      "compré": 4548,
      "importan": 4549,
      "minuto": 4550,
      "olvides": 4551,
      "couple": 4552,
      "ordenador": 4553,
      "apareció": 4554,
      "agradable": 4555,
      "George": 4556,
      "trodu": 4557,
      "Lam": 4558,
      "Mo": 4559,
      "afuera": 4560,
      "cro": 4561,
      "gún": 4562,
      "ian": 4563,
      "toca": 4564,
      "lack": 4565,
      "unci": 4566,
      "hago": 4567,
      "novela": 4568,
      "dicen": 4569,
      "cone": 4570,
      "estés": 4571,
      "madamente": 4572,
      "forward": 4573,
      "paña": 4574,
      "bother": 4575,
      "prise": 4576,
      "sacó": 4577,
      "immediate": 4578,
      "ury": 4579,
      "dise": 4580,
      "asegu": 4581,
      "India": 4582,
      "sentó": 4583,
      "vieja": 4584,
      "translate": 4585,
      "respecto": 4586,
      "cruel": 4587,
      "entire": 4588,
      "silencio": 4589,
      "Car": 4590,
      "Pa": 4591,
      "Tod": 4592,
      "equ": 4593,
      "efe": 4594,
      "wing": 4595,
      "beha": 4596,
      "hier": 4597,
      "pointed": 4598,
      "tonto": 4599,
      "telli": 4600,
      "Never": 4601,
      "walking": 4602,
      "piness": 4603,
      "imagina": 4604,
      "pictures": 4605,
      "confiar": 4606,
      "bonita": 4607,
      "principal": 4608,
      "Buen": 4609,
      "líne": 4610,
      "storm": 4611,
      "Todas": 4612,
      "Ad": 4613,
      "Pau": 4614,
      "Yesterday": 4615,
      "ejer": 4616,
      "lon": 4617,
      "list": 4618,
      "arres": 4619,
      "inclu": 4620,
      "toes": 4621,
      "helado": 4622,
      "tame": 4623,
      "dados": 4624,
      "llen": 4625,
      "nic": 4626,
      "save": 4627,
      "mentos": 4628,
      "gustaba": 4629,
      "studied": 4630,
      "mercado": 4631,
      "siguió": 4632,
      "frecu": 4633,
      "Empe": 4634,
      "naran": 4635,
      "Necesitamos": 4636,
      "Har": 4637,
      "avo": 4638,
      "cand": 4639,
      "vado": 4640,
      "ended": 4641,
      "arth": 4642,
      "incen": 4643,
      "tears": 4644,
      "trim": 4645,
      "licen": 4646,
      "frases": 4647,
      "horrible": 4648,
      "drank": 4649,
      "felicidad": 4650,
      "ctivo": 4651,
      "painting": 4652,
      "respect": 4653,
      "trató": 4654,
      "Hola": 4655,
      "received": 4656,
      "rápidamente": 4657,
      "Supon": 4658,
      "nine": 4659,
      "vous": 4660,
      "vamente": 4661,
      "trá": 4662,
      "verdader": 4663,
      "quin": 4664,
      "siente": 4665,
      "waste": 4666,
      "baja": 4667,
      "pill": 4668,
      "type": 4669,
      "Deci": 4670,
      "duda": 4671,
      "enemigo": 4672,
      "nervous": 4673,
      "bridge": 4674,
      "hardly": 4675,
      "empty": 4676,
      "árboles": 4677,
      "varias": 4678,
      "appeared": 4679,
      "Sabe": 4680,
      "photo": 4681,
      "principio": 4682,
      "periódico": 4683,
      "yellow": 4684,
      "Hel": 4685,
      "gana": 4686,
      "ojo": 4687,
      "influ": 4688,
      "introdu": 4689,
      "asiento": 4690,
      "debajo": 4691,
      "oran": 4692,
      "thema": 4693,
      "cigar": 4694,
      "concen": 4695,
      "estó": 4696,
      "miem": 4697,
      "vious": 4698,
      "viento": 4699,
      "perdon": 4700,
      "hiding": 4701,
      "estadou": 4702,
      "emer": 4703,
      "probar": 4704,
      "niden": 4705,
      "exci": 4706,
      "premi": 4707,
      "share": 4708,
      "useful": 4709,
      "planes": 4710,
      "humanos": 4711,
      "ayudarte": 4712,
      "surprise": 4713,
      "podrías": 4714,
      "correo": 4715,
      "blind": 4716,
      "experim": 4717,
      "máquina": 4718,
      "intentó": 4719,
      "system": 4720,
      "memoria": 4721,
      "president": 4722,
      "purpose": 4723,
      "maravillos": 4724,
      "estadouniden": 4725,
      "Bet": 4726,
      "metros": 4727,
      "dimos": 4728,
      "mitad": 4729,
      "bike": 4730,
      "pira": 4731,
      "deseo": 4732,
      "gic": 4733,
      "cording": 4734,
      "button": 4735,
      "frica": 4736,
      "Dime": 4737,
      "happens": 4738,
      "posición": 4739,
      "correcta": 4740,
      "Ask": 4741,
      "juega": 4742,
      "cooking": 4743,
      "wonderful": 4744,
      "dejado": 4745,
      "abierta": 4746,
      "Nuestra": 4747,
      "aceptar": 4748,
      "segundo": 4749,
      "funciona": 4750,
      "izquierda": 4751,
      "cente": 4752,
      "gle": 4753,
      "luna": 4754,
      "mue": 4755,
      "defe": 4756,
      "held": 4757,
      "taught": 4758,
      "eless": 4759,
      "dices": 4760,
      "despa": 4761,
      "ameri": 4762,
      "tarta": 4763,
      "tongue": 4764,
      "dencia": 4765,
      "grave": 4766,
      "message": 4767,
      "estuviera": 4768,
      "shower": 4769,
      "quedarme": 4770,
      "habló": 4771,
      "honor": 4772,
      "hicieron": 4773,
      "domingos": 4774,
      "sentado": 4775,
      "famoso": 4776,
      "orgulloso": 4777,
      "Aque": 4778,
      "Ci": 4779,
      "Earth": 4780,
      "Kyo": 4781,
      "Man": 4782,
      "zca": 4783,
      "recu": 4784,
      "diente": 4785,
      "verme": 4786,
      "kets": 4787,
      "empieza": 4788,
      "nie": 4789,
      "casti": 4790,
      "acter": 4791,
      "venes": 4792,
      "tors": 4793,
      "torta": 4794,
      "bras": 4795,
      "ination": 4796,
      "plans": 4797,
      "player": 4798,
      "stolen": 4799,
      "estaría": 4800,
      "nueve": 4801,
      "ctori": 4802,
      "jóvenes": 4803,
      "carefully": 4804,
      "flower": 4805,
      "encima": 4806,
      "arreglar": 4807,
      "prueba": 4808,
      "Kyoto": 4809,
      "Ab": 4810,
      "Bus": 4811,
      "echa": 4812,
      "zing": 4813,
      "decer": 4814,
      "report": 4815,
      "lation": 4816,
      "damos": 4817,
      "vier": 4818,
      "Escu": 4819,
      "soñ": 4820,
      "join": 4821,
      "puente": 4822,
      "carr": 4823,
      "idas": 4824,
      "tormenta": 4825,
      "ayudó": 4826,
      "themselves": 4827,
      "happening": 4828,
      "hará": 4829,
      "tampoco": 4830,
      "grimas": 4831,
      "enamorado": 4832,
      "courage": 4833,
      "Wait": 4834,
      "Call": 4835,
      "Face": 4836,
      "bella": 4837,
      "há": 4838,
      "nal": 4839,
      "rup": 4840,
      "zaron": 4841,
      "ines": 4842,
      "tax": 4843,
      "tamento": 4844,
      "tables": 4845,
      "ride": 4846,
      "cubi": 4847,
      "sibi": 4848,
      "resfri": 4849,
      "pencil": 4850,
      "ears": 4851,
      "chicas": 4852,
      "salt": 4853,
      "centro": 4854,
      "Leave": 4855,
      "rumor": 4856,
      "osotras": 4857,
      "mental": 4858,
      "pensó": 4859,
      "pensaba": 4860,
      "ctura": 4861,
      "million": 4862,
      "japones": 4863,
      "ocurri": 4864,
      "traducir": 4865,
      "estrellas": 4866,
      "libertad": 4867,
      "inmediatamente": 4868,
      "figure": 4869,
      "botella": 4870,
      "alcohol": 4871,
      "similar": 4872,
      "ejerci": 4873,
      "Fri": 4874,
      "Han": 4875,
      "Most": 4876,
      "cun": 4877,
      "odio": 4878,
      "stri": 4879,
      "ór": 4880,
      "revis": 4881,
      "recent": 4882,
      "tram": 4883,
      "atas": 4884,
      "verlo": 4885,
      "llena": 4886,
      "peri": 4887,
      "persu": 4888,
      "perten": 4889,
      "bil": 4890,
      "llegue": 4891,
      "decidido": 4892,
      "zoo": 4893,
      "nuevos": 4894,
      "medicina": 4895,
      "geni": 4896,
      "virtió": 4897,
      "weeks": 4898,
      "resultado": 4899,
      "desayun": 4900,
      "satisfe": 4901,
      "contento": 4902,
      "succeed": 4903,
      "primavera": 4904,
      "sistema": 4905,
      "Two": 4906,
      "inos": 4907,
      "istir": 4908,
      "dete": 4909,
      "deja": 4910,
      "alma": 4911,
      "teor": 4912,
      "laug": 4913,
      "atch": 4914,
      "estan": 4915,
      "tería": 4916,
      "cola": 4917,
      "copi": 4918,
      "bottle": 4919,
      "progres": 4920,
      "gafas": 4921,
      "parada": 4922,
      "cken": 4923,
      "disfru": 4924,
      "stair": 4925,
      "conocí": 4926,
      "forever": 4927,
      "deberíamos": 4928,
      "Sabía": 4929,
      "Desde": 4930,
      "Perdí": 4931,
      "varios": 4932,
      "naturale": 4933,
      "permitir": 4934,
      "refused": 4935,
      "cocinar": 4936,
      "entiende": 4937,
      "borracho": 4938,
      "aconsejó": 4939,
      "Supongo": 4940,
      "Ba": 4941,
      "ila": 4942,
      "Éste": 4943,
      "ond": 4944,
      "contó": 4945,
      "rock": 4946,
      "commun": 4947,
      "poe": 4948,
      "neither": 4949,
      "destro": 4950,
      "project": 4951,
      "precios": 4952,
      "sonrisa": 4953,
      "puedas": 4954,
      "grou": 4955,
      "mentira": 4956,
      "discul": 4957,
      "happiness": 4958,
      "special": 4959,
      "ganó": 4960,
      "bored": 4961,
      "mató": 4962,
      "mater": 4963,
      "escribe": 4964,
      "regis": 4965,
      "feelings": 4966,
      "quedarse": 4967,
      "Because": 4968,
      "Muchas": 4969,
      "olvidó": 4970,
      "llamada": 4971,
      "perfecto": 4972,
      "policeman": 4973,
      "dijeron": 4974,
      "entered": 4975,
      "behavi": 4976,
      "Facebook": 4977,
      "laughed": 4978,
      "naturaleza": 4979,
      "Pres": 4980,
      "Res": 4981,
      "Spe": 4982,
      "Va": 4983,
      "ili": 4984,
      "iza": 4985,
      "loud": 4986,
      "scen": 4987,
      "ory": 4988,
      "legs": 4989,
      "vecin": 4990,
      "cab": 4991,
      "roja": 4992,
      "rice": 4993,
      "ofre": 4994,
      "rains": 4995,
      "terri": 4996,
      "lasti": 4997,
      "bill": 4998,
      "sacar": 4999,
      "existen": 5000,
      "acor": 5001,
      "distingu": 5002,
      "Entonces": 5003,
      "alian": 5004,
      "tale": 5005,
      "crime": 5006,
      "decirme": 5007,
      "stars": 5008,
      "vini": 5009,
      "finger": 5010,
      "anciano": 5011,
      "Child": 5012,
      "college": 5013,
      "scared": 5014,
      "regular": 5015,
      "Ac": 5016,
      "Brown": 5017,
      "Kate": 5018,
      "Tend": 5019,
      "ns": 5020,
      "pus": 5021,
      "vando": 5022,
      "invent": 5023,
      "asus": 5024,
      "demo": 5025,
      "alum": 5026,
      "retras": 5027,
      "dificul": 5028,
      "veía": 5029,
      "logía": 5030,
      "usion": 5031,
      "llueve": 5032,
      "bata": 5033,
      "destru": 5034,
      "oko": 5035,
      "adop": 5036,
      "acus": 5037,
      "accep": 5038,
      "identi": 5039,
      "vate": 5040,
      "cheese": 5041,
      "llamas": 5042,
      "decide": 5043,
      "See": 5044,
      "soldi": 5045,
      "seguridad": 5046,
      "understood": 5047,
      "ayudarme": 5048,
      "step": 5049,
      "cousin": 5050,
      "lágrimas": 5051,
      "escape": 5052,
      "fuerza": 5053,
      "actually": 5054,
      "satisfied": 5055,
      "descubri": 5056,
      "preocupes": 5057,
      "Estaré": 5058,
      "stairs": 5059,
      "Acaso": 5060,
      "Jes": 5061,
      "Pri": 5062,
      "Tam": 5063,
      "event": 5064,
      "rara": 5065,
      "sla": 5066,
      "asking": 5067,
      "temo": 5068,
      "taba": 5069,
      "dios": 5070,
      "dial": 5071,
      "chu": 5072,
      "forest": 5073,
      "andar": 5074,
      "muñe": 5075,
      "hob": 5076,
      "tengas": 5077,
      "gido": 5078,
      "Intent": 5079,
      "pados": 5080,
      "compras": 5081,
      "obra": 5082,
      "Read": 5083,
      "diferentes": 5084,
      "particular": 5085,
      "meaning": 5086,
      "condition": 5087,
      "educación": 5088,
      "recogni": 5089,
      "política": 5090,
      "premio": 5091,
      "Bien": 5092,
      "Mus": 5093,
      "Pi": 5094,
      "aun": 5095,
      "aus": 5096,
      "ls": 5097,
      "lend": 5098,
      "owe": 5099,
      "whis": 5100,
      "alter": 5101,
      "hacía": 5102,
      "leza": 5103,
      "tidad": 5104,
      "confun": 5105,
      "queso": 5106,
      "cula": 5107,
      "cura": 5108,
      "sufri": 5109,
      "suena": 5110,
      "exer": 5111,
      "sons": 5112,
      "wears": 5113,
      "paseo": 5114,
      "platos": 5115,
      "somewhere": 5116,
      "bye": 5117,
      "bros": 5118,
      "cionar": 5119,
      "Last": 5120,
      "Dile": 5121,
      "bolsa": 5122,
      "lloviendo": 5123,
      "pescar": 5124,
      "brill": 5125,
      "wallet": 5126,
      "películas": 5127,
      "ability": 5128,
      "aquella": 5129,
      "cuidados": 5130,
      "arroz": 5131,
      "hiciera": 5132,
      "simplemente": 5133,
      "empleo": 5134,
      "negocios": 5135,
      "segunda": 5136,
      "dulce": 5137,
      "ladrón": 5138,
      "durmiendo": 5139,
      "immediately": 5140,
      "CD": 5141,
      "Ol": 5142,
      "yes": 5143,
      "intelli": 5144,
      "tour": 5145,
      "asha": 5146,
      "deta": 5147,
      "returned": 5148,
      "sem": 5149,
      "comporta": 5150,
      "vien": 5151,
      "Maria": 5152,
      "sole": 5153,
      "bia": 5154,
      "among": 5155,
      "prestar": 5156,
      "gustó": 5157,
      "ground": 5158,
      "finalmente": 5159,
      "verdadero": 5160,
      "boring": 5161,
      "decirte": 5162,
      "declar": 5163,
      "dreams": 5164,
      "Peter": 5165,
      "Stay": 5166,
      "reached": 5167,
      "sentimientos": 5168,
      "despacio": 5169,
      "Children": 5170,
      "12": 5171,
      "afe": 5172,
      "aje": 5173,
      "danc": 5174,
      "ical": 5175,
      "mped": 5176,
      "sli": 5177,
      "enor": 5178,
      "encen": 5179,
      "debido": 5180,
      "oración": 5181,
      "recha": 5182,
      "tains": 5183,
      "metro": 5184,
      "attra": 5185,
      "gobierno": 5186,
      "consu": 5187,
      "itali": 5188,
      "forgive": 5189,
      "permane": 5190,
      "poca": 5191,
      "cero": 5192,
      "existe": 5193,
      "preci": 5194,
      "pensé": 5195,
      "placer": 5196,
      "presenta": 5197,
      "interesa": 5198,
      "humano": 5199,
      "grew": 5200,
      "Tienen": 5201,
      "staying": 5202,
      "drinks": 5203,
      "profesora": 5204,
      "universo": 5205,
      "Fuji": 5206,
      "honesto": 5207,
      "Only": 5208,
      "apologize": 5209,
      "Of": 5210,
      "Tar": 5211,
      "Tus": 5212,
      "Write": 5213,
      "apenas": 5214,
      "ló": 5215,
      "oto": 5216,
      "rás": 5217,
      "umi": 5218,
      "lean": 5219,
      "meter": 5220,
      "qua": 5221,
      "guil": 5222,
      "modo": 5223,
      "casarse": 5224,
      "actor": 5225,
      "pastel": 5226,
      "somebody": 5227,
      "tones": 5228,
      "crimen": 5229,
      "stole": 5230,
      "sentía": 5231,
      "result": 5232,
      "crí": 5233,
      "Colum": 5234,
      "museum": 5235,
      "investiga": 5236,
      "Saturday": 5237,
      "Dur": 5238,
      "Show": 5239,
      "War": 5240,
      "eter": 5241,
      "squ": 5242,
      "ski": 5243,
      "queta": 5244,
      "dama": 5245,
      "caus": 5246,
      "paciencia": 5247,
      "bow": 5248,
      "boat": 5249,
      "propó": 5250,
      "card": 5251,
      "Italia": 5252,
      "worst": 5253,
      "check": 5254,
      "crea": 5255,
      "discurso": 5256,
      "earli": 5257,
      "guapa": 5258,
      "bolsi": 5259,
      "familiar": 5260,
      "realize": 5261,
      "space": 5262,
      "universe": 5263,
      "pierna": 5264,
      "contacto": 5265,
      "limpiar": 5266,
      "Deberíamos": 5267,
      "encuentra": 5268,
      "programa": 5269,
      "soportar": 5270,
      "recuper": 5271,
      "carrera": 5272,
      "Cam": 5273,
      "Mant": 5274,
      "cise": 5275,
      "odia": 5276,
      "phi": 5277,
      "dece": 5278,
      "osas": 5279,
      "tema": 5280,
      "laz": 5281,
      "tamos": 5282,
      "till": 5283,
      "quedé": 5284,
      "dame": 5285,
      "chó": 5286,
      "liar": 5287,
      "rado": 5288,
      "hielo": 5289,
      "irá": 5290,
      "guió": 5291,
      "hogar": 5292,
      "botón": 5293,
      "except": 5294,
      "través": 5295,
      "carre": 5296,
      "ceso": 5297,
      "choose": 5298,
      "breath": 5299,
      "gusto": 5300,
      "chicken": 5301,
      "author": 5302,
      "bru": 5303,
      "sintió": 5304,
      "opport": 5305,
      "faster": 5306,
      "Ann": 5307,
      "bedroom": 5308,
      "sueños": 5309,
      "respondió": 5310,
      "sisters": 5311,
      "aquellos": 5312,
      "smiled": 5313,
      "negocio": 5314,
      "grafía": 5315,
      "güen": 5316,
      "acostumbrado": 5317,
      "physi": 5318,
      "emergen": 5319,
      "Sor": 5320,
      "afi": 5321,
      "fad": 5322,
      "gare": 5323,
      "nari": 5324,
      "whatever": 5325,
      "éramos": 5326,
      "sear": 5327,
      "logr": 5328,
      "cados": 5329,
      "cute": 5330,
      "coment": 5331,
      "partes": 5332,
      "resto": 5333,
      "preocupado": 5334,
      "vender": 5335,
      "menor": 5336,
      "discovered": 5337,
      "corbata": 5338,
      "Tenés": 5339,
      "Love": 5340,
      "Dicen": 5341,
      "talks": 5342,
      "singer": 5343,
      "realized": 5344,
      "letters": 5345,
      "pintura": 5346,
      "raro": 5347,
      "kissed": 5348,
      "sorprendió": 5349,
      "Conozco": 5350,
      "wedding": 5351,
      "cientí": 5352,
      "Será": 5353,
      "almorzar": 5354,
      "apartment": 5355,
      "fed": 5356,
      "jando": 5357,
      "jac": 5358,
      "non": 5359,
      "sold": 5360,
      "zan": 5361,
      "teatro": 5362,
      "divi": 5363,
      "caba": 5364,
      "bebe": 5365,
      "supuesto": 5366,
      "cow": 5367,
      "tuviera": 5368,
      "pez": 5369,
      "gada": 5370,
      "puestos": 5371,
      "hermanas": 5372,
      "traer": 5373,
      "anywhere": 5374,
      "willing": 5375,
      "ándo": 5376,
      "aking": 5377,
      "prize": 5378,
      "planning": 5379,
      "rum": 5380,
      "querés": 5381,
      "vuelva": 5382,
      "página": 5383,
      "conscious": 5384,
      "belleza": 5385,
      "necesitamos": 5386,
      "levantó": 5387,
      "bonito": 5388,
      "galle": 5389,
      "Excuse": 5390,
      "fortunately": 5391,
      "aware": 5392,
      "innocent": 5393,
      "thematics": 5394,
      "japoneses": 5395,
      "propósito": 5396,
      "From": 5397,
      "bly": 5398,
      "bene": 5399,
      "ctions": 5400,
      "gante": 5401,
      "gged": 5402,
      "nit": 5403,
      "sports": 5404,
      "áni": 5405,
      "archi": 5406,
      "lap": 5407,
      "confer": 5408,
      "map": 5409,
      "Their": 5410,
      "add": 5411,
      "adver": 5412,
      "Italy": 5413,
      "vendr": 5414,
      "zamos": 5415,
      "Quiere": 5416,
      "interpre": 5417,
      "watched": 5418,
      "funeral": 5419,
      "inste": 5420,
      "cantante": 5421,
      "university": 5422,
      "relax": 5423,
      "supposed": 5424,
      "delicious": 5425,
      "memory": 5426,
      "healthy": 5427,
      "subject": 5428,
      "convencer": 5429,
      "sorprendido": 5430,
      "embargo": 5431,
      "absolutely": 5432,
      "believes": 5433,
      "believed": 5434,
      "Turn": 5435,
      "Quizá": 5436,
      "culpable": 5437,
      "grupo": 5438,
      "espalda": 5439,
      "By": 5440,
      "Hun": 5441,
      "Hold": 5442,
      "aprend": 5443,
      "cs": 5444,
      "gay": 5445,
      "gges": 5446,
      "enfad": 5447,
      "inado": 5448,
      "requ": 5449,
      "lados": 5450,
      "notic": 5451,
      "season": 5452,
      "magaz": 5453,
      "vivía": 5454,
      "sugges": 5455,
      "irte": 5456,
      "tuya": 5457,
      "hates": 5458,
      "pregn": 5459,
      "Mejor": 5460,
      "accu": 5461,
      "butter": 5462,
      "escribiendo": 5463,
      "haberte": 5464,
      "cuerdas": 5465,
      "dirty": 5466,
      "Something": 5467,
      "steal": 5468,
      "muchacho": 5469,
      "relación": 5470,
      "necesitaba": 5471,
      "cansada": 5472,
      "attend": 5473,
      "hermoso": 5474,
      "empleados": 5475,
      "allowed": 5476,
      "idiota": 5477,
      "cerrada": 5478,
      "espacio": 5479,
      "aburrido": 5480,
      "threw": 5481,
      "línea": 5482,
      "verdaderamente": 5483,
      "viernes": 5484,
      "pertene": 5485,
      "guilty": 5486,
      "aunque": 5487,
      "kil": 5488,
      "ox": 5489,
      "tía": 5490,
      "dilla": 5491,
      "tró": 5492,
      "locked": 5493,
      "itself": 5494,
      "mapa": 5495,
      "madera": 5496,
      "supi": 5497,
      "España": 5498,
      "cool": 5499,
      "Hey": 5500,
      "tugu": 5501,
      "pado": 5502,
      "tendrá": 5503,
      "cerrar": 5504,
      "excel": 5505,
      "Italian": 5506,
      "hablas": 5507,
      "habrá": 5508,
      "furi": 5509,
      "act": 5510,
      "costum": 5511,
      "jugue": 5512,
      "seguida": 5513,
      "feels": 5514,
      "plant": 5515,
      "debemos": 5516,
      "Make": 5517,
      "Juan": 5518,
      "absoluto": 5519,
      "prometió": 5520,
      "celebra": 5521,
      "entrada": 5522,
      "Friday": 5523,
      "behavior": 5524,
      "earlier": 5525,
      "Ap": 5526,
      "Bras": 5527,
      "Dos": 5528,
      "Spain": 5529,
      "iled": 5530,
      "pusi": 5531,
      "science": 5532,
      "ascen": 5533,
      "dele": 5534,
      "demand": 5535,
      "remos": 5536,
      "heat": 5537,
      "lots": 5538,
      "camente": 5539,
      "rode": 5540,
      "mado": 5541,
      "gui": 5542,
      "amás": 5543,
      "amista": 5544,
      "puestas": 5545,
      "cash": 5546,
      "cards": 5547,
      "feet": 5548,
      "darme": 5549,
      "ablemente": 5550,
      "rule": 5551,
      "woke": 5552,
      "gaste": 5553,
      "cambiado": 5554,
      "acab": 5555,
      "effe": 5556,
      "enseñó": 5557,
      "piernas": 5558,
      "bomb": 5559,
      "distancia": 5560,
      "begins": 5561,
      "Querés": 5562,
      "employees": 5563,
      "Lamento": 5564,
      "tráfico": 5565,
      "garet": 5566,
      "Fe": 5567,
      "Hice": 5568,
      "Kio": 5569,
      "Mam": 5570,
      "Vay": 5571,
      "kno": 5572,
      "odi": 5573,
      "pper": 5574,
      "sour": 5575,
      "eren": 5576,
      "estra": 5577,
      "depar": 5578,
      "demon": 5579,
      "hell": 5580,
      "noches": 5581,
      "ellas": 5582,
      "sepa": 5583,
      "dibu": 5584,
      "mago": 5585,
      "mido": 5586,
      "ford": 5587,
      "adul": 5588,
      "hojas": 5589,
      "preparado": 5590,
      "tradi": 5591,
      "serpi": 5592,
      "apprecia": 5593,
      "ándose": 5594,
      "daré": 5595,
      "darle": 5596,
      "talento": 5597,
      "grafo": 5598,
      "entamente": 5599,
      "ledge": 5600,
      "bolí": 5601,
      "treat": 5602,
      "beauty": 5603,
      "bigger": 5604,
      "clou": 5605,
      "ceder": 5606,
      "secretar": 5607,
      "Vivo": 5608,
      "skin": 5609,
      "agradeci": 5610,
      "Prefer": 5611,
      "lápiz": 5612,
      "robó": 5613,
      "deben": 5614,
      "profundamente": 5615,
      "servicio": 5616,
      "ejemplo": 5617,
      "suddenly": 5618,
      "piedra": 5619,
      "avoid": 5620,
      "Kioto": 5621,
      "25": 5622,
      "Jamás": 5623,
      "Ob": 5624,
      "Ter": 5625,
      "lé": 5626,
      "Ésta": 5627,
      "throw": 5628,
      "techo": 5629,
      "lada": 5630,
      "labor": 5631,
      "theater": 5632,
      "note": 5633,
      "cigaret": 5634,
      "race": 5635,
      "terior": 5636,
      "óni": 5637,
      "iron": 5638,
      "neck": 5639,
      "cans": 5640,
      "nia": 5641,
      "exten": 5642,
      "prefi": 5643,
      "frances": 5644,
      "habían": 5645,
      "llegué": 5646,
      "dishes": 5647,
      "Mil": 5648,
      "selo": 5649,
      "planet": 5650,
      "hubo": 5651,
      "alegr": 5652,
      "aprendiendo": 5653,
      "móvil": 5654,
      "keeps": 5655,
      "relations": 5656,
      "enojado": 5657,
      "solución": 5658,
      "engine": 5659,
      "depende": 5660,
      "above": 5661,
      "estrella": 5662,
      "sociedad": 5663,
      "middle": 5664,
      "enfadado": 5665,
      "olvidado": 5666,
      "frecuencia": 5667,
      "Columbus": 5668,
      "Wor": 5669,
      "cuel": 5670,
      "cross": 5671,
      "ron": 5672,
      "inó": 5673,
      "invol": 5674,
      "ased": 5675,
      "reach": 5676,
      "refle": 5677,
      "heada": 5678,
      "hechos": 5679,
      "tight": 5680,
      "metal": 5681,
      "cimiento": 5682,
      "ustri": 5683,
      "confes": 5684,
      "ests": 5685,
      "advanta": 5686,
      "tuyo": 5687,
      "bajar": 5688,
      "tened": 5689,
      "bilidad": 5690,
      "picked": 5691,
      "ement": 5692,
      "provo": 5693,
      "wever": 5694,
      "account": 5695,
      "dru": 5696,
      "salvo": 5697,
      "inocente": 5698,
      "duras": 5699,
      "Reci": 5700,
      "calls": 5701,
      "charge": 5702,
      "prisión": 5703,
      "quedarte": 5704,
      "lights": 5705,
      "answered": 5706,
      "japonesa": 5707,
      "gentle": 5708,
      "fresh": 5709,
      "utili": 5710,
      "picnic": 5711,
      "nervioso": 5712,
      "ejercicio": 5713,
      "group": 5714,
      "comportamiento": 5715,
      "güenza": 5716,
      "Sorry": 5717,
      "Brasil": 5718,
      "500": 5719,
      "Father": 5720,
      "Gree": 5721,
      "Whose": 5722,
      "athe": 5723,
      "ape": 5724,
      "mely": 5725,
      "rin": 5726,
      "escondi": 5727,
      "inas": 5728,
      "onto": 5729,
      "ises": 5730,
      "ison": 5731,
      "dedi": 5732,
      "ordin": 5733,
      "redu": 5734,
      "unity": 5735,
      "tieron": 5736,
      "local": 5737,
      "mag": 5738,
      "pobla": 5739,
      "cancer": 5740,
      "casar": 5741,
      "tarse": 5742,
      "wet": 5743,
      "abajo": 5744,
      "hadn": 5745,
      "brush": 5746,
      "suspi": 5747,
      "illas": 5748,
      "haberlo": 5749,
      "rang": 5750,
      "sorpresa": 5751,
      "mirar": 5752,
      "example": 5753,
      "dressed": 5754,
      "intención": 5755,
      "tratando": 5756,
      "derecha": 5757,
      "embara": 5758,
      "averigu": 5759,
      "Colón": 5760,
      "museo": 5761,
      "distance": 5762,
      "vegetables": 5763,
      "Hubo": 5764,
      "Desearía": 5765,
      "material": 5766,
      "trimon": 5767,
      "sibility": 5768,
      "period": 5769,
      "También": 5770,
      "amistad": 5771,
      "\",": 5772,
      "Apenas": 5773,
      "Gre": 5774,
      "Sería": 5775,
      "Well": 5776,
      "cino": 5777,
      "fro": 5778,
      "gera": 5779,
      "pé": 5780,
      "ualidad": 5781,
      "ácti": 5782,
      "text": 5783,
      "haz": 5784,
      "roof": 5785,
      "sia": 5786,
      "pota": 5787,
      "pocos": 5788,
      "peces": 5789,
      "bañ": 5790,
      "fill": 5791,
      "excus": 5792,
      "hero": 5793,
      "nation": 5794,
      "missing": 5795,
      "hacerte": 5796,
      "Cual": 5797,
      "corto": 5798,
      "bran": 5799,
      "cried": 5800,
      "nuevas": 5801,
      "harder": 5802,
      "named": 5803,
      "señal": 5804,
      "fond": 5805,
      "llamado": 5806,
      "wards": 5807,
      "especial": 5808,
      "drop": 5809,
      "Jackson": 5810,
      "extremely": 5811,
      "escuchando": 5812,
      "sábado": 5813,
      "field": 5814,
      "cáncer": 5815,
      "Brazil": 5816,
      "resfriado": 5817,
      "teoría": 5818,
      "noticed": 5819,
      "acu": 5820,
      "achi": 5821,
      "ahead": 5822,
      "fí": 5823,
      "imed": 5824,
      "nature": 5825,
      "inven": 5826,
      "tom": 5827,
      "refri": 5828,
      "theory": 5829,
      "civi": 5830,
      "diri": 5831,
      "caball": 5832,
      "conce": 5833,
      "rio": 5834,
      "quiso": 5835,
      "lly": 5836,
      "sico": 5837,
      "entemente": 5838,
      "within": 5839,
      "prof": 5840,
      "proper": 5841,
      "propos": 5842,
      "gate": 5843,
      "exi": 5844,
      "pread": 5845,
      "hablado": 5846,
      "gives": 5847,
      "ount": 5848,
      "calm": 5849,
      "tiempos": 5850,
      "state": 5851,
      "sabemos": 5852,
      "pieces": 5853,
      "rained": 5854,
      "promesa": 5855,
      "skir": 5856,
      "pisto": 5857,
      "extranjeros": 5858,
      "enseñar": 5859,
      "gging": 5860,
      "society": 5861,
      "program": 5862,
      "laughing": 5863,
      "straight": 5864,
      "explos": 5865,
      "thief": 5866,
      "texto": 5867,
      "hábi": 5868,
      "recently": 5869,
      "hobby": 5870,
      "pregnant": 5871,
      "Aren": 5872,
      "Sim": 5873,
      "ava": 5874,
      "cing": 5875,
      "gth": 5876,
      "lentes": 5877,
      "spring": 5878,
      "wers": 5879,
      "anno": 5880,
      "aspe": 5881,
      "depor": 5882,
      "cito": 5883,
      "usión": 5884,
      "edom": 5885,
      "matrimon": 5886,
      "miles": 5887,
      "vivió": 5888,
      "hill": 5889,
      "pocket": 5890,
      "path": 5891,
      "empresa": 5892,
      "quilla": 5893,
      "factory": 5894,
      "filled": 5895,
      "casas": 5896,
      "hables": 5897,
      "giving": 5898,
      "nose": 5899,
      "stone": 5900,
      "clever": 5901,
      "conoció": 5902,
      "match": 5903,
      "sentí": 5904,
      "Unfortunately": 5905,
      "caused": 5906,
      "risk": 5907,
      "invitados": 5908,
      "consciente": 5909,
      "fortune": 5910,
      "solution": 5911,
      "recibir": 5912,
      "llorando": 5913,
      "considered": 5914,
      "enjoyed": 5915,
      "soul": 5916,
      "computadora": 5917,
      "reserva": 5918,
      "significado": 5919,
      "Betty": 5920,
      "Mamá": 5921,
      ".»": 5922,
      "17": 5923,
      "Oí": 5924,
      "Pu": 5925,
      "Pap": 5926,
      "agar": 5927,
      "cles": 5928,
      "cras": 5929,
      "ias": 5930,
      "ómi": 5931,
      "encar": 5932,
      "anu": 5933,
      "inju": 5934,
      "heli": 5935,
      "tito": 5936,
      "tray": 5937,
      "cami": 5938,
      "capit": 5939,
      "roto": 5940,
      "bebi": 5941,
      "mili": 5942,
      "cogió": 5943,
      "pocas": 5944,
      "guard": 5945,
      "explan": 5946,
      "preocupa": 5947,
      "sonó": 5948,
      "mark": 5949,
      "distra": 5950,
      "llamo": 5951,
      "dry": 5952,
      "jeta": 5953,
      "dying": 5954,
      "suspe": 5955,
      "tastes": 5956,
      "cultur": 5957,
      "estudia": 5958,
      "Necesitas": 5959,
      "pequeños": 5960,
      "painted": 5961,
      "esposo": 5962,
      "comenzar": 5963,
      "notice": 5964,
      "Time": 5965,
      "manejar": 5966,
      "linda": 5967,
      "oscuridad": 5968,
      "explained": 5969,
      "excepto": 5970,
      "defen": 5971,
      "Russian": 5972,
      "crowd": 5973,
      "vecinos": 5974,
      "democra": 5975,
      "headache": 5976,
      "14": 5977,
      "Che": 5978,
      "Cris": 5979,
      "Mother": 5980,
      "Pol": 5981,
      "Rom": 5982,
      "blow": 5983,
      "cár": 5984,
      "drow": 5985,
      "hous": 5986,
      "imos": 5987,
      "jour": 5988,
      "rab": 5989,
      "áles": 5990,
      "arena": 5991,
      "astron": 5992,
      "dedos": 5993,
      "lady": 5994,
      "leo": 5995,
      "meant": 5996,
      "separa": 5997,
      "cientes": 5998,
      "diet": 5999,
      "ché": 6000,
      "site": 6001,
      "desi": 6002,
      "ambos": 6003,
      "estábamos": 6004,
      "faci": 6005,
      "propuesta": 6006,
      "casualidad": 6007,
      "odía": 6008,
      "impa": 6009,
      "guste": 6010,
      "apun": 6011,
      "master": 6012,
      "broma": 6013,
      "prestado": 6014,
      "iling": 6015,
      "judge": 6016,
      "seguido": 6017,
      "Algo": 6018,
      "alegro": 6019,
      "buying": 6020,
      "cture": 6021,
      "vuelve": 6022,
      "lenguaje": 6023,
      "tratar": 6024,
      "intentar": 6025,
      "artículo": 6026,
      "confianza": 6027,
      "tomado": 6028,
      "washing": 6029,
      "football": 6030,
      "mostró": 6031,
      "fighting": 6032,
      "usias": 6033,
      "idiot": 6034,
      "yenes": 6035,
      "discutir": 6036,
      "descanso": 6037,
      "arrested": 6038,
      "exercise": 6039,
      "intelligent": 6040,
      "ashamed": 6041,
      "otoño": 6042,
      "chat": 6043,
      "mpi": 6044,
      "pér": 6045,
      "ábamos": 6046,
      "toi": 6047,
      "omen": 6048,
      "rez": 6049,
      "repu": 6050,
      "tress": 6051,
      "lied": 6052,
      "contribu": 6053,
      "abre": 6054,
      "quise": 6055,
      "herido": 6056,
      "sonido": 6057,
      "songs": 6058,
      "tience": 6059,
      "éste": 6060,
      "ésta": 6061,
      "mismos": 6062,
      "darte": 6063,
      "cortó": 6064,
      "tales": 6065,
      "busca": 6066,
      "Segu": 6067,
      "soldados": 6068,
      "hayas": 6069,
      "ctores": 6070,
      "velop": 6071,
      "harto": 6072,
      "writer": 6073,
      "suele": 6074,
      "handed": 6075,
      "fondo": 6076,
      "romper": 6077,
      "salido": 6078,
      "nearly": 6079,
      "population": 6080,
      "avergon": 6081,
      "cientos": 6082,
      "oraciones": 6083,
      "despierto": 6084,
      "modern": 6085,
      "millones": 6086,
      "Solía": 6087,
      "esfuerzo": 6088,
      "Paul": 6089,
      "desayunar": 6090,
      "satisfecho": 6091,
      "aunt": 6092,
      "15": 6093,
      "Bring": 6094,
      "Lat": 6095,
      "Más": 6096,
      "Veo": 6097,
      "apu": 6098,
      "acompañ": 6099,
      "fem": 6100,
      "round": 6101,
      "stan": 6102,
      "aster": 6103,
      "alarm": 6104,
      "citi": 6105,
      "chis": 6106,
      "caer": 6107,
      "millas": 6108,
      "entero": 6109,
      "size": 6110,
      "terre": 6111,
      "pele": 6112,
      "cana": 6113,
      "page": 6114,
      "paint": 6115,
      "exha": 6116,
      "fría": 6117,
      "hable": 6118,
      "mister": 6119,
      "mention": 6120,
      "darse": 6121,
      "ourselves": 6122,
      "shy": 6123,
      "audi": 6124,
      "jada": 6125,
      "cionó": 6126,
      "ayude": 6127,
      "cultura": 6128,
      "importar": 6129,
      "dora": 6130,
      "funda": 6131,
      "mates": 6132,
      "basket": 6133,
      "opción": 6134,
      "cincuenta": 6135,
      "Somebody": 6136,
      "kilo": 6137,
      "interesado": 6138,
      "fábri": 6139,
      "classroom": 6140,
      "pelota": 6141,
      "traducción": 6142,
      "embarras": 6143,
      "enseña": 6144,
      "encuentro": 6145,
      "permite": 6146,
      "Estuve": 6147,
      "probablemente": 6148,
      "Without": 6149,
      "criminal": 6150,
      "belongs": 6151,
      "estómago": 6152,
      "instead": 6153,
      "Preferiría": 6154,
      "matrimonio": 6155,
      "Hello": 6156,
      "Men": 6157,
      "Vuel": 6158,
      "avis": 6159,
      "bs": 6160,
      "brió": 6161,
      "mera": 6162,
      "ood": 6163,
      "rat": 6164,
      "yendo": 6165,
      "ery": 6166,
      "indis": 6167,
      "tomo": 6168,
      "tomando": 6169,
      "isa": 6170,
      "deporte": 6171,
      "orrow": 6172,
      "lav": 6173,
      "uncia": 6174,
      "levan": 6175,
      "Tomorrow": 6176,
      "meta": 6177,
      "cierta": 6178,
      "chor": 6179,
      "cabello": 6180,
      "oferta": 6181,
      "cuesti": 6182,
      "perdí": 6183,
      "simp": 6184,
      "adá": 6185,
      "ónico": 6186,
      "irre": 6187,
      "losop": 6188,
      "paga": 6189,
      "desarro": 6190,
      "boda": 6191,
      "prácti": 6192,
      "weak": 6193,
      "mintiendo": 6194,
      "ends": 6195,
      "costs": 6196,
      "stuck": 6197,
      "humana": 6198,
      "conocen": 6199,
      "conocía": 6200,
      "tempor": 6201,
      "Antes": 6202,
      "vely": 6203,
      "rosa": 6204,
      "harm": 6205,
      "consiguió": 6206,
      "sym": 6207,
      "escapar": 6208,
      "draw": 6209,
      "convertir": 6210,
      "Once": 6211,
      "cruzar": 6212,
      "electr": 6213,
      "translation": 6214,
      "discusión": 6215,
      "inmediato": 6216,
      "Wash": 6217,
      "gratis": 6218,
      "necesitan": 6219,
      "equal": 6220,
      "nariz": 6221,
      "galletas": 6222,
      "excelente": 6223,
      "población": 6224,
      "Papá": 6225,
      "houses": 6226,
      "toilet": 6227,
      "citizen": 6228,
      "cuestión": 6229,
      "Apren": 6230,
      "Prob": 6231,
      "bun": 6232,
      "tles": 6233,
      "entro": 6234,
      "arran": 6235,
      "ani": 6236,
      "telo": 6237,
      "Toma": 6238,
      "diario": 6239,
      "atal": 6240,
      "roe": 6241,
      "veré": 6242,
      "eds": 6243,
      "llar": 6244,
      "compar": 6245,
      "permit": 6246,
      "negó": 6247,
      "pet": 6248,
      "canos": 6249,
      "tenían": 6250,
      "mover": 6251,
      "piel": 6252,
      "fired": 6253,
      "cerró": 6254,
      "saved": 6255,
      "Queremos": 6256,
      "tari": 6257,
      "ours": 6258,
      "bró": 6259,
      "lure": 6260,
      "dieta": 6261,
      "estudio": 6262,
      "parecen": 6263,
      "stomach": 6264,
      "Canadá": 6265,
      "eleva": 6266,
      "elegir": 6267,
      "Didn": 6268,
      "calling": 6269,
      "hurts": 6270,
      "volveré": 6271,
      "ordered": 6272,
      "blanca": 6273,
      "echó": 6274,
      "education": 6275,
      "forgotten": 6276,
      "passport": 6277,
      "flat": 6278,
      "Canada": 6279,
      "estúpi": 6280,
      "smells": 6281,
      "responsable": 6282,
      "permiso": 6283,
      "robaron": 6284,
      "poema": 6285,
      "enorme": 6286,
      "bolsillo": 6287,
      "opportunity": 6288,
      "involved": 6289,
      "Fir": 6290,
      "Feli": 6291,
      "games": 6292,
      "ied": 6293,
      "jera": 6294,
      "pesa": 6295,
      "whom": 6296,
      "yos": 6297,
      "éc": 6298,
      "óli": 6299,
      "ered": 6300,
      "deman": 6301,
      "doce": 6302,
      "alous": 6303,
      "recuerda": 6304,
      "tech": 6305,
      "legal": 6306,
      "quete": 6307,
      "mez": 6308,
      "meal": 6309,
      "atar": 6310,
      "goal": 6311,
      "cable": 6312,
      "conne": 6313,
      "quitar": 6314,
      "math": 6315,
      "viviendo": 6316,
      "formas": 6317,
      "terror": 6318,
      "canciones": 6319,
      "amaba": 6320,
      "estáis": 6321,
      "myster": 6322,
      "knowledge": 6323,
      "distin": 6324,
      "casada": 6325,
      "sincer": 6326,
      "ganado": 6327,
      "stories": 6328,
      "culture": 6329,
      "juice": 6330,
      "essor": 6331,
      "teaches": 6332,
      "viejos": 6333,
      "arriba": 6334,
      "examination": 6335,
      "easier": 6336,
      "responsible": 6337,
      "Mucha": 6338,
      "capacidad": 6339,
      "fácilmente": 6340,
      "pasaporte": 6341,
      "cookies": 6342,
      "support": 6343,
      "energy": 6344,
      "explicación": 6345,
      "pedirle": 6346,
      "dropped": 6347,
      "pointment": 6348,
      "fortunadamente": 6349,
      "Bueno": 6350,
      "objetivo": 6351,
      "increí": 6352,
      "sofá": 6353,
      "impresion": 6354,
      "attack": 6355,
      "destino": 6356,
      "encantan": 6357,
      "disappointed": 6358,
      "Alice": 6359,
      "lonely": 6360,
      "proposal": 6361,
      "Dr": 6362,
      "Each": 6363,
      "Mom": 6364,
      "Wel": 6365,
      "lando": 6366,
      "mend": 6367,
      "nur": 6368,
      "oil": 6369,
      "rose": 6370,
      "ures": 6371,
      "vuelo": 6372,
      "wound": 6373,
      "ertas": 6374,
      "esqui": 6375,
      "armar": 6376,
      "arms": 6377,
      "infan": 6378,
      "asure": 6379,
      "revista": 6380,
      "timos": 6381,
      "conden": 6382,
      "concl": 6383,
      "ables": 6384,
      "comuni": 6385,
      "raised": 6386,
      "entar": 6387,
      "wich": 6388,
      "antly": 6389,
      "mani": 6390,
      "moda": 6391,
      "mood": 6392,
      "pide": 6393,
      "excell": 6394,
      "gras": 6395,
      "grab": 6396,
      "gica": 6397,
      "credi": 6398,
      "costó": 6399,
      "gracia": 6400,
      "haps": 6401,
      "parecer": 6402,
      "managed": 6403,
      "stick": 6404,
      "deberían": 6405,
      "teaching": 6406,
      "ventanas": 6407,
      "cómodo": 6408,
      "Hablo": 6409,
      "bling": 6410,
      "volverá": 6411,
      "cualquiera": 6412,
      "imag": 6413,
      "huele": 6414,
      "jugador": 6415,
      "prepared": 6416,
      "violencia": 6417,
      "Fuimos": 6418,
      "quitó": 6419,
      "Conoces": 6420,
      "bathroom": 6421,
      "escaleras": 6422,
      "agreed": 6423,
      "complaining": 6424,
      "obliga": 6425,
      "convinced": 6426,
      "adecu": 6427,
      "comprender": 6428,
      "multitud": 6429,
      "incendio": 6430,
      "soldiers": 6431,
      "Taro": 6432,
      "lazy": 6433,
      "cuello": 6434,
      "embarazada": 6435,
      "explanation": 6436,
      "200": 6437,
      "Ca": 6438,
      "Vend": 6439,
      "Were": 6440,
      "adel": 6441,
      "avan": 6442,
      "apagar": 6443,
      "pere": 6444,
      "sche": 6445,
      "enfr": 6446,
      "ined": 6447,
      "dedo": 6448,
      "develop": 6449,
      "els": 6450,
      "mej": 6451,
      "cie": 6452,
      "dito": 6453,
      "diera": 6454,
      "conser": 6455,
      "bey": 6456,
      "riage": 6457,
      "vergüenza": 6458,
      "ité": 6459,
      "comí": 6460,
      "oló": 6461,
      "sim": 6462,
      "coinci": 6463,
      "losing": 6464,
      "cancel": 6465,
      "bate": 6466,
      "pil": 6467,
      "trajo": 6468,
      "largest": 6469,
      "mission": 6470,
      "gustar": 6471,
      "cheap": 6472,
      "dará": 6473,
      "corner": 6474,
      "grado": 6475,
      "suspen": 6476,
      "tooth": 6477,
      "Incl": 6478,
      "solar": 6479,
      "querías": 6480,
      "changes": 6481,
      "extraña": 6482,
      "resultó": 6483,
      "director": 6484,
      "matters": 6485,
      "pollo": 6486,
      "ized": 6487,
      "Espera": 6488,
      "dormitorio": 6489,
      "pleasure": 6490,
      "pretended": 6491,
      "fixed": 6492,
      "sucedió": 6493,
      "sharp": 6494,
      "cuidar": 6495,
      "merece": 6496,
      "ctoria": 6497,
      "dancing": 6498,
      "italiano": 6499,
      "11": 6500,
      "13": 6501,
      "Watch": 6502,
      "adelante": 6503,
      "cú": 6504,
      "cés": 6505,
      "ebre": 6506,
      "fence": 6507,
      "hé": 6508,
      "iro": 6509,
      "ocas": 6510,
      "tis": 6511,
      "ually": 6512,
      "inna": 6513,
      "infin": 6514,
      "depri": 6515,
      "refer": 6516,
      "teme": 6517,
      "dig": 6518,
      "log": 6519,
      "quisiera": 6520,
      "mathematics": 6521,
      "cean": 6522,
      "sientes": 6523,
      "tuvimos": 6524,
      "aller": 6525,
      "resem": 6526,
      "cantidad": 6527,
      "pata": 6528,
      "pack": 6529,
      "bajó": 6530,
      "despedir": 6531,
      "ambu": 6532,
      "jokes": 6533,
      "Quien": 6534,
      "carried": 6535,
      "sonrió": 6536,
      "fuiste": 6537,
      "tarjeta": 6538,
      "ders": 6539,
      "wore": 6540,
      "shel": 6541,
      "saluda": 6542,
      "pressed": 6543,
      "Según": 6544,
      "interrup": 6545,
      "stuff": 6546,
      "studies": 6547,
      "dores": 6548,
      "truck": 6549,
      "friendship": 6550,
      "ctiva": 6551,
      "aprendido": 6552,
      "musical": 6553,
      "runs": 6554,
      "acabar": 6555,
      "resultados": 6556,
      "Arab": 6557,
      "stranger": 6558,
      "faith": 6559,
      "failure": 6560,
      "capable": 6561,
      "normalmente": 6562,
      "evil": 6563,
      "occur": 6564,
      "seriously": 6565,
      "pleased": 6566,
      "Ambos": 6567,
      "vuestro": 6568,
      "Finalmente": 6569,
      "vivido": 6570,
      "quince": 6571,
      "materna": 6572,
      "accepted": 6573,
      "accused": 6574,
      "advantage": 6575,
      "física": 6576,
      "Welcome": 6577,
      "excellent": 6578,
      "Hur": 6579,
      "Mos": 6580,
      "Open": 6581,
      "aves": 6582,
      "bell": 6583,
      "bright": 6584,
      "flight": 6585,
      "mare": 6586,
      "ners": 6587,
      "erda": 6588,
      "arás": 6589,
      "aria": 6590,
      "alf": 6591,
      "lat": 6592,
      "dici": 6593,
      "robado": 6594,
      "ritu": 6595,
      "abor": 6596,
      "mame": 6597,
      "irri": 6598,
      "poison": 6599,
      "patience": 6600,
      "tenta": 6601,
      "fiebre": 6602,
      "nación": 6603,
      "bert": 6604,
      "grass": 6605,
      "plato": 6606,
      "aliza": 6607,
      "brown": 6608,
      "seldom": 6609,
      "pareja": 6610,
      "inevi": 6611,
      "juz": 6612,
      "jeras": 6613,
      "teachers": 6614,
      "plantas": 6615,
      "false": 6616,
      "century": 6617,
      "sang": 6618,
      "asesina": 6619,
      "freedom": 6620,
      "sweater": 6621,
      "fingers": 6622,
      "followed": 6623,
      "despertar": 6624,
      "recoger": 6625,
      "oscuro": 6626,
      "offered": 6627,
      "temperature": 6628,
      "climb": 6629,
      "ingenu": 6630,
      "Help": 6631,
      "orange": 6632,
      "niture": 6633,
      "magazine": 6634,
      "pertenece": 6635,
      "acabó": 6636,
      "facilidad": 6637,
      "Bri": 6638,
      "Preg": 6639,
      "Ri": 6640,
      "Vis": 6641,
      "beso": 6642,
      "gall": 6643,
      "ize": 6644,
      "stren": 6645,
      "isted": 6646,
      "doble": 6647,
      "teles": 6648,
      "lee": 6649,
      "tida": 6650,
      "vecino": 6651,
      "lock": 6652,
      "chess": 6653,
      "limi": 6654,
      "absent": 6655,
      "entera": 6656,
      "poet": 6657,
      "tenés": 6658,
      "bum": 6659,
      "llevas": 6660,
      "corta": 6661,
      "drug": 6662,
      "brome": 6663,
      "gram": 6664,
      "ninguno": 6665,
      "oyó": 6666,
      "huge": 6667,
      "volar": 6668,
      "diós": 6669,
      "medica": 6670,
      "geno": 6671,
      "politici": 6672,
      "lished": 6673,
      "alegra": 6674,
      "survi": 6675,
      "members": 6676,
      "greatest": 6677,
      "farm": 6678,
      "cantando": 6679,
      "keyboard": 6680,
      "energía": 6681,
      "Argent": 6682,
      "violence": 6683,
      "welve": 6684,
      "caballos": 6685,
      "foolish": 6686,
      "informe": 6687,
      "fifteen": 6688,
      "convince": 6689,
      "gratu": 6690,
      "furniture": 6691,
      "Encontré": 6692,
      "ajed": 6693,
      "original": 6694,
      "importancia": 6695,
      "Cierra": 6696,
      "trampa": 6697,
      "According": 6698,
      "muñeca": 6699,
      "appreciate": 6700,
      "pérdida": 6701,
      "fábrica": 6702,
      "Probablemente": 6703,
      "Incluso": 6704,
      "?»": 6705,
      "Adónde": 6706,
      "Day": 6707,
      "Mé": 6708,
      "Mien": 6709,
      "Rome": 6710,
      "Sha": 6711,
      "apre": 6712,
      "aded": 6713,
      "biste": 6714,
      "flying": 6715,
      "flies": 6716,
      "spread": 6717,
      "tantes": 6718,
      "arruin": 6719,
      "ancia": 6720,
      "decía": 6721,
      "determin": 6722,
      "untos": 6723,
      "dillas": 6724,
      "vemos": 6725,
      "atre": 6726,
      "confu": 6727,
      "conciencia": 6728,
      "vers": 6729,
      "mada": 6730,
      "cues": 6731,
      "vidu": 6732,
      "raise": 6733,
      "siglo": 6734,
      "murieron": 6735,
      "hid": 6736,
      "mosqui": 6737,
      "Mari": 6738,
      "moving": 6739,
      "desapare": 6740,
      "quie": 6741,
      "file": 6742,
      "earn": 6743,
      "duty": 6744,
      "dumb": 6745,
      "jazz": 6746,
      "salva": 6747,
      "salvar": 6748,
      "jealous": 6749,
      "decidir": 6750,
      "sabido": 6751,
      "estuve": 6752,
      "primo": 6753,
      "helping": 6754,
      "afford": 6755,
      "basura": 6756,
      "escritor": 6757,
      "Char": 6758,
      "razos": 6759,
      "últimos": 6760,
      "value": 6761,
      "juegos": 6762,
      "difficulty": 6763,
      "muchacha": 6764,
      "results": 6765,
      "depends": 6766,
      "supermarket": 6767,
      "supermercado": 6768,
      "windows": 6769,
      "fracaso": 6770,
      "probó": 6771,
      "mountains": 6772,
      "translated": 6773,
      "conocimiento": 6774,
      "individu": 6775,
      "silent": 6776,
      "pensado": 6777,
      "crisis": 6778,
      "Should": 6779,
      "miembros": 6780,
      "ilable": 6781,
      "philosop": 6782,
      "carretera": 6783,
      "ascensor": 6784,
      "relationship": 6785,
      "camión": 6786,
      "Pregún": 6787,
      "Mientras": 6788,
      "Ah": 6789,
      "Listen": 6790,
      "Twit": 6791,
      "Water": 6792,
      "zu": 6793,
      "onde": 6794,
      "retir": 6795,
      "revolu": 6796,
      "tiles": 6797,
      "ingles": 6798,
      "ciles": 6799,
      "diab": 6800,
      "cago": 6801,
      "cure": 6802,
      "ires": 6803,
      "cante": 6804,
      "cance": 6805,
      "pian": 6806,
      "desnu": 6807,
      "pull": 6808,
      "tario": 6809,
      "apli": 6810,
      "dispon": 6811,
      "dispuesto": 6812,
      "hacerme": 6813,
      "Cuanto": 6814,
      "shit": 6815,
      "ducha": 6816,
      "graph": 6817,
      "malas": 6818,
      "pareció": 6819,
      "barely": 6820,
      "conoces": 6821,
      "obvious": 6822,
      "idades": 6823,
      "childhood": 6824,
      "firm": 6825,
      "genera": 6826,
      "plied": 6827,
      "cambió": 6828,
      "Hablas": 6829,
      "Tuvimos": 6830,
      "sooner": 6831,
      "llegará": 6832,
      "piensan": 6833,
      "conductor": 6834,
      "Pareces": 6835,
      "planeta": 6836,
      "White": 6837,
      "trabajadores": 6838,
      "198": 6839,
      "reality": 6840,
      "Susan": 6841,
      "ugly": 6842,
      "temperatura": 6843,
      "comienzo": 6844,
      "fifty": 6845,
      "defini": 6846,
      "justicia": 6847,
      "contestar": 6848,
      "ísimo": 6849,
      "remained": 6850,
      "cigarri": 6851,
      "alumnos": 6852,
      "jacket": 6853,
      "bolígrafo": 6854,
      "Termin": 6855,
      "First": 6856,
      "ajedrez": 6857,
      "Twitter": 6858,
      "\"¡": 6859,
      "\"¿": 6860,
      "Du": 6861,
      "Emi": 6862,
      "Roma": 6863,
      "Vien": 6864,
      "Women": 6865,
      "cue": 6866,
      "eme": 6867,
      "ib": 6868,
      "none": 6869,
      "uri": 6870,
      "wis": 6871,
      "estri": 6872,
      "entren": 6873,
      "ining": 6874,
      "alqui": 6875,
      "rea": 6876,
      "leto": 6877,
      "tian": 6878,
      "const": 6879,
      "consul": 6880,
      "vita": 6881,
      "suyo": 6882,
      "mutu": 6883,
      "coches": 6884,
      "nivel": 6885,
      "cerdo": 6886,
      "cargo": 6887,
      "carga": 6888,
      "nave": 6889,
      "naked": 6890,
      "fever": 6891,
      "didas": 6892,
      "Cuida": 6893,
      "corri": 6894,
      "trabajó": 6895,
      "triz": 6896,
      "contrario": 6897,
      "Although": 6898,
      "esperado": 6899,
      "mayores": 6900,
      "Isn": 6901,
      "haberme": 6902,
      "starting": 6903,
      "Recuerdo": 6904,
      "telef": 6905,
      "besó": 6906,
      "character": 6907,
      "doors": 6908,
      "profesores": 6909,
      "hang": 6910,
      "valu": 6911,
      "entendido": 6912,
      "quedado": 6913,
      "recibió": 6914,
      "listened": 6915,
      "wondered": 6916,
      "artist": 6917,
      "antigu": 6918,
      "derechos": 6919,
      "debía": 6920,
      "descubrió": 6921,
      "Americans": 6922,
      "fresco": 6923,
      "famosa": 6924,
      "extremadamente": 6925,
      "emocion": 6926,
      "alcanzar": 6927,
      "economía": 6928,
      "aproxi": 6929,
      "admitted": 6930,
      "Quizás": 6931,
      "Ninguno": 6932,
      "sirve": 6933,
      "holiday": 6934,
      "article": 6935,
      "Dejé": 6936,
      "pantal": 6937,
      "naranja": 6938,
      "estadounidense": 6939,
      "supiera": 6940,
      "costumbre": 6941,
      "potatoes": 6942,
      "injured": 6943,
      "Latin": 6944,
      "increíble": 6945,
      "16": 6946,
      "Cho": 6947,
      "Iré": 6948,
      "Shu": 6949,
      "Vete": 6950,
      "abe": 6951,
      "cían": 6952,
      "lli": 6953,
      "nam": 6954,
      "ply": 6955,
      "rue": 6956,
      "ruso": 6957,
      "armas": 6958,
      "arrest": 6959,
      "detall": 6960,
      "regi": 6961,
      "tail": 6962,
      "quejar": 6963,
      "meth": 6964,
      "dada": 6965,
      "loca": 6966,
      "china": 6967,
      "contro": 6968,
      "rope": 6969,
      "Esos": 6970,
      "forced": 6971,
      "pera": 6972,
      "advan": 6973,
      "candida": 6974,
      "guests": 6975,
      "hole": 6976,
      "puse": 6977,
      "saving": 6978,
      "predic": 6979,
      "nativo": 6980,
      "national": 6981,
      "derro": 6982,
      "marriage": 6983,
      "horiz": 6984,
      "creía": 6985,
      "Cuáles": 6986,
      "sales": 6987,
      "triun": 6988,
      "affe": 6989,
      "maleta": 6990,
      "querría": 6991,
      "elef": 6992,
      "eleven": 6993,
      "brain": 6994,
      "diré": 6995,
      "caminando": 6996,
      "completo": 6997,
      "Pens": 6998,
      "acabado": 6999,
      "burned": 7000,
      "contact": 7001,
      "spends": 7002,
      "proteger": 7003,
      "welcome": 7004,
      "Discul": 7005,
      "neighbors": 7006,
      "climbed": 7007,
      "billetera": 7008,
      "teclado": 7009,
      "Linda": 7010,
      "professor": 7011,
      "cárcel": 7012,
      "elevator": 7013,
      "Hac": 7014,
      "Llá": 7015,
      "Siento": 7016,
      "Vos": 7017,
      "sport": 7018,
      "ala": 7019,
      "repair": 7020,
      "lated": 7021,
      "tible": 7022,
      "ushed": 7023,
      "major": 7024,
      "wild": 7025,
      "copy": 7026,
      "areas": 7027,
      "manes": 7028,
      "fail": 7029,
      "nico": 7030,
      "gage": 7031,
      "cast": 7032,
      "moral": 7033,
      "plata": 7034,
      "visible": 7035,
      "created": 7036,
      "dispar": 7037,
      "ously": 7038,
      "nubes": 7039,
      "stamp": 7040,
      "solved": 7041,
      "speaker": 7042,
      "rude": 7043,
      "necesidad": 7044,
      "turas": 7045,
      "tóbal": 7046,
      "adap": 7047,
      "opti": 7048,
      "fascin": 7049,
      "pity": 7050,
      "ayudara": 7051,
      "ciudades": 7052,
      "saberlo": 7053,
      "televisor": 7054,
      "center": 7055,
      "abandonó": 7056,
      "expecting": 7057,
      "cré": 7058,
      "artista": 7059,
      "Llevo": 7060,
      "condiciones": 7061,
      "drogas": 7062,
      "thirsty": 7063,
      "claimed": 7064,
      "absolutamente": 7065,
      "protect": 7066,
      "earthqua": 7067,
      "certainly": 7068,
      "dulces": 7069,
      "golpeó": 7070,
      "vuestra": 7071,
      "voluntad": 7072,
      "explo": 7073,
      "Pronto": 7074,
      "disease": 7075,
      "distinguir": 7076,
      "request": 7077,
      "available": 7078,
      "Cristóbal": 7079,
      "strength": 7080,
      "earthquake": 7081,
      "Dí": 7082,
      "Hol": 7083,
      "Mad": 7084,
      "Thom": 7085,
      "aho": 7086,
      "avent": 7087,
      "egg": 7088,
      "psy": 7089,
      "ular": 7090,
      "úrate": 7091,
      "esco": 7092,
      "anger": 7093,
      "anillo": 7094,
      "decor": 7095,
      "altos": 7096,
      "recuer": 7097,
      "eléc": 7098,
      "tima": 7099,
      "cida": 7100,
      "didos": 7101,
      "dicos": 7102,
      "dict": 7103,
      "lio": 7104,
      "convirtió": 7105,
      "betray": 7106,
      "ricos": 7107,
      "verduras": 7108,
      "ofen": 7109,
      "abdu": 7110,
      "hion": 7111,
      "pate": 7112,
      "design": 7113,
      "proved": 7114,
      "wealth": 7115,
      "worn": 7116,
      "tanta": 7117,
      "plemente": 7118,
      "cortar": 7119,
      "corrió": 7120,
      "correspon": 7121,
      "aut": 7122,
      "calce": 7123,
      "quími": 7124,
      "answers": 7125,
      "barato": 7126,
      "querer": 7127,
      "querido": 7128,
      "illness": 7129,
      "hacemos": 7130,
      "tically": 7131,
      "abandonado": 7132,
      "dejé": 7133,
      "abierto": 7134,
      "últimamente": 7135,
      "vistazo": 7136,
      "iguales": 7137,
      "claim": 7138,
      "gordo": 7139,
      "manten": 7140,
      "midnight": 7141,
      "suitcase": 7142,
      "comienza": 7143,
      "Taninna": 7144,
      "bottom": 7145,
      "license": 7146,
      "Intenté": 7147,
      "search": 7148,
      "caballero": 7149,
      "ológico": 7150,
      "inevitable": 7151,
      "method": 7152,
      "horizon": 7153,
      "Disculpe": 7154,
      "eléctri": 7155,
      "Asu": 7156,
      "Asia": 7157,
      "Brit": 7158,
      "Det": 7159,
      "June": 7160,
      "brazos": 7161,
      "cías": 7162,
      "eded": 7163,
      "email": 7164,
      "fli": 7165,
      "ired": 7166,
      "pí": 7167,
      "rand": 7168,
      "sw": 7169,
      "twelve": 7170,
      "vosotras": 7171,
      "yeron": 7172,
      "«¿": 7173,
      "ático": 7174,
      "ámonos": 7175,
      "istic": 7176,
      "deaf": 7177,
      "doy": 7178,
      "ality": 7179,
      "lación": 7180,
      "unless": 7181,
      "león": 7182,
      "levanta": 7183,
      "taciones": 7184,
      "tivas": 7185,
      "quedan": 7186,
      "cities": 7187,
      "dica": 7188,
      "dam": 7189,
      "contest": 7190,
      "comb": 7191,
      "hir": 7192,
      "tuvieron": 7193,
      "poten": 7194,
      "bios": 7195,
      "buried": 7196,
      "nado": 7197,
      "fren": 7198,
      "ací": 7199,
      "vote": 7200,
      "pasé": 7201,
      "llevo": 7202,
      "crew": 7203,
      "disappeared": 7204,
      "workers": 7205,
      "éndo": 7206,
      "aula": 7207,
      "salu": 7208,
      "Sigue": 7209,
      "presente": 7210,
      "culpar": 7211,
      "jump": 7212,
      "jumped": 7213,
      "stico": 7214,
      "verdadera": 7215,
      "colina": 7216,
      "sengers": 7217,
      "rosas": 7218,
      "empezado": 7219,
      "Podés": 7220,
      "burn": 7221,
      "respeto": 7222,
      "cooked": 7223,
      "highly": 7224,
      "produce": 7225,
      "Trat": 7226,
      "stronger": 7227,
      "following": 7228,
      "novelas": 7229,
      "fuimos": 7230,
      "However": 7231,
      "riesgo": 7232,
      "religión": 7233,
      "woods": 7234,
      "argument": 7235,
      "ocultar": 7236,
      "tranquilo": 7237,
      "assumed": 7238,
      "enemigos": 7239,
      "mantequilla": 7240,
      "prohibi": 7241,
      "concentra": 7242,
      "Speak": 7243,
      "World": 7244,
      "capitán": 7245,
      "imagine": 7246,
      "beyond": 7247,
      "detalles": 7248,
      "Gan": 7249,
      "Hok": 7250,
      "Im": 7251,
      "awake": 7252,
      "ctar": 7253,
      "hall": 7254,
      "names": 7255,
      "vard": 7256,
      "yard": 7257,
      "ñado": 7258,
      "esquina": 7259,
      "involu": 7260,
      "inútil": 7261,
      "delay": 7262,
      "aled": 7263,
      "repor": 7264,
      "remin": 7265,
      "ingres": 7266,
      "choso": 7267,
      "vidas": 7268,
      "olor": 7269,
      "neo": 7270,
      "weap": 7271,
      "accom": 7272,
      "gia": 7273,
      "gieron": 7274,
      "visi": 7275,
      "disgus": 7276,
      "hacerse": 7277,
      "autos": 7278,
      "autor": 7279,
      "cometer": 7280,
      "salary": 7281,
      "Sea": 7282,
      "nuclear": 7283,
      "interés": 7284,
      "montar": 7285,
      "barde": 7286,
      "pregunté": 7287,
      "banda": 7288,
      "granja": 7289,
      "medianoche": 7290,
      "rights": 7291,
      "stands": 7292,
      "Three": 7293,
      "treated": 7294,
      "razon": 7295,
      "razones": 7296,
      "writes": 7297,
      "understanding": 7298,
      "podrá": 7299,
      "plants": 7300,
      "effort": 7301,
      "capaces": 7302,
      "ciosa": 7303,
      "polvo": 7304,
      "huevo": 7305,
      "hicimos": 7306,
      "conocemos": 7307,
      "receive": 7308,
      "repent": 7309,
      "captain": 7310,
      "Chicago": 7311,
      "pleasant": 7312,
      "vacía": 7313,
      "mirada": 7314,
      "cerebro": 7315,
      "esconder": 7316,
      "competi": 7317,
      "Ningún": 7318,
      "cuadro": 7319,
      "practice": 7320,
      "invitó": 7321,
      "duerme": 7322,
      "titude": 7323,
      "imaginación": 7324,
      "Harvard": 7325,
      "introduce": 7326,
      "communi": 7327,
      "Presid": 7328,
      "vienen": 7329,
      "departamento": 7330,
      "nurse": 7331,
      "allergic": 7332,
      "Shut": 7333,
      "Bi": 7334,
      "Bar": 7335,
      "Dad": 7336,
      "Or": 7337,
      "Pad": 7338,
      "Ste": 7339,
      "Sit": 7340,
      "ax": 7341,
      "aña": 7342,
      "aprove": 7343,
      "ilidad": 7344,
      "jón": 7345,
      "ky": 7346,
      "vu": 7347,
      "ñanas": 7348,
      "tocando": 7349,
      "alér": 7350,
      "rely": 7351,
      "reina": 7352,
      "lam": 7353,
      "unlikely": 7354,
      "lección": 7355,
      "hecha": 7356,
      "tire": 7357,
      "tives": 7358,
      "lip": 7359,
      "lidades": 7360,
      "usando": 7361,
      "convi": 7362,
      "consis": 7363,
      "mañanas": 7364,
      "mierda": 7365,
      "culos": 7366,
      "subió": 7367,
      "parse": 7368,
      "entend": 7369,
      "forts": 7370,
      "pop": 7371,
      "pool": 7372,
      "pobres": 7373,
      "poeta": 7374,
      "ástico": 7375,
      "socks": 7376,
      "mobi": 7377,
      "fume": 7378,
      "weir": 7379,
      "voted": 7380,
      "passion": 7381,
      "appointment": 7382,
      "visa": 7383,
      "jamos": 7384,
      "grate": 7385,
      "speed": 7386,
      "estupen": 7387,
      "mers": 7388,
      "solos": 7389,
      "medida": 7390,
      "mediodía": 7391,
      "bolso": 7392,
      "mirror": 7393,
      "termina": 7394,
      "handsome": 7395,
      "correos": 7396,
      "pronoun": 7397,
      "pronuncia": 7398,
      "equipa": 7399,
      "hablaba": 7400,
      "musici": 7401,
      "complete": 7402,
      "llegaron": 7403,
      "circu": 7404,
      "efforts": 7405,
      "junio": 7406,
      "Perhaps": 7407,
      "mática": 7408,
      "topher": 7409,
      "supper": 7410,
      "Poli": 7411,
      "Trans": 7412,
      "montañas": 7413,
      "océ": 7414,
      "enviar": 7415,
      "perfectly": 7416,
      "escuchó": 7417,
      "obey": 7418,
      "deeply": 7419,
      "attacked": 7420,
      "solici": 7421,
      "Christopher": 7422,
      "cumplir": 7423,
      "conversation": 7424,
      "conversación": 7425,
      "assume": 7426,
      "prohibido": 7427,
      "continued": 7428,
      "Sayib": 7429,
      "committed": 7430,
      "excited": 7431,
      "alterna": 7432,
      "clouds": 7433,
      "gentleman": 7434,
      "Greek": 7435,
      "averiguar": 7436,
      "skirt": 7437,
      "Simplemente": 7438,
      "deportes": 7439,
      "armario": 7440,
      "ambulan": 7441,
      "pantalones": 7442,
      "Da": 7443,
      "Haré": 7444,
      "Jones": 7445,
      "Kore": 7446,
      "Ped": 7447,
      "Scot": 7448,
      "Ver": 7449,
      "Yoko": 7450,
      "iel": 7451,
      "ides": 7452,
      "lentamente": 7453,
      "mouse": 7454,
      "rón": 7455,
      "sink": 7456,
      "screen": 7457,
      "wol": 7458,
      "ñó": 7459,
      "argue": 7460,
      "astu": 7461,
      "lava": 7462,
      "tades": 7463,
      "ciego": 7464,
      "veled": 7465,
      "rique": 7466,
      "ridi": 7467,
      "absor": 7468,
      "llueva": 7469,
      "mix": 7470,
      "mila": 7471,
      "suger": 7472,
      "rap": 7473,
      "raw": 7474,
      "sig": 7475,
      "pot": 7476,
      "pagó": 7477,
      "desear": 7478,
      "boo": 7479,
      "gather": 7480,
      "expl": 7481,
      "yourselves": 7482,
      "habéis": 7483,
      "vende": 7484,
      "horses": 7485,
      "service": 7486,
      "cheek": 7487,
      "menu": 7488,
      "corte": 7489,
      "luces": 7490,
      "chaqueta": 7491,
      "friendly": 7492,
      "private": 7493,
      "helps": 7494,
      "compraste": 7495,
      "camp": 7496,
      "rostro": 7497,
      "posibilidad": 7498,
      "brief": 7499,
      "plom": 7500,
      "hung": 7501,
      "invite": 7502,
      "historias": 7503,
      "débil": 7504,
      "lands": 7505,
      "hubieras": 7506,
      "Lleva": 7507,
      "Llegué": 7508,
      "atraves": 7509,
      "kaido": 7510,
      "explicó": 7511,
      "escaped": 7512,
      "molesta": 7513,
      "actuar": 7514,
      "novels": 7515,
      "económi": 7516,
      "discuss": 7517,
      "profundo": 7518,
      "silence": 7519,
      "regalos": 7520,
      "suicide": 7521,
      "fantasmas": 7522,
      "scene": 7523,
      "suspicious": 7524,
      "hábito": 7525,
      "terremoto": 7526,
      "ratón": 7527,
      "credit": 7528,
      "héroe": 7529,
      "Hurry": 7530,
      "Hokkaido": 7531,
      "weird": 7532,
      "Au": 7533,
      "Acep": 7534,
      "Africa": 7535,
      "Ben": 7536,
      "Eat": 7537,
      "Mt": 7538,
      "Octo": 7539,
      "Ra": 7540,
      "Sue": 7541,
      "Smo": 7542,
      "Volver": 7543,
      "ccion": 7544,
      "imi": 7545,
      "jé": 7546,
      "nel": 7547,
      "ranc": 7548,
      "sword": 7549,
      "tue": 7550,
      "vity": 7551,
      "detener": 7552,
      "uelos": 7553,
      "remedio": 7554,
      "nota": 7555,
      "tillo": 7556,
      "ciales": 7557,
      "usto": 7558,
      "caí": 7559,
      "vigi": 7560,
      "suave": 7561,
      "Esas": 7562,
      "rabe": 7563,
      "force": 7564,
      "perdón": 7565,
      "wide": 7566,
      "loss": 7567,
      "respuestas": 7568,
      "amount": 7569,
      "filos": 7570,
      "herida": 7571,
      "seres": 7572,
      "menú": 7573,
      "tortu": 7574,
      "brar": 7575,
      "salada": 7576,
      "goodbye": 7577,
      "everywhere": 7578,
      "speci": 7579,
      "estuvi": 7580,
      "solas": 7581,
      "Sudden": 7582,
      "pongo": 7583,
      "manager": 7584,
      "starts": 7585,
      "tickets": 7586,
      "fashion": 7587,
      "kinds": 7588,
      "pray": 7589,
      "olvidé": 7590,
      "Perdón": 7591,
      "salida": 7592,
      "hubiese": 7593,
      "punta": 7594,
      "estilo": 7595,
      "gonna": 7596,
      "desert": 7597,
      "deserve": 7598,
      "político": 7599,
      "maestra": 7600,
      "ceremon": 7601,
      "tendrás": 7602,
      "sospechoso": 7603,
      "enemies": 7604,
      "unciar": 7605,
      "Aquel": 7606,
      "genial": 7607,
      "suggested": 7608,
      "pistola": 7609,
      "Actu": 7610,
      "Gener": 7611,
      "Ir": 7612,
      "Mac": 7613,
      "Mayu": 7614,
      "Send": 7615,
      "Whatever": 7616,
      "acaso": 7617,
      "gados": 7618,
      "honey": 7619,
      "itos": 7620,
      "mone": 7621,
      "noun": 7622,
      "pants": 7623,
      "scient": 7624,
      "sánd": 7625,
      "árabe": 7626,
      "época": 7627,
      "escena": 7628,
      "envió": 7629,
      "ansi": 7630,
      "anxi": 7631,
      "asistir": 7632,
      "asuntos": 7633,
      "letra": 7634,
      "tage": 7635,
      "daba": 7636,
      "verla": 7637,
      "lló": 7638,
      "suje": 7639,
      "rami": 7640,
      "muestra": 7641,
      "adentro": 7642,
      "peda": 7643,
      "peare": 7644,
      "pecho": 7645,
      "guen": 7646,
      "tenías": 7647,
      "estable": 7648,
      "ficial": 7649,
      "excuse": 7650,
      "prepara": 7651,
      "trato": 7652,
      "traveled": 7653,
      "blew": 7654,
      "Meg": 7655,
      "action": 7656,
      "accusto": 7657,
      "venida": 7658,
      "passengers": 7659,
      "mari": 7660,
      "marcha": 7661,
      "garon": 7662,
      "menes": 7663,
      "llaman": 7664,
      "Tenéis": 7665,
      "presión": 7666,
      "mono": 7667,
      "whenever": 7668,
      "estarás": 7669,
      "kespeare": 7670,
      "ponga": 7671,
      "importaría": 7672,
      "dremos": 7673,
      "classes": 7674,
      "senci": 7675,
      "eleph": 7676,
      "xico": 7677,
      "íste": 7678,
      "brave": 7679,
      "ayudarnos": 7680,
      "habido": 7681,
      "sleepy": 7682,
      "arries": 7683,
      "current": 7684,
      "nombres": 7685,
      "invitado": 7686,
      "universal": 7687,
      "leyó": 7688,
      "abandonar": 7689,
      "imagen": 7690,
      "burst": 7691,
      "propios": 7692,
      "recibido": 7693,
      "agradecer": 7694,
      "preguntaba": 7695,
      "lloró": 7696,
      "199": 7697,
      "espejo": 7698,
      "attended": 7699,
      "reasons": 7700,
      "fallen": 7701,
      "preparando": 7702,
      "violin": 7703,
      "señora": 7704,
      "clearly": 7705,
      "conveni": 7706,
      "anciana": 7707,
      "Estudi": 7708,
      "bomba": 7709,
      "espada": 7710,
      "neighborhood": 7711,
      "economy": 7712,
      "ríe": 7713,
      "esfuerzos": 7714,
      "crossed": 7715,
      "regard": 7716,
      "cubierta": 7717,
      "destroyed": 7718,
      "attractive": 7719,
      "pusieron": 7720,
      "drugs": 7721,
      "Cualquier": 7722,
      "refrigera": 7723,
      "suspect": 7724,
      "Arabic": 7725,
      "asesinato": 7726,
      "bromeando": 7727,
      "Shakespeare": 7728,
      "advance": 7729,
      "Thomas": 7730,
      "British": 7731,
      "Suddenly": 7732,
      "Din": 7733,
      "Mex": 7734,
      "Money": 7735,
      "None": 7736,
      "Vol": 7737,
      "atras": 7738,
      "agri": 7739,
      "blished": 7740,
      "fy": 7741,
      "ocean": 7742,
      "zer": 7743,
      "úa": 7744,
      "escen": 7745,
      "institu": 7746,
      "thin": 7747,
      "tool": 7748,
      "tough": 7749,
      "tillas": 7750,
      "cieron": 7751,
      "chiste": 7752,
      "lities": 7753,
      "rojas": 7754,
      "abra": 7755,
      "viva": 7756,
      "sitive": 7757,
      "pegó": 7758,
      "pelea": 7759,
      "washed": 7760,
      "paired": 7761,
      "bite": 7762,
      "desa": 7763,
      "ambas": 7764,
      "prepare": 7765,
      "cartera": 7766,
      "fuma": 7767,
      "impuestos": 7768,
      "misión": 7769,
      "mistaken": 7770,
      "lesson": 7771,
      "trozo": 7772,
      "core": 7773,
      "corn": 7774,
      "brí": 7775,
      "hombro": 7776,
      "estaré": 7777,
      "tells": 7778,
      "poniendo": 7779,
      "seguros": 7780,
      "ocupados": 7781,
      "drew": 7782,
      "ions": 7783,
      "Dijo": 7784,
      "sort": 7785,
      "sorprend": 7786,
      "harías": 7787,
      "turns": 7788,
      "badly": 7789,
      "norte": 7790,
      "Vive": 7791,
      "acabo": 7792,
      "promo": 7793,
      "pasajeros": 7794,
      "compañeros": 7795,
      "supone": 7796,
      "levanté": 7797,
      "levantarse": 7798,
      "computers": 7799,
      "bandera": 7800,
      "fotografía": 7801,
      "lindo": 7802,
      "aparien": 7803,
      "apartamento": 7804,
      "successful": 7805,
      "religion": 7806,
      "encontramos": 7807,
      "agreement": 7808,
      "Guerra": 7809,
      "aprobar": 7810,
      "hesita": 7811,
      "sueldo": 7812,
      "geles": 7813,
      "podés": 7814,
      "maravilloso": 7815,
      "estadounidenses": 7816,
      "muebles": 7817,
      "ofreció": 7818,
      "descubrir": 7819,
      "brillante": 7820,
      "comentarios": 7821,
      "cigarette": 7822,
      "Mayuko": 7823,
      "Mexico": 7824,
      "\"?": 7825,
      "60": 7826,
      "Catal": 7827,
      "Desa": 7828,
      "Lim": 7829,
      "Trá": 7830,
      "Val": 7831,
      "Yumi": 7832,
      "adiós": 7833,
      "cter": 7834,
      "cran": 7835,
      "gano": 7836,
      "igo": 7837,
      "slight": 7838,
      "táni": 7839,
      "vest": 7840,
      "údame": 7841,
      "anta": 7842,
      "tot": 7843,
      "tomas": 7844,
      "delo": 7845,
      "dejas": 7846,
      "lemon": 7847,
      "cidos": 7848,
      "dile": 7849,
      "digan": 7850,
      "data": 7851,
      "lift": 7852,
      "cafe": 7853,
      "roll": 7854,
      "bebiendo": 7855,
      "mic": 7856,
      "mite": 7857,
      "migr": 7858,
      "cemos": 7859,
      "entusias": 7860,
      "wiches": 7861,
      "cop": 7862,
      "podido": 7863,
      "pelear": 7864,
      "pedido": 7865,
      "resign": 7866,
      "amena": 7867,
      "pup": 7868,
      "pulled": 7869,
      "precis": 7870,
      "castle": 7871,
      "naive": 7872,
      "breve": 7873,
      "pensab": 7874,
      "improve": 7875,
      "serás": 7876,
      "Doctor": 7877,
      "disco": 7878,
      "distur": 7879,
      "daron": 7880,
      "cometido": 7881,
      "calur": 7882,
      "sheep": 7883,
      "saltó": 7884,
      "press": 7885,
      "numer": 7886,
      "male": 7887,
      "fox": 7888,
      "jui": 7889,
      "míos": 7890,
      "industri": 7891,
      "pelu": 7892,
      "regla": 7893,
      "colon": 7894,
      "colores": 7895,
      "polite": 7896,
      "elección": 7897,
      "sings": 7898,
      "pesca": 7899,
      "understands": 7900,
      "británi": 7901,
      "ctubre": 7902,
      "tines": 7903,
      "kindness": 7904,
      "hambri": 7905,
      "perfectamente": 7906,
      "nadando": 7907,
      "laws": 7908,
      "drove": 7909,
      "third": 7910,
      "hermosas": 7911,
      "Sundays": 7912,
      "molest": 7913,
      "convencido": 7914,
      "flag": 7915,
      "battle": 7916,
      "orgullosa": 7917,
      "vegetari": 7918,
      "cristi": 7919,
      "website": 7920,
      "insectos": 7921,
      "escuchado": 7922,
      "permission": 7923,
      "style": 7924,
      "imagination": 7925,
      "castillo": 7926,
      "saludable": 7927,
      "confused": 7928,
      "crédito": 7929,
      "October": 7930,
      "40": 7931,
      "Mor": 7932,
      "Plan": 7933,
      "Then": 7934,
      "US": 7935,
      "cough": 7936,
      "dá": 7937,
      "dust": 7938,
      "fought": 7939,
      "fraz": 7940,
      "ira": 7941,
      "ille": 7942,
      "lento": 7943,
      "phe": 7944,
      "pong": 7945,
      "rise": 7946,
      "sque": 7947,
      "scream": 7948,
      "tina": 7949,
      "zor": 7950,
      "áculo": 7951,
      "encias": 7952,
      "army": 7953,
      "insu": 7954,
      "towel": 7955,
      "recur": 7956,
      "repaired": 7957,
      "elos": 7958,
      "tivamente": 7959,
      "datos": 7960,
      "lia": 7961,
      "lic": 7962,
      "useless": 7963,
      "constitu": 7964,
      "behave": 7965,
      "comun": 7966,
      "subir": 7967,
      "radi": 7968,
      "mum": 7969,
      "admir": 7970,
      "pear": 7971,
      "rescue": 7972,
      "hopes": 7973,
      "pite": 7974,
      "desapareció": 7975,
      "facts": 7976,
      "pros": 7977,
      "exhi": 7978,
      "derra": 7979,
      "breathe": 7980,
      "largas": 7981,
      "vain": 7982,
      "places": 7983,
      "llam": 7984,
      "Quieren": 7985,
      "jail": 7986,
      "salad": 7987,
      "cencia": 7988,
      "mess": 7989,
      "interrum": 7990,
      "monte": 7991,
      "Lev": 7992,
      "esperan": 7993,
      "obst": 7994,
      "Neither": 7995,
      "sensa": 7996,
      "politics": 7997,
      "political": 7998,
      "listos": 7999,
      "Consi": 8000,
      "shock": 8001,
      "hearing": 8002,
      "elected": 8003,
      "election": 8004,
      "pesado": 8005,
      "biggest": 8006,
      "consigo": 8007,
      "azu": 8008,
      "pintar": 8009,
      "gritó": 8010,
      "músico": 8011,
      "bitter": 8012,
      "sombra": 8013,
      "intend": 8014,
      "abilidad": 8015,
      "aquello": 8016,
      "levantar": 8017,
      "iremos": 8018,
      "subway": 8019,
      "acostar": 8020,
      "record": 8021,
      "invented": 8022,
      "appearance": 8023,
      "evidence": 8024,
      "pudimos": 8025,
      "vacío": 8026,
      "mentiroso": 8027,
      "literatura": 8028,
      "succeeded": 8029,
      "billete": 8030,
      "velocidad": 8031,
      "Buenos": 8032,
      "candy": 8033,
      "miembro": 8034,
      "experiment": 8035,
      "inventó": 8036,
      "Music": 8037,
      "Olvi": 8038,
      "investigación": 8039,
      "francesa": 8040,
      "desierto": 8041,
      "simply": 8042,
      "infancia": 8043,
      "Pregúntale": 8044,
      "Emily": 8045,
      "vitamin": 8046,
      "aproximadamente": 8047,
      "optimis": 8048,
      "calcetines": 8049,
      "musician": 8050,
      "accustomed": 8051,
      "Cali": 8052,
      "Eli": 8053,
      "Hap": 8054,
      "Je": 8055,
      "Sent": 8056,
      "Tana": 8057,
      "bere": 8058,
      "bits": 8059,
      "dal": 8060,
      "dero": 8061,
      "eur": 8062,
      "gree": 8063,
      "ove": 8064,
      "push": 8065,
      "zados": 8066,
      "África": 8067,
      "envir": 8068,
      "enseguida": 8069,
      "arle": 8070,
      "tol": 8071,
      "aspir": 8072,
      "ombra": 8073,
      "issue": 8074,
      "alien": 8075,
      "alarma": 8076,
      "reve": 8077,
      "lament": 8078,
      "noble": 8079,
      "tial": 8080,
      "tied": 8081,
      "metió": 8082,
      "trusted": 8083,
      "chose": 8084,
      "consegu": 8085,
      "ofía": 8086,
      "cedió": 8087,
      "coma": 8088,
      "victoria": 8089,
      "sugi": 8090,
      "formu": 8091,
      "fornia": 8092,
      "muere": 8093,
      "cantado": 8094,
      "guay": 8095,
      "paquete": 8096,
      "amas": 8097,
      "proces": 8098,
      "niñas": 8099,
      "weigh": 8100,
      "tantos": 8101,
      "apres": 8102,
      "disgu": 8103,
      "disparó": 8104,
      "costar": 8105,
      "calma": 8106,
      "calcula": 8107,
      "denied": 8108,
      "zoológico": 8109,
      "prices": 8110,
      "moned": 8111,
      "Pueden": 8112,
      "jugo": 8113,
      "esperó": 8114,
      "gasol": 8115,
      "Islam": 8116,
      "based": 8117,
      "tiró": 8118,
      "Dij": 8119,
      "mundial": 8120,
      "unifor": 8121,
      "shoe": 8122,
      "Estábamos": 8123,
      "ventud": 8124,
      "cambia": 8125,
      "Hablar": 8126,
      "warned": 8127,
      "quedaré": 8128,
      "quedaron": 8129,
      "empezando": 8130,
      "itely": 8131,
      "tallest": 8132,
      "suppose": 8133,
      "climate": 8134,
      "cuarenta": 8135,
      "atrapado": 8136,
      "sweat": 8137,
      "cleaning": 8138,
      "invitar": 8139,
      "reliable": 8140,
      "patio": 8141,
      "batter": 8142,
      "admitir": 8143,
      "Pasé": 8144,
      "photos": 8145,
      "opera": 8146,
      "arregl": 8147,
      "tendré": 8148,
      "imaginar": 8149,
      "complicated": 8150,
      "recomend": 8151,
      "tecno": 8152,
      "disfrutar": 8153,
      "dificultades": 8154,
      "cuidadoso": 8155,
      "details": 8156,
      "Durante": 8157,
      "emergency": 8158,
      "stealing": 8159,
      "cultural": 8160,
      "misterio": 8161,
      "President": 8162,
      "equipaje": 8163,
      "Smoking": 8164,
      "refrigerator": 8165,
      "California": 8166,
      "environ": 8167,
      "Ahí": 8168,
      "Mer": 8169,
      "Min": 8170,
      "Stu": 8171,
      "School": 8172,
      "Tim": 8173,
      "bá": 8174,
      "bound": 8175,
      "ctic": 8176,
      "dare": 8177,
      "ea": 8178,
      "gentes": 8179,
      "odian": 8180,
      "vase": 8181,
      "vul": 8182,
      "éter": 8183,
      "ética": 8184,
      "ómetros": 8185,
      "anterior": 8186,
      "tocó": 8187,
      "devil": 8188,
      "alcal": 8189,
      "aliento": 8190,
      "hated": 8191,
      "quar": 8192,
      "cuyo": 8193,
      "compla": 8194,
      "compartir": 8195,
      "suya": 8196,
      "sugg": 8197,
      "parme": 8198,
      "perfor": 8199,
      "irnos": 8200,
      "cock": 8201,
      "moslo": 8202,
      "resu": 8203,
      "respir": 8204,
      "hoping": 8205,
      "motivo": 8206,
      "desmay": 8207,
      "embre": 8208,
      "ficos": 8209,
      "trame": 8210,
      "tratado": 8211,
      "cases": 8212,
      "mortal": 8213,
      "according": 8214,
      "larger": 8215,
      "marks": 8216,
      "placed": 8217,
      "Enten": 8218,
      "Portugu": 8219,
      "fines": 8220,
      "grados": 8221,
      "shoulder": 8222,
      "ctly": 8223,
      "testi": 8224,
      "juventud": 8225,
      "pond": 8226,
      "necesitar": 8227,
      "comprom": 8228,
      "importantes": 8229,
      "genes": 8230,
      "duró": 8231,
      "roses": 8232,
      "alegre": 8233,
      "calles": 8234,
      "Estáis": 8235,
      "prision": 8236,
      "enfermera": 8237,
      "aries": 8238,
      "quedamos": 8239,
      "pasará": 8240,
      "confli": 8241,
      "average": 8242,
      "reply": 8243,
      "admira": 8244,
      "desea": 8245,
      "acostumbr": 8246,
      "Rusia": 8247,
      "threaten": 8248,
      "curios": 8249,
      "durmió": 8250,
      "Trabajo": 8251,
      "borrowed": 8252,
      "Russia": 8253,
      "thick": 8254,
      "electric": 8255,
      "pluma": 8256,
      "international": 8257,
      "naranjas": 8258,
      "americano": 8259,
      "dificultad": 8260,
      "recognized": 8261,
      "escondiendo": 8262,
      "aspecto": 8263,
      "bebida": 8264,
      "avergonzado": 8265,
      "electrónico": 8266,
      "mystery": 8267,
      "Argentina": 8268,
      "consists": 8269,
      "mobile": 8270,
      "grateful": 8271,
      "océano": 8272,
      "'.": 8273,
      "Amo": 8274,
      "Apri": 8275,
      "Bre": 8276,
      "Bible": 8277,
      "Egy": 8278,
      "Fi": 8279,
      "King": 8280,
      "Mun": 8281,
      "Sing": 8282,
      "Via": 8283,
      "aman": 8284,
      "bera": 8285,
      "eva": 8286,
      "hú": 8287,
      "octubre": 8288,
      "tinto": 8289,
      "vano": 8290,
      "inver": 8291,
      "toso": 8292,
      "detuvo": 8293,
      "requi": 8294,
      "reuni": 8295,
      "reciente": 8296,
      "lectura": 8297,
      "novi": 8298,
      "separ": 8299,
      "sepas": 8300,
      "usado": 8301,
      "becoming": 8302,
      "absur": 8303,
      "comi": 8304,
      "suceder": 8305,
      "suéter": 8306,
      "enty": 8307,
      "perfume": 8308,
      "tuvi": 8309,
      "podamos": 8310,
      "pagan": 8311,
      "quiz": 8312,
      "fav": 8313,
      "pura": 8314,
      "sake": 8315,
      "prev": 8316,
      "trago": 8317,
      "cari": 8318,
      "cará": 8319,
      "nap": 8320,
      "sonar": 8321,
      "minor": 8322,
      "anyway": 8323,
      "gip": 8324,
      "garé": 8325,
      "someday": 8326,
      "dish": 8327,
      "Quédate": 8328,
      "frigh": 8329,
      "thanks": 8330,
      "task": 8331,
      "sabor": 8332,
      "pareces": 8333,
      "rub": 8334,
      "ruidos": 8335,
      "ideal": 8336,
      "obses": 8337,
      "gained": 8338,
      "gencia": 8339,
      "sence": 8340,
      "changing": 8341,
      "cintur": 8342,
      "ayudarle": 8343,
      "diría": 8344,
      "profession": 8345,
      "plenty": 8346,
      "ículos": 8347,
      "Univer": 8348,
      "lugares": 8349,
      "empeor": 8350,
      "Vimos": 8351,
      "pequeñas": 8352,
      "miling": 8353,
      "conduce": 8354,
      "Mués": 8355,
      "arilla": 8356,
      "leyes": 8357,
      "frutas": 8358,
      "tantas": 8359,
      "pasatiempo": 8360,
      "compañero": 8361,
      "197": 8362,
      "antigua": 8363,
      "espect": 8364,
      "solamente": 8365,
      "Nuestros": 8366,
      "preferido": 8367,
      "colors": 8368,
      "equivocada": 8369,
      "ponerse": 8370,
      "robbed": 8371,
      "satisfa": 8372,
      "baile": 8373,
      "batalla": 8374,
      "increase": 8375,
      "conocida": 8376,
      "growing": 8377,
      "tímido": 8378,
      "deserves": 8379,
      "guardar": 8380,
      "awful": 8381,
      "preguntarle": 8382,
      "Shall": 8383,
      "regaló": 8384,
      "descansar": 8385,
      "justice": 8386,
      "further": 8387,
      "efectivo": 8388,
      "progress": 8389,
      "eventually": 8390,
      "kilómetros": 8391,
      "alegría": 8392,
      "civiliza": 8393,
      "annoying": 8394,
      "shelf": 8395,
      "latín": 8396,
      "México": 8397,
      "moneda": 8398,
      "totally": 8399,
      "Tanaka": 8400,
      "Portuguese": 8401,
      "Llo": 8402,
      "Nací": 8403,
      "Ok": 8404,
      "Spring": 8405,
      "Vale": 8406,
      "amed": 8407,
      "bour": 8408,
      "echo": 8409,
      "eved": 8410,
      "evolu": 8411,
      "smiling": 8412,
      "tese": 8413,
      "uñas": 8414,
      "ws": 8415,
      "wins": 8416,
      "yiel": 8417,
      "zes": 8418,
      "área": 8419,
      "ñor": 8420,
      "intri": 8421,
      "thro": 8422,
      "decl": 8423,
      "depressed": 8424,
      "osts": 8425,
      "dol": 8426,
      "representa": 8427,
      "level": 8428,
      "nology": 8429,
      "secun": 8430,
      "ciento": 8431,
      "lips": 8432,
      "ustra": 8433,
      "cau": 8434,
      "robo": 8435,
      "itan": 8436,
      "miel": 8437,
      "command": 8438,
      "ghter": 8439,
      "ghosts": 8440,
      "resuel": 8441,
      "hoja": 8442,
      "sois": 8443,
      "tencia": 8444,
      "tentación": 8445,
      "model": 8446,
      "boleto": 8447,
      "bul": 8448,
      "propor": 8449,
      "propie": 8450,
      "notas": 8451,
      "trap": 8452,
      "habías": 8453,
      "fueras": 8454,
      "tiende": 8455,
      "marca": 8456,
      "miser": 8457,
      "upset": 8458,
      "disfraz": 8459,
      "grama": 8460,
      "gracioso": 8461,
      "Sién": 8462,
      "presu": 8463,
      "internet": 8464,
      "humo": 8465,
      "gerente": 8466,
      "pondr": 8467,
      "míni": 8468,
      "firme": 8469,
      "haberle": 8470,
      "haberse": 8471,
      "classi": 8472,
      "demasiada": 8473,
      "contrato": 8474,
      "plá": 8475,
      "invitación": 8476,
      "Before": 8477,
      "ariamente": 8478,
      "extrañ": 8479,
      "Parecía": 8480,
      "intention": 8481,
      "walks": 8482,
      "tumn": 8483,
      "nearest": 8484,
      "condición": 8485,
      "appears": 8486,
      "despertó": 8487,
      "aceptó": 8488,
      "ignorancia": 8489,
      "Déj": 8490,
      "incredi": 8491,
      "express": 8492,
      "sofa": 8493,
      "conocerte": 8494,
      "logical": 8495,
      "regresó": 8496,
      "regresar": 8497,
      "cerrado": 8498,
      "Lucy": 8499,
      "Alex": 8500,
      "complained": 8501,
      "mentiras": 8502,
      "Hazlo": 8503,
      "defend": 8504,
      "repeat": 8505,
      "repetir": 8506,
      "document": 8507,
      "Hizo": 8508,
      "independent": 8509,
      "responsabilidad": 8510,
      "recommend": 8511,
      "participar": 8512,
      "ingeni": 8513,
      "internacional": 8514,
      "importance": 8515,
      "maravillosa": 8516,
      "disculpas": 8517,
      "vinieron": 8518,
      "científico": 8519,
      "consciousness": 8520,
      "benefi": 8521,
      "conferencia": 8522,
      "Hungar": 8523,
      "serpiente": 8524,
      "agradecido": 8525,
      "estúpida": 8526,
      "disponible": 8527,
      "Llámame": 8528,
      "escenario": 8529,
      "suggest": 8530,
      "?!": 8531,
      "Ador": 8532,
      "Dor": 8533,
      "Dale": 8534,
      "II": 8535,
      "Kobe": 8536,
      "Tres": 8537,
      "Tras": 8538,
      "Viste": 8539,
      "aim": 8540,
      "apropi": 8541,
      "euro": 8542,
      "hin": 8543,
      "jab": 8544,
      "kit": 8545,
      "ogle": 8546,
      "sano": 8547,
      "tun": 8548,
      "ware": 8549,
      "ys": 8550,
      "zon": 8551,
      "ético": 8552,
      "ensalada": 8553,
      "inti": 8554,
      "toques": 8555,
      "toward": 8556,
      "asis": 8557,
      "isy": 8558,
      "oshi": 8559,
      "altura": 8560,
      "unda": 8561,
      "unable": 8562,
      "tier": 8563,
      "tipos": 8564,
      "youth": 8565,
      "settle": 8566,
      "load": 8567,
      "locura": 8568,
      "usan": 8569,
      "god": 8570,
      "contain": 8571,
      "magn": 8572,
      "mida": 8573,
      "suma": 8574,
      "percent": 8575,
      "nega": 8576,
      "ghost": 8577,
      "papas": 8578,
      "despreci": 8579,
      "joking": 8580,
      "herrami": 8581,
      "prefiero": 8582,
      "tano": 8583,
      "landia": 8584,
      "trope": 8585,
      "Porque": 8586,
      "chief": 8587,
      "dudas": 8588,
      "muchísimo": 8589,
      "talla": 8590,
      "aument": 8591,
      "brand": 8592,
      "cometió": 8593,
      "jate": 8594,
      "shed": 8595,
      "guapo": 8596,
      "presence": 8597,
      "nuts": 8598,
      "amigas": 8599,
      "affair": 8600,
      "culous": 8601,
      "lower": 8602,
      "turno": 8603,
      "obtener": 8604,
      "rooms": 8605,
      "campa": 8606,
      "dentista": 8607,
      "querían": 8608,
      "wherever": 8609,
      "Think": 8610,
      "Things": 8611,
      "Whoever": 8612,
      "Conf": 8613,
      "Contin": 8614,
      "Remember": 8615,
      "brilla": 8616,
      "festi": 8617,
      "dicó": 8618,
      "difíciles": 8619,
      "responsibility": 8620,
      "falda": 8621,
      "constante": 8622,
      "dejaré": 8623,
      "accidentes": 8624,
      "smaller": 8625,
      "airplane": 8626,
      "ército": 8627,
      "ocurre": 8628,
      "llamaré": 8629,
      "contains": 8630,
      "amazing": 8631,
      "puntu": 8632,
      "aterri": 8633,
      "fuertes": 8634,
      "fortunado": 8635,
      "fingió": 8636,
      "elecciones": 8637,
      "empleado": 8638,
      "smarter": 8639,
      "economic": 8640,
      "Normal": 8641,
      "ridículo": 8642,
      "descrip": 8643,
      "literature": 8644,
      "Berlin": 8645,
      "insects": 8646,
      "tware": 8647,
      "snake": 8648,
      "ocurrir": 8649,
      "kilome": 8650,
      "Washing": 8651,
      "schedu": 8652,
      "Bibli": 8653,
      "alcalde": 8654,
      "April": 8655,
      "prevented": 8656,
      "secundar": 8657,
      ",\"": 8658,
      "54": 8659,
      "Aprend": 8660,
      "Dudo": 8661,
      "Mal": 8662,
      "Ru": 8663,
      "Sam": 8664,
      "Sali": 8665,
      "Ves": 8666,
      "eigh": 8667,
      "fera": 8668,
      "iPad": 8669,
      "jan": 8670,
      "mali": 8671,
      "oven": 8672,
      "plas": 8673,
      "rando": 8674,
      "swear": 8675,
      "vine": 8676,
      "zona": 8677,
      "arnos": 8678,
      "thri": 8679,
      "rema": 8680,
      "lavo": 8681,
      "heavi": 8682,
      "tama": 8683,
      "noisy": 8684,
      "meters": 8685,
      "según": 8686,
      "diam": 8687,
      "dimen": 8688,
      "attemp": 8689,
      "cher": 8690,
      "chando": 8691,
      "lida": 8692,
      "cae": 8693,
      "ofi": 8694,
      "quality": 8695,
      "forty": 8696,
      "siesta": 8697,
      "tercer": 8698,
      "portugu": 8699,
      "collar": 8700,
      "pepper": 8701,
      "sobr": 8702,
      "tenéis": 8703,
      "pical": 8704,
      "desp": 8705,
      "desas": 8706,
      "bull": 8707,
      "bucket": 8708,
      "ficar": 8709,
      "cercana": 8710,
      "hers": 8711,
      "trapped": 8712,
      "casados": 8713,
      "cesa": 8714,
      "fecha": 8715,
      "bleed": 8716,
      "acciones": 8717,
      "actress": 8718,
      "actriz": 8719,
      "vengas": 8720,
      "tances": 8721,
      "impidió": 8722,
      "urgent": 8723,
      "apla": 8724,
      "llegamos": 8725,
      "nosotras": 8726,
      "lumin": 8727,
      "jected": 8728,
      "gustado": 8729,
      "happi": 8730,
      "sabio": 8731,
      "priva": 8732,
      "aches": 8733,
      "Such": 8734,
      "dentist": 8735,
      "queréis": 8736,
      "wai": 8737,
      "cillo": 8738,
      "Creía": 8739,
      "Dije": 8740,
      "estudiado": 8741,
      "Haw": 8742,
      "Sois": 8743,
      "Sobre": 8744,
      "habilidad": 8745,
      "drives": 8746,
      "ciudadano": 8747,
      "dicta": 8748,
      "shows": 8749,
      "hablamos": 8750,
      "falle": 8751,
      "método": 8752,
      "invitation": 8753,
      "abril": 8754,
      "producto": 8755,
      "While": 8756,
      "superior": 8757,
      "Frank": 8758,
      "falling": 8759,
      "humanidad": 8760,
      "delicioso": 8761,
      "drawing": 8762,
      "kidding": 8763,
      "actual": 8764,
      "dueño": 8765,
      "flew": 8766,
      "traveling": 8767,
      "Piensas": 8768,
      "discussion": 8769,
      "shame": 8770,
      "arrepi": 8771,
      "ruined": 8772,
      "witness": 8773,
      "Robert": 8774,
      "definitely": 8775,
      "Sabemos": 8776,
      "concentr": 8777,
      "register": 8778,
      "vienes": 8779,
      "skiing": 8780,
      "causó": 8781,
      "aprendiste": 8782,
      "juguete": 8783,
      "Few": 8784,
      "serpientes": 8785,
      "secretary": 8786,
      "cansados": 8787,
      "achieve": 8788,
      "agarró": 8789,
      "esquiar": 8790,
      "recuerdos": 8791,
      "involucra": 8792,
      "sencilla": 8793,
      "illegal": 8794,
      "tecnología": 8795,
      "Biblia": 8796,
      "300": 8797,
      "Bel": 8798,
      "Black": 8799,
      "Clar": 8800,
      "Close": 8801,
      "Cats": 8802,
      "Luna": 8803,
      "Phi": 8804,
      "Star": 8805,
      "Swed": 8806,
      "Won": 8807,
      "ku": 8808,
      "lín": 8809,
      "och": 8810,
      "rase": 8811,
      "tareas": 8812,
      "espero": 8813,
      "infe": 8814,
      "toler": 8815,
      "deed": 8816,
      "dejo": 8817,
      "devolver": 8818,
      "ref": 8819,
      "requiere": 8820,
      "remind": 8821,
      "laid": 8822,
      "unhappy": 8823,
      "leí": 8824,
      "tia": 8825,
      "locos": 8826,
      "cakes": 8827,
      "contiene": 8828,
      "confir": 8829,
      "rota": 8830,
      "begun": 8831,
      "vernos": 8832,
      "itud": 8833,
      "absence": 8834,
      "mires": 8835,
      "partió": 8836,
      "pers": 8837,
      "adminis": 8838,
      "coward": 8839,
      "cobarde": 8840,
      "poes": 8841,
      "hatred": 8842,
      "lash": 8843,
      "lasted": 8844,
      "socia": 8845,
      "pica": 8846,
      "empa": 8847,
      "bud": 8848,
      "proof": 8849,
      "pure": 8850,
      "puta": 8851,
      "ext": 8852,
      "sonreír": 8853,
      "fuck": 8854,
      "adoles": 8855,
      "acción": 8856,
      "acento": 8857,
      "active": 8858,
      "improbable": 8859,
      "urgente": 8860,
      "ets": 8861,
      "ientos": 8862,
      "llevan": 8863,
      "Entre": 8864,
      "llame": 8865,
      "owner": 8866,
      "elling": 8867,
      "critici": 8868,
      "buses": 8869,
      "interro": 8870,
      "interior": 8871,
      "rump": 8872,
      "volando": 8873,
      "decirlo": 8874,
      "Dice": 8875,
      "istente": 8876,
      "sencillo": 8877,
      "lately": 8878,
      "thoughts": 8879,
      "posite": 8880,
      "brio": 8881,
      "cambios": 8882,
      "kicked": 8883,
      "clá": 8884,
      "escucho": 8885,
      "complex": 8886,
      "circun": 8887,
      "cantó": 8888,
      "Vivimos": 8889,
      "paying": 8890,
      "expert": 8891,
      "podríamos": 8892,
      "propias": 8893,
      "couch": 8894,
      "productos": 8895,
      "extranjera": 8896,
      "llamarme": 8897,
      "snowing": 8898,
      "rarely": 8899,
      "lines": 8900,
      "confío": 8901,
      "calidad": 8902,
      "ciende": 8903,
      "aguanto": 8904,
      "vícti": 8905,
      "concerned": 8906,
      "Tradu": 8907,
      "heaven": 8908,
      "ejército": 8909,
      "temptation": 8910,
      "Berlín": 8911,
      "actitud": 8912,
      "independiente": 8913,
      "acercó": 8914,
      "considerado": 8915,
      "pantalla": 8916,
      "efecto": 8917,
      "hierro": 8918,
      "asustado": 8919,
      "Primero": 8920,
      "recognize": 8921,
      "Mantén": 8922,
      "emergencia": 8923,
      "laptop": 8924,
      "knocked": 8925,
      "source": 8926,
      "drowned": 8927,
      "journal": 8928,
      "exhausted": 8929,
      "Vuelve": 8930,
      "patatas": 8931,
      "medicamento": 8932,
      "cuestion": 8933,
      "Cuidado": 8934,
      "controver": 8935,
      "Pensaba": 8936,
      "Traté": 8937,
      "filosofía": 8938,
      "pensable": 8939,
      "Normalmente": 8940,
      "kilometers": 8941,
      "Washington": 8942,
      "remains": 8943,
      "Bas": 8944,
      "Cas": 8945,
      "Cree": 8946,
      "ID": 8947,
      "Next": 8948,
      "Tanto": 8949,
      "Vosotros": 8950,
      "Wil": 8951,
      "amane": 8952,
      "bú": 8953,
      "blado": 8954,
      "cén": 8955,
      "fts": 8956,
      "gí": 8957,
      "gim": 8958,
      "glan": 8959,
      "iko": 8960,
      "pink": 8961,
      "tiste": 8962,
      "vá": 8963,
      "wh": 8964,
      "zcas": 8965,
      "ísti": 8966,
      "útiles": 8967,
      "enas": 8968,
      "announ": 8969,
      "toalla": 8970,
      "ister": 8971,
      "depart": 8972,
      "ouder": 8973,
      "almo": 8974,
      "rele": 8975,
      "revel": 8976,
      "tear": 8977,
      "lace": 8978,
      "lamp": 8979,
      "leta": 8980,
      "seca": 8981,
      "semej": 8982,
      "cima": 8983,
      "veter": 8984,
      "liver": 8985,
      "camar": 8986,
      "role": 8987,
      "bebió": 8988,
      "rito": 8989,
      "abraz": 8990,
      "íamos": 8991,
      "combus": 8992,
      "victory": 8993,
      "parently": 8994,
      "perman": 8995,
      "silly": 8996,
      "coin": 8997,
      "canto": 8998,
      "pago": 8999,
      "mantuvo": 9000,
      "nowhere": 9001,
      "trae": 9002,
      "caracter": 9003,
      "nails": 9004,
      "feo": 9005,
      "tary": 9006,
      "bled": 9007,
      "acted": 9008,
      "accent": 9009,
      "acters": 9010,
      "tanos": 9011,
      "tance": 9012,
      "mintió": 9013,
      "hormi": 9014,
      "apel": 9015,
      "creyó": 9016,
      "Cuén": 9017,
      "llate": 9018,
      "saliendo": 9019,
      "pressure": 9020,
      "presents": 9021,
      "amiento": 9022,
      "planta": 9023,
      "granted": 9024,
      "función": 9025,
      "Condu": 9026,
      "shoot": 9027,
      "Having": 9028,
      "characters": 9029,
      "putting": 9030,
      "handle": 9031,
      "survive": 9032,
      "ctual": 9033,
      "winning": 9034,
      "contract": 9035,
      "Being": 9036,
      "Murió": 9037,
      "domin": 9038,
      "extraordin": 9039,
      "Google": 9040,
      "intento": 9041,
      "engor": 9042,
      "Pregun": 9043,
      "lám": 9044,
      "contamin": 9045,
      "various": 9046,
      "Venga": 9047,
      "violín": 9048,
      "apoyo": 9049,
      "limpia": 9050,
      "líder": 9051,
      "descubi": 9052,
      "muertos": 9053,
      "construir": 9054,
      "refuse": 9055,
      "software": 9056,
      "Pasamos": 9057,
      "políticos": 9058,
      "escalera": 9059,
      "signed": 9060,
      "pensamientos": 9061,
      "prisoner": 9062,
      "bench": 9063,
      "rápida": 9064,
      "grafías": 9065,
      "apagó": 9066,
      "graduated": 9067,
      "Berber": 9068,
      "Prome": 9069,
      "sandwich": 9070,
      "alimentos": 9071,
      "insult": 9072,
      "fantasma": 9073,
      "suffering": 9074,
      "ándome": 9075,
      "visitado": 9076,
      "continuar": 9077,
      "Decidí": 9078,
      "genius": 9079,
      "detective": 9080,
      "acusado": 9081,
      "ausencia": 9082,
      "rechazó": 9083,
      "physics": 9084,
      "utilizar": 9085,
      "explosión": 9086,
      "helicop": 9087,
      "fundamental": 9088,
      "levantado": 9089,
      "alfombra": 9090,
      "survived": 9091,
      "Marika": 9092,
      "desnudo": 9093,
      "betrayed": 9094,
      "ridiculous": 9095,
      "anxious": 9096,
      "Olvidé": 9097,
      "euros": 9098,
      "environment": 9099,
      "festival": 9100,
      "poesía": 9101,
      "Dar": 9102,
      "Find": 9103,
      "Fadi": 9104,
      "Há": 9105,
      "Mat": 9106,
      "More": 9107,
      "Nara": 9108,
      "aper": 9109,
      "ctas": 9110,
      "hones": 9111,
      "pher": 9112,
      "rare": 9113,
      "scri": 9114,
      "scra": 9115,
      "tomé": 9116,
      "debate": 9117,
      "remark": 9118,
      "tee": 9119,
      "unció": 9120,
      "hagan": 9121,
      "height": 9122,
      "elder": 9123,
      "elim": 9124,
      "tip": 9125,
      "tiro": 9126,
      "tick": 9127,
      "quedes": 9128,
      "tral": 9129,
      "chol": 9130,
      "usos": 9131,
      "gober": 9132,
      "contado": 9133,
      "contener": 9134,
      "itó": 9135,
      "abas": 9136,
      "abun": 9137,
      "vigor": 9138,
      "advent": 9139,
      "tugal": 9140,
      "negra": 9141,
      "Mark": 9142,
      "resour": 9143,
      "canas": 9144,
      "teniendo": 9145,
      "pilo": 9146,
      "pru": 9147,
      "fierno": 9148,
      "provi": 9149,
      "nica": 9150,
      "puertas": 9151,
      "exchange": 9152,
      "prevent": 9153,
      "okay": 9154,
      "trage": 9155,
      "fuente": 9156,
      "vengan": 9157,
      "vacas": 9158,
      "hacerle": 9159,
      "Entiendo": 9160,
      "Portugal": 9161,
      "costa": 9162,
      "talo": 9163,
      "lug": 9164,
      "salón": 9165,
      "salario": 9166,
      "reads": 9167,
      "Señor": 9168,
      "estuviste": 9169,
      "volviendo": 9170,
      "barba": 9171,
      "nuevamente": 9172,
      "Almost": 9173,
      "adamente": 9174,
      "coln": 9175,
      "opposite": 9176,
      "sore": 9177,
      "automóvil": 9178,
      "virus": 9179,
      "jobs": 9180,
      "adorable": 9181,
      "stead": 9182,
      "bald": 9183,
      "dejara": 9184,
      "univers": 9185,
      "wishes": 9186,
      "skill": 9187,
      "incident": 9188,
      "hambur": 9189,
      "direction": 9190,
      "perfecta": 9191,
      "vayamos": 9192,
      "trabajan": 9193,
      "ficación": 9194,
      "orders": 9195,
      "ential": 9196,
      "aceite": 9197,
      "pierde": 9198,
      "falls": 9199,
      "punished": 9200,
      "cleaned": 9201,
      "streets": 9202,
      "mandar": 9203,
      "touched": 9204,
      "desperté": 9205,
      "enamorada": 9206,
      "agujero": 9207,
      "víde": 9208,
      "gorda": 9209,
      "spirit": 9210,
      "discussed": 9211,
      "occas": 9212,
      "impressed": 9213,
      "ataque": 9214,
      "sentada": 9215,
      "angel": 9216,
      "sáb": 9217,
      "enfadada": 9218,
      "powerful": 9219,
      "espí": 9220,
      "decepcionado": 9221,
      "Santa": 9222,
      "Lincoln": 9223,
      "valiente": 9224,
      "Brazili": 9225,
      "podéis": 9226,
      "Admi": 9227,
      "oranges": 9228,
      "taxes": 9229,
      "Picas": 9230,
      "Recibí": 9231,
      "audience": 9232,
      "embarrassed": 9233,
      "indispensable": 9234,
      "adecuado": 9235,
      "ingenuo": 9236,
      "antiguo": 9237,
      "elefante": 9238,
      "elephant": 9239,
      "juicio": 9240,
      "pongas": 9241,
      "oficial": 9242,
      "Fadil": 9243,
      "Cal": 9244,
      "Ever": 9245,
      "Ham": 9246,
      "Hici": 9247,
      "Jos": 9248,
      "Jue": 9249,
      "Pase": 9250,
      "Play": 9251,
      "ecu": 9252,
      "fits": 9253,
      "ivo": 9254,
      "tuna": 9255,
      "zaba": 9256,
      "zoso": 9257,
      "íz": 9258,
      "ensay": 9259,
      "enced": 9260,
      "arquite": 9261,
      "indifferent": 9262,
      "oned": 9263,
      "online": 9264,
      "deje": 9265,
      "degre": 9266,
      "osex": 9267,
      "alas": 9268,
      "labios": 9269,
      "uncomfortable": 9270,
      "hai": 9271,
      "tadas": 9272,
      "tidos": 9273,
      "tilla": 9274,
      "queen": 9275,
      "quedo": 9276,
      "queja": 9277,
      "sean": 9278,
      "cierra": 9279,
      "dime": 9280,
      "veh": 9281,
      "attitude": 9282,
      "bears": 9283,
      "estall": 9284,
      "quen": 9285,
      "quis": 9286,
      "cepi": 9287,
      "comed": 9288,
      "compre": 9289,
      "victi": 9290,
      "viamente": 9291,
      "Esco": 9292,
      "Estuvo": 9293,
      "rac": 9294,
      "andando": 9295,
      "hidden": 9296,
      "colo": 9297,
      "resol": 9298,
      "bieron": 9299,
      "pico": 9300,
      "pidiendo": 9301,
      "desgracia": 9302,
      "amabilidad": 9303,
      "botell": 9304,
      "fila": 9305,
      "protest": 9306,
      "nidad": 9307,
      "outfit": 9308,
      "sacri": 9309,
      "exis": 9310,
      "nacional": 9311,
      "cesto": 9312,
      "dones": 9313,
      "Lauri": 9314,
      "acceso": 9315,
      "venden": 9316,
      "pasan": 9317,
      "pasear": 9318,
      "pasión": 9319,
      "maron": 9320,
      "martes": 9321,
      "garo": 9322,
      "ángu": 9323,
      "creas": 9324,
      "possibility": 9325,
      "shout": 9326,
      "shine": 9327,
      "shining": 9328,
      "cosecha": 9329,
      "talent": 9330,
      "aumento": 9331,
      "autumn": 9332,
      "bromas": 9333,
      "Estabas": 9334,
      "jewel": 9335,
      "presencia": 9336,
      "bush": 9337,
      "estupide": 9338,
      "ounds": 9339,
      "meros": 9340,
      "fog": 9341,
      "tesoro": 9342,
      "tempt": 9343,
      "escribí": 9344,
      "insane": 9345,
      "encontraron": 9346,
      "encontraste": 9347,
      "plies": 9348,
      "momentos": 9349,
      "toria": 9350,
      "besar": 9351,
      "guiendo": 9352,
      "rainy": 9353,
      "stops": 9354,
      "Tues": 9355,
      "Tuvo": 9356,
      "kilos": 9357,
      "sleeps": 9358,
      "entregar": 9359,
      "cloud": 9360,
      "falso": 9361,
      "below": 9362,
      "rompe": 9363,
      "relajar": 9364,
      "Podéis": 9365,
      "burning": 9366,
      "consequ": 9367,
      "product": 9368,
      "trabajado": 9369,
      "Esperamos": 9370,
      "piscina": 9371,
      "deliver": 9372,
      "naturales": 9373,
      "preparó": 9374,
      "molesto": 9375,
      "ignorance": 9376,
      "objetos": 9377,
      "batería": 9378,
      "spite": 9379,
      "estima": 9380,
      "sells": 9381,
      "amarillo": 9382,
      "shadow": 9383,
      "doubts": 9384,
      "pobreza": 9385,
      "pretend": 9386,
      "despierta": 9387,
      "obedecer": 9388,
      "enfermedades": 9389,
      "despedido": 9390,
      "tendría": 9391,
      "millón": 9392,
      "poems": 9393,
      "divorced": 9394,
      "newspapers": 9395,
      "complicado": 9396,
      "hablante": 9397,
      "sweets": 9398,
      "holidays": 9399,
      "crossing": 9400,
      "suelen": 9401,
      "princesa": 9402,
      "motorcycle": 9403,
      "conejo": 9404,
      "Buenas": 9405,
      "persuade": 9406,
      "lastimar": 9407,
      "vendría": 9408,
      "effect": 9409,
      "temporada": 9410,
      "technology": 9411,
      "occurred": 9412,
      "politician": 9413,
      "Choose": 9414,
      "autén": 9415,
      "prohibited": 9416,
      "solicitud": 9417,
      "riqueza": 9418,
      "Volveré": 9419,
      "puppy": 9420,
      "sensación": 9421,
      "cinturón": 9422,
      "espectáculo": 9423,
      "Adoro": 9424,
      "portugués": 9425,
      "despise": 9426,
      "degrees": 9427,
      "Laurie": 9428,
      "24": 9429,
      "Ama": 9430,
      "Fa": 9431,
      "Fol": 9432,
      "Gran": 9433,
      "Hir": 9434,
      "Pás": 9435,
      "Rep": 9436,
      "St": 9437,
      "Vino": 9438,
      "ease": 9439,
      "fare": 9440,
      "gase": 9441,
      "lent": 9442,
      "louder": 9443,
      "nin": 9444,
      "plen": 9445,
      "pista": 9446,
      "só": 9447,
      "screw": 9448,
      "vador": 9449,
      "infer": 9450,
      "aso": 9451,
      "asom": 9452,
      "detal": 9453,
      "aler": 9454,
      "reem": 9455,
      "temas": 9456,
      "hada": 9457,
      "Tomé": 9458,
      "quema": 9459,
      "quejas": 9460,
      "sele": 9461,
      "sets": 9462,
      "dición": 9463,
      "lobo": 9464,
[...]
