{
  "version": "1.0",
  "truncation": {
    "direction": "Right",
    "max_length": 256,
    "strategy": "LongestFirst",
    "stride": 0
  },
  "padding": {
    "strategy": "BatchLongest",
    "direction": "Right",
    "pad_to_multiple_of": null,
    "pad_id": 0,
    "pad_type_id": 0,
    "pad_token": "<pad>"
  },
  "added_tokens": [
    {
      "id": 0,
      "content": "<pad>",
      "single_word": false,
      "lstrip": false,
      "rstrip": false,
      "normalized": false,
      "special": true
    },
    {
      "id": 1,
      "content": "<unk>",
      "single_word": false,
      "lstrip": false,
      "rstrip": false,
      "normalized": false,
      "special": true
    },
    {
      "id": 2,
      "content": "<s>",
      "single_word": false,
      "lstrip": false,
      "rstrip": false,
      "normalized": false,
      "special": true
    },
    {
      "id": 3,
      "content": "</s>",
      "single_word": false,
      "lstrip": false,
      "rstrip": false,
      "normalized": false,
      "special": true
    }
  ],
  "normalizer": null,
  "pre_tokenizer": {
    "type": "Whitespace"
  },
  "post_processor": null,
  "decoder": null,
  "model": {
    "type": "BPE",
    "dropout": null,
    "unk_token": "<unk>",
    "continuing_subword_prefix": null,
    "end_of_word_suffix": null,
    "fuse_unk": false,
    "byte_fallback": false,
    "ignore_merges": false,
    "vocab": {
      "<pad>": 0,
      "<unk>": 1,
      "<s>": 2,
      "</s>": 3,
      "!": 4,
      "\"": 5,
      "#": 6,
      "&": 7,
      "'": 8,
      "(": 9,
      ")": 10,
      "*": 11,
      ",": 12,
      "-": 13,
      ".": 14,
      "/": 15,
      "0": 16,
      "1": 17,
      "2": 18,
      "3": 19,
      "4": 20,
      "5": 21,
      "6": 22,
      "7": 23,
      "8": 24,
      "9": 25,
      ":": 26,
      ";": 27,
      "?": 28,
      "A": 29,
      "B": 30,
      "C": 31,
      "D": 32,
      "E": 33,
      "F": 34,
      "G": 35,
      "H": 36,
      "I": 37,
      "J": 38,
      "K": 39,
      "L": 40,
      "M": 41,
      "N": 42,
      "O": 43,
      "P": 44,
      "Q": 45,
      "R": 46,
      "S": 47,
      "T": 48,
      "U": 49,
      "V": 50,
      "W": 51,
      "X": 52,
      "Y": 53,
      "Z": 54,
      "[": 55,
      "]": 56,
      "_": 57,
      "`": 58,
      "a": 59,
      "b": 60,
      "c": 61,
      "d": 62,
      "e": 63,
      "f": 64,
      "g": 65,
      "h": 66,
      "i": 67,
      "j": 68,
      "k": 69,
      "l": 70,
      "m": 71,
      "n": 72,
      "o": 73,
      "p": 74,
      "q": 75,
      "r": 76,
      "s": 77,
      "t": 78,
      "u": 79,
      "v": 80,
      "w": 81,
      "x": 82,
      "y": 83,
      "z": 84,
      "{": 85,
      "}": 86,
      "¢": 87,
      "£": 88,
      "¤": 89,
      "¦": 90,
      "§": 91,
      "¨": 92,
      "©": 93,
      "ª": 94,
      "«": 95,
      "¬": 96,
      "»": 97,
      "Â": 98,
      "Ã": 99,
      "Å": 100,
      "Ç": 101,
      "É": 102,
      "Ö": 103,
      "Ü": 104,
      "à": 105,
      "â": 106,
      "ä": 107,
      "æ": 108,
      "ç": 109,
      "è": 110,
      "é": 111,
      "ê": 112,
      "î": 113,
      "ï": 114,
      "ö": 115,
      "û": 116,
      "ü": 117,
      "Ğ": 118,
      "ğ": 119,
      "İ": 120,
      "ı": 121,
      "Œ": 122,
      "Ş": 123,
      "ş": 124,
      "ƒ": 125,
      "​": 126,
      "–": 127,
      "—": 128,
      "‘": 129,
      "’": 130,
      "‚": 131,
      "“": 132,
      "”": 133,
      "‡": 134,
      "…": 135,
      "€": 136,
      "in": 137,
      "an": 138,
      "he": 139,
      "ar": 140,
      "er": 141,
      "en": 142,
      "on": 143,
      "the": 144,
      "ed": 145,
      "or": 146,
      "at": 147,
      "ir": 148,
      "as": 149,
      "ou": 150,
      "al": 151,
      "and": 152,
      "ın": 153,
      "is": 154,
      "ve": 155,
      "th": 156,
      "le": 157,
      "ad": 158,
      "me": 159,
      "to": 160,
      "re": 161,
      "ak": 162,
      "un": 163,
      "ay": 164,
      "il": 165,
      "it": 166,
      "de": 167,
      "ing": 168,
      "im": 169,
      "bir": 170,
      "se": 171,
      "ol": 172,
      "am": 173,
      "ce": 174,
      "du": 175,
      "di": 176,
      "of": 177,
      "st": 178,
      "el": 179,
      "lar": 180,
      "da": 181,
      "et": 182,
      "no": 183,
      "yor": 184,
      "be": 185,
      "li": 186,
      "bu": 187,
      "ün": 188,
      "ek": 189,
      "ti": 190,
      "es": 191,
      "ha": 192,
      "ver": 193,
      "la": 194,
      "ya": 195,
      "ır": 196,
      "her": 197,
      "ler": 198,
      "ch": 199,
      "sa": 200,
      "ım": 201,
      "ok": 202,
      "ly": 203,
      "was": 204,
      "ur": 205,
      "ık": 206,
      "ye": 207,
      "that": 208,
      "ro": 209,
      "ne": 210,
      "wh": 211,
      "for": 212,
      "iç": 213,
      "si": 214,
      "ini": 215,
      "ld": 216,
      "um": 217,
      "wi": 218,
      "edi": 219,
      "ac": 220,
      "his": 221,
      "gh": 222,
      "ab": 223,
      "you": 224,
      "gö": 225,
      "ent": 226,
      "dü": 227,
      "id": 228,
      "with": 229,
      "ra": 230,
      "mi": 231,
      "ow": 232,
      "ki": 233,
      "had": 234,
      "so": 235,
      "ış": 236,
      "not": 237,
      "aş": 238,
      "ını": 239,
      "ut": 240,
      "ev": 241,
      "ığ": 242,
      "ey": 243,
      "yordu": 244,
      "ge": 245,
      "all": 246,
      "end": 247,
      "ter": 248,
      "gi": 249,
      "ul": 250,
      "ine": 251,
      "ould": 252,
      "ght": 253,
      "she": 254,
      "su": 255,
      "ri": 256,
      "my": 257,
      "den": 258,
      "dan": 259,
      "ka": 260,
      "te": 261,
      "him": 262,
      "ağ": 263,
      "do": 264,
      "lo": 265,
      "üz": 266,
      "bi": 267,
      "ıl": 268,
      "sh": 269,
      "om": 270,
      "ard": 271,
      "için": 272,
      "ız": 273,
      "out": 274,
      "onu": 275,
      "ca": 276,
      "ons": 277,
      "yle": 278,
      "unu": 279,
      "kad": 280,
      "ther": 281,
      "but": 282,
      "ama": 283,
      "tı": 284,
      "up": 285,
      "kar": 286,
      "ere": 287,
      "one": 288,
      ",'": 289,
      "mu": 290,
      "oldu": 291,
      "iz": 292,
      "az": 293,
      "pe": 294,
      ".'": 295,
      "od": 296,
      "ında": 297,
      "ill": 298,
      "gör": 299,
      "ben": 300,
      "ru": 301,
      "ta": 302,
      "fe": 303,
      "şey": 304,
      "go": 305,
      "man": 306,
      "nd": 307,
      "son": 308,
      "lik": 309,
      "ük": 310,
      "ger": 311,
      "dı": 312,
      "whi": 313,
      "baş": 314,
      "ına": 315,
      "ap": 316,
      "ön": 317,
      "said": 318,
      "con": 319,
      "have": 320,
      "çok": 321,
      "whe": 322,
      "mak": 323,
      ".\"": 324,
      "yi": 325,
      "sö": 326,
      "kadar": 327,
      "now": 328,
      "aya": 329,
      "The": 330,
      "res": 331,
      "der": 332,
      "ken": 333,
      "bo": 334,
      "mek": 335,
      "us": 336,
      "ür": 337,
      "bil": 338,
      "sel": 339,
      "düş": 340,
      "ları": 341,
      "if": 342,
      "ği": 343,
      "thing": 344,
      "na": 345,
      "hat": 346,
      "gel": 347,
      "ma": 348,
      "par": 349,
      "ion": 350,
      "daha": 351,
      "em": 352,
      "inde": 353,
      "..": 354,
      "üm": 355,
      "olduğ": 356,
      "qu": 357,
      "lı": 358,
      "tan": 359,
      "yap": 360,
      "which": 361,
      "po": 362,
      "ten": 363,
      "lad": 364,
      "diye": 365,
      "evin": 366,
      "kal": 367,
      "our": 368,
      "uz": 369,
      "!'": 370,
      "af": 371,
      "we": 372,
      "arak": 373,
      "mad": 374,
      "ik": 375,
      "Levin": 376,
      "itt": 377,
      "co": 378,
      "very": 379,
      "iş": 380,
      "dedi": 381,
      "ky": 382,
      "rom": 383,
      "ex": 384,
      "by": 385,
      "ant": 386,
      "ana": 387,
      "gibi": 388,
      "?'": 389,
      "lu": 390,
      "düşün": 391,
      "kend": 392,
      "inin": 393,
      "they": 394,
      "are": 395,
      "ct": 396,
      "them": 397,
      "ğini": 398,
      "çık": 399,
      "zam": 400,
      "men": 401,
      "oc": 402,
      "ind": 403,
      "kü": 404,
      "mas": 405,
      "ell": 406,
      "tur": 407,
      "ların": 408,
      "were": 409,
      "this": 410,
      "ıs": 411,
      "per": 412,
      "ag": 413,
      "--": 414,
      "would": 415,
      "miş": 416,
      "from": 417,
      "ci": 418,
      "ğim": 419,
      "mor": 420,
      "self": 421,
      "onun": 422,
      "yorum": 423,
      "eden": 424,
      "way": 425,
      "who": 426,
      "thou": 427,
      "what": 428,
      "gü": 429,
      "some": 430,
      "ıy": 431,
      "ast": 432,
      "ck": 433,
      "lan": 434,
      "fa": 435,
      "ece": 436,
      "rou": 437,
      "ses": 438,
      "An": 439,
      "siz": 440,
      "tek": 441,
      "He": 442,
      "leri": 443,
      "enin": 444,
      "yan": 445,
      "tu": 446,
      "mo": 447,
      "zaman": 448,
      "can": 449,
      "ho": 450,
      "bak": 451,
      "bü": 452,
      "iler": 453,
      "could": 454,
      "ip": 455,
      "ren": 456,
      "when": 457,
      "lam": 458,
      "?\"": 459,
      "ke": 460,
      "ple": 461,
      "ss": 462,
      "ah": 463,
      "wor": 464,
      "sonra": 465,
      "san": 466,
      "hiç": 467,
      "there": 468,
      "mış": 469,
      "own": 470,
      "say": 471,
      "çek": 472,
      "ran": 473,
      "ona": 474,
      "ının": 475,
      "ain": 476,
      "art": 477,
      "değ": 478,
      "bun": 479,
      "sor": 480,
      "onsky": 481,
      "tak": 482,
      "ate": 483,
      "meye": 484,
      "alar": 485,
      "laş": 486,
      "konu": 487,
      "sun": 488,
      "ada": 489,
      "did": 490,
      "ığı": 491,
      "öyle": 492,
      "ation": 493,
      "doğ": 494,
      "ful": 495,
      "dur": 496,
      "fi": 497,
      "uy": 498,
      "yer": 499,
      "hay": 500,
      "lü": 501,
      "look": 502,
      "ess": 503,
      "may": 504,
      ",\"": 505,
      "day": 506,
      "other": 507,
      "len": 508,
      "been": 509,
      "yük": 510,
      "com": 511,
      "yüz": 512,
      "ından": 513,
      "şek": 514,
      "sp": 515,
      "dis": 516,
      "olduğunu": 517,
      "bl": 518,
      "any": 519,
      "yet": 520,
      "get": 521,
      "will": 522,
      "ko": 523,
      "vi": 524,
      "ark": 525,
      "duy": 526,
      "ince": 527,
      "about": 528,
      "tar": 529,
      "iyi": 530,
      "gün": 531,
      "lay": 532,
      "av": 533,
      "ble": 534,
      "inden": 535,
      "ous": 536,
      "geç": 537,
      "time": 538,
      "tü": 539,
      "bel": 540,
      "uk": 541,
      "ong": 542,
      "değil": 543,
      "ğer": 544,
      "ry": 545,
      "ıyordu": 546,
      "Anna": 547,
      "ledi": 548,
      "Bu": 549,
      "Vr": 550,
      "ığını": 551,
      "know": 552,
      "pro": 553,
      "ilde": 554,
      "their": 555,
      "ser": 556,
      "fore": 557,
      "söy": 558,
      "var": 559,
      "etti": 560,
      "şekilde": 561,
      "more": 562,
      "yak": 563,
      "yar": 564,
      "hed": 565,
      "eni": 566,
      "pp": 567,
      "ster": 568,
      "bul": 569,
      "ist": 570,
      "acağ": 571,
      "ved": 572,
      "hal": 573,
      "ladı": 574,
      "lık": 575,
      "olan": 576,
      "aki": 577,
      "thought": 578,
      "yaş": 579,
      "able": 580,
      "ite": 581,
      "your": 582,
      "ile": 583,
      "sed": 584,
      "karş": 585,
      "acak": 586,
      "It": 587,
      "ber": 588,
      "old": 589,
      "ıp": 590,
      "maya": 591,
      "larını": 592,
      "lat": 593,
      "tion": 594,
      "fir": 595,
      "But": 596,
      "into": 597,
      "then": 598,
      "kor": 599,
      "bile": 600,
      "pr": 601,
      "sız": 602,
      "led": 603,
      "ep": 604,
      "lerini": 605,
      "ef": 606,
      "ünü": 607,
      "come": 608,
      "hand": 609,
      "only": 610,
      "doğru": 611,
      "And": 612,
      "bana": 613,
      "gerek": 614,
      "ydi": 615,
      "irdi": 616,
      "olarak": 617,
      "est": 618,
      "how": 619,
      "itty": 620,
      "isi": 621,
      "kap": 622,
      "again": 623,
      "bet": 624,
      "kö": 625,
      "wo": 626,
      "göz": 627,
      "Kitty": 628,
      "ask": 629,
      "like": 630,
      "ound": 631,
      "see": 632,
      "ity": 633,
      "adam": 634,
      "ıyor": 635,
      "read": 636,
      "medi": 637,
      "çün": 638,
      "yok": 639,
      "reat": 640,
      "use": 641,
      "set": 642,
      "ered": 643,
      "cek": 644,
      "Kar": 645,
      "pres": 646,
      "ish": 647,
      "sad": 648,
      "should": 649,
      "land": 650,
      "gu": 651,
      "ink": 652,
      "cak": 653,
      "tal": 654,
      "new": 655,
      "has": 656,
      "mer": 657,
      "over": 658,
      "dim": 659,
      "ığım": 660,
      "ardı": 661,
      "ili": 662,
      "Obl": 663,
      "çal": 664,
      "went": 665,
      "ence": 666,
      "mem": 667,
      "beni": 668,
      "ers": 669,
      "...": 670,
      "Ama": 671,
      "iki": 672,
      "sev": 673,
      "git": 674,
      "ted": 675,
      "çünkü": 676,
      "üzer": 677,
      "aç": 678,
      "yol": 679,
      "ise": 680,
      "ret": 681,
      "kat": 682,
      "uş": 683,
      "She": 684,
      "öz": 685,
      "ally": 686,
      "vet": 687,
      "under": 688,
      "dön": 689,
      "On": 690,
      "hiçbir": 691,
      "önce": 692,
      "ving": 693,
      "konuş": 694,
      "down": 695,
      "gen": 696,
      "oun": 697,
      "Ve": 698,
      "turn": 699,
      "ni": 700,
      "sin": 701,
      "than": 702,
      "pos": 703,
      "daki": 704,
      "kendi": 705,
      "ittle": 706,
      "row": 707,
      "rar": 708,
      "beg": 709,
      "ure": 710,
      "bur": 711,
      "muş": 712,
      "ust": 713,
      "büyük": 714,
      "har": 715,
      "üş": 716,
      "ot": 717,
      "its": 718,
      "benim": 719,
      "sü": 720,
      "came": 721,
      "Oblonsky": 722,
      "mes": 723,
      "little": 724,
      "imdi": 725,
      "ıld": 726,
      "before": 727,
      "asıl": 728,
      "iyordu": 729,
      "sto": 730,
      "imi": 731,
      "Bay": 732,
      "mam": 733,
      "!\"": 734,
      "tam": 735,
      "ment": 736,
      "tün": 737,
      "erek": 738,
      "ced": 739,
      "pla": 740,
      "after": 741,
      "tim": 742,
      "ası": 743,
      "ayı": 744,
      "kork": 745,
      "sc": 746,
      "din": 747,
      "ans": 748,
      "kes": 749,
      "kur": 750,
      "every": 751,
      "op": 752,
      "ort": 753,
      "Karenin": 754,
      "ever": 755,
      "Bir": 756,
      "unda": 757,
      "han": 758,
      "ven": 759,
      "ng": 760,
      "ward": 761,
      "karşı": 762,
      "yaz": 763,
      "söyle": 764,
      "eri": 765,
      "two": 766,
      "tir": 767,
      "olly": 768,
      "lüm": 769,
      "tut": 770,
      "zi": 771,
      "ayn": 772,
      "duğ": 773,
      "abil": 774,
      "gir": 775,
      "You": 776,
      "sen": 777,
      "let": 778,
      "gördü": 779,
      "bunu": 780,
      "ary": 781,
      "ack": 782,
      "sık": 783,
      "tım": 784,
      "never": 785,
      "göre": 786,
      "low": 787,
      "lara": 788,
      "sat": 789,
      "dev": 790,
      "think": 791,
      "dır": 792,
      "much": 793,
      "ty": 794,
      "where": 795,
      "bit": 796,
      "hak": 797,
      "off": 798,
      "good": 799,
      "ree": 800,
      "room": 801,
      "düşündü": 802,
      "dik": 803,
      "ness": 804,
      "made": 805,
      "ces": 806,
      "cev": 807,
      "dir": 808,
      "ede": 809,
      "ely": 810,
      "hen": 811,
      "such": 812,
      "çalış": 813,
      "veya": 814,
      "must": 815,
      "Dolly": 816,
      "ris": 817,
      "ily": 818,
      "first": 819,
      "sadece": 820,
      "kız": 821,
      "dol": 822,
      "min": 823,
      "küç": 824,
      "well": 825,
      "tır": 826,
      "vardı": 827,
      "Vronsky": 828,
      "seem": 829,
      "elt": 830,
      "mişti": 831,
      "mal": 832,
      "ça": 833,
      "met": 834,
      "kaç": 835,
      "bağ": 836,
      "side": 837,
      "just": 838,
      "bek": 839,
      "right": 840,
      "ave": 841,
      "Ben": 842,
      "ting": 843,
      "iyor": 844,
      "pleas": 845,
      "zor": 846,
      "rı": 847,
      "even": 848,
      "nasıl": 849,
      "eli": 850,
      "bah": 851,
      "ürü": 852,
      "ried": 853,
      "söyledi": 854,
      "ıyla": 855,
      "otur": 856,
      "oy": 857,
      "nin": 858,
      "boy": 859,
      "fer": 860,
      "onski": 861,
      "söz": 862,
      "cevap": 863,
      "cı": 864,
      "kır": 865,
      "hi": 866,
      "sion": 867,
      "ning": 868,
      "lice": 869,
      "ild": 870,
      "kendis": 871,
      "che": 872,
      "adan": 873,
      "upon": 874,
      "cause": 875,
      "tain": 876,
      "ated": 877,
      "ll": 878,
      "ünde": 879,
      "red": 880,
      "don": 881,
      "esi": 882,
      "bır": 883,
      "kı": 884,
      "long": 885,
      "head": 886,
      "ose": 887,
      "air": 888,
      "kan": 889,
      "geldi": 890,
      "bütün": 891,
      "ov": 892,
      "pas": 893,
      "arm": 894,
      "himself": 895,
      "round": 896,
      "tekrar": 897,
      "pi": 898,
      "put": 899,
      "geri": 900,
      "without": 901,
      "pre": 902,
      "mez": 903,
      "dum": 904,
      "spe": 905,
      "too": 906,
      "being": 907,
      "küçük": 908,
      "What": 909,
      "görün": 910,
      "yal": 911,
      "taraf": 912,
      "mis": 913,
      "might": 914,
      "cont": 915,
      "Mr": 916,
      "tık": 917,
      "sır": 918,
      "int": 919,
      "cer": 920,
      "ps": 921,
      "insan": 922,
      "mesi": 923,
      "saw": 924,
      "want": 925,
      "alt": 926,
      "great": 927,
      "yen": 928,
      "here": 929,
      "stand": 930,
      "verdi": 931,
      "felt": 932,
      "olmad": 933,
      "uğ": 934,
      "Ge": 935,
      "fark": 936,
      "eş": 937,
      "face": 938,
      "ach": 939,
      "Alice": 940,
      "faz": 941,
      "van": 942,
      "less": 943,
      "hor": 944,
      "şimdi": 945,
      "una": 946,
      "yu": 947,
      "yat": 948,
      "ması": 949,
      "cu": 950,
      "dım": 951,
      "feel": 952,
      "dış": 953,
      "leş": 954,
      "bar": 955,
      "mut": 956,
      "away": 957,
      "hemen": 958,
      "açık": 959,
      "böyle": 960,
      "car": 961,
      "neden": 962,
      "ör": 963,
      "ob": 964,
      "most": 965,
      "ount": 966,
      "...'": 967,
      "word": 968,
      "ane": 969,
      "durum": 970,
      "br": 971,
      "ft": 972,
      "aynı": 973,
      "still": 974,
      "uzun": 975,
      "life": 976,
      "ouse": 977,
      "Vronski": 978,
      "süre": 979,
      "asında": 980,
      "lardı": 981,
      "içinde": 982,
      "bırak": 983,
      "pt": 984,
      "nın": 985,
      "ati": 986,
      "likle": 987,
      "diğer": 988,
      "ves": 989,
      "happ": 990,
      "isti": 991,
      "eyes": 992,
      "sil": 993,
      "eğ": 994,
      "got": 995,
      "began": 996,
      "clo": 997,
      "back": 998,
      "ars": 999,
      "ımı": 1000,
      "ER": 1001,
      "çoc": 1002,
      "inter": 1003,
      "ayır": 1004,
      "found": 1005,
      "quite": 1006,
      "anda": 1007,
      "asına": 1008,
      "gülüm": 1009,
      "gun": 1010,
      "iste": 1011,
      "üzel": 1012,
      "yordum": 1013,
      "Ne": 1014,
      "call": 1015,
      "gn": 1016,
      "sal": 1017,
      "tür": 1018,
      "these": 1019,
      "kay": 1020,
      "asked": 1021,
      "ded": 1022,
      "sky": 1023,
      "mı": 1024,
      "onları": 1025,
      "Roc": 1026,
      "öne": 1027,
      "those": 1028,
      "Roche": 1029,
      "eki": 1030,
      "myself": 1031,
      "Rochester": 1032,
      "Geor": 1033,
      "adı": 1034,
      "because": 1035,
      "unun": 1036,
      "rep": 1037,
      "Evet": 1038,
      "şi": 1039,
      "gr": 1040,
      "nothing": 1041,
      "hoş": 1042,
      "wat": 1043,
      "knew": 1044,
      "mon": 1045,
      "olduğu": 1046,
      "ways": 1047,
      "take": 1048,
      "mü": 1049,
      "No": 1050,
      "suz": 1051,
      "love": 1052,
      "ner": 1053,
      "kol": 1054,
      "lerin": 1055,
      "looked": 1056,
      "top": 1057,
      "karar": 1058,
      "vo": 1059,
      "gerçek": 1060,
      "though": 1061,
      "cle": 1062,
      "sak": 1063,
      "Jane": 1064,
      "make": 1065,
      "eler": 1066,
      "ilk": 1067,
      "med": 1068,
      "başka": 1069,
      "arı": 1070,
      "ently": 1071,
      "seemed": 1072,
      "oğ": 1073,
      "güzel": 1074,
      "bunun": 1075,
      "something": 1076,
      "sing": 1077,
      "ished": 1078,
      "uzak": 1079,
      "ceğim": 1080,
      "light": 1081,
      "ığında": 1082,
      "bilir": 1083,
      "work": 1084,
      "iniz": 1085,
      "age": 1086,
      "ged": 1087,
      "biri": 1088,
      "rahat": 1089,
      "maz": 1090,
      "oz": 1091,
      "acı": 1092,
      "şeyi": 1093,
      "devam": 1094,
      "pect": 1095,
      "took": 1096,
      "başladı": 1097,
      "sordu": 1098,
      "üç": 1099,
      "koy": 1100,
      "yaklaş": 1101,
      "gar": 1102,
      "haf": 1103,
      "eğer": 1104,
      "hn": 1105,
      "sm": 1106,
      "yeni": 1107,
      "In": 1108,
      "fazla": 1109,
      "acağını": 1110,
      "Yes": 1111,
      "tüm": 1112,
      "ıyı": 1113,
      "hayat": 1114,
      "house": 1115,
      "mind": 1116,
      "hakk": 1117,
      "sol": 1118,
      "sur": 1119,
      "while": 1120,
      "ined": 1121,
      "same": 1122,
      "sür": 1123,
      "inc": 1124,
      "having": 1125,
      "düşünce": 1126,
      "shall": 1127,
      "getir": 1128,
      "bro": 1129,
      "hy": 1130,
      "ny": 1131,
      "ople": 1132,
      "mıştı": 1133,
      "answ": 1134,
      "HA": 1135,
      "ic": 1136,
      "sir": 1137,
      "öğ": 1138,
      "ancak": 1139,
      "hatır": 1140,
      "Tan": 1141,
      "nız": 1142,
      "ğinde": 1143,
      "anın": 1144,
      "always": 1145,
      "George": 1146,
      "cul": 1147,
      "kim": 1148,
      "last": 1149,
      "night": 1150,
      "lardan": 1151,
      "turned": 1152,
      "aret": 1153,
      "cur": 1154,
      "people": 1155,
      "Ah": 1156,
      "Har": 1157,
      "Her": 1158,
      "hem": 1159,
      "ont": 1160,
      "dif": 1161,
      "val": 1162,
      "mile": 1163,
      "bed": 1164,
      "sible": 1165,
      "bat": 1166,
      "fort": 1167,
      "las": 1168,
      "eye": 1169,
      "ih": 1170,
      "meden": 1171,
      "yü": 1172,
      "abilir": 1173,
      "mar": 1174,
      "sand": 1175,
      "once": 1176,
      "sağ": 1177,
      "things": 1178,
      "haz": 1179,
      "Well": 1180,
      "kul": 1181,
      "left": 1182,
      "saat": 1183,
      "çıkar": 1184,
      "kötü": 1185,
      "anlam": 1186,
      "iden": 1187,
      "door": 1188,
      "part": 1189,
      "larının": 1190,
      "child": 1191,
      "How": 1192,
      "eve": 1193,
      "ies": 1194,
      "şam": 1195,
      "ister": 1196,
      "another": 1197,
      "tell": 1198,
      "ition": 1199,
      "talk": 1200,
      "ened": 1201,
      "wom": 1202,
      "biraz": 1203,
      "görünü": 1204,
      "ice": 1205,
      "hisset": 1206,
      "Bayan": 1207,
      "gin": 1208,
      "heard": 1209,
      "adım": 1210,
      "going": 1211,
      "rough": 1212,
      "ecek": 1213,
      "We": 1214,
      "sedi": 1215,
      "olur": 1216,
      "artık": 1217,
      "yla": 1218,
      "tiğini": 1219,
      "Pr": 1220,
      "biz": 1221,
      "acağım": 1222,
      "Harris": 1223,
      "mat": 1224,
      "istedi": 1225,
      "ait": 1226,
      "düz": 1227,
      "give": 1228,
      "place": 1229,
      "yalnız": 1230,
      "uyordu": 1231,
      "orada": 1232,
      "imp": 1233,
      "vers": 1234,
      "sah": 1235,
      "near": 1236,
      "eket": 1237,
      "çocuk": 1238,
      "ect": 1239,
      "three": 1240,
      "göster": 1241,
      "lerine": 1242,
      "bulun": 1243,
      "cor": 1244,
      "imiz": 1245,
      "karde": 1246,
      "used": 1247,
      "sanki": 1248,
      "lak": 1249,
      "ste": 1250,
      "abile": 1251,
      "özel": 1252,
      "Ale": 1253,
      "cal": 1254,
      "pek": 1255,
      "unuz": 1256,
      "Oh": 1257,
      "Peki": 1258,
      "stood": 1259,
      "mom": 1260,
      "ağa": 1261,
      "görü": 1262,
      "hareket": 1263,
      "yorsun": 1264,
      "ardım": 1265,
      "fri": 1266,
      "There": 1267,
      "moment": 1268,
      "lığ": 1269,
      "gülümse": 1270,
      "ağı": 1271,
      "count": 1272,
      "ceğini": 1273,
      "kadın": 1274,
      "dra": 1275,
      "anlat": 1276,
      "wife": 1277,
      "mayı": 1278,
      "ither": 1279,
      "larla": 1280,
      "att": 1281,
      "üzerinde": 1282,
      "cas": 1283,
      "hur": 1284,
      "act": 1285,
      "belir": 1286,
      "looking": 1287,
      "ready": 1288,
      "Koz": 1289,
      "tamam": 1290,
      "endi": 1291,
      "üst": 1292,
      "endim": 1293,
      "nor": 1294,
      "shev": 1295,
      "nyshev": 1296,
      "Koznyshev": 1297,
      "herself": 1298,
      "fo": 1299,
      "heart": 1300,
      "ayr": 1301,
      "Ar": 1302,
      "ud": 1303,
      "ance": 1304,
      "raf": 1305,
      "Prince": 1306,
      "Pren": 1307,
      "va": 1308,
      "told": 1309,
      "unca": 1310,
      "qui": 1311,
      "ough": 1312,
      "ction": 1313,
      "ildi": 1314,
      "ings": 1315,
      "sider": 1316,
      "larına": 1317,
      "kind": 1318,
      "ade": 1319,
      "dres": 1320,
      "rağ": 1321,
      "boat": 1322,
      "koş": 1323,
      "ırdı": 1324,
      "lerinin": 1325,
      "possible": 1326,
      "Hayır": 1327,
      "bab": 1328,
      "meyi": 1329,
      "lov": 1330,
      "kendini": 1331,
      "IN": 1332,
      "nun": 1333,
      "through": 1334,
      "consider": 1335,
      "They": 1336,
      "appe": 1337,
      "nat": 1338,
      "enka": 1339,
      "kez": 1340,
      "ıyorum": 1341,
      "ındaki": 1342,
      "akat": 1343,
      "düşünü": 1344,
      "hakkında": 1345,
      "dün": 1346,
      "done": 1347,
      "ared": 1348,
      "birlik": 1349,
      "ore": 1350,
      "şeyler": 1351,
      "quest": 1352,
      "kendisine": 1353,
      "cess": 1354,
      "güç": 1355,
      "speak": 1356,
      "larım": 1357,
      "mesini": 1358,
      "dikkat": 1359,
      "sy": 1360,
      "fin": 1361,
      "kıs": 1362,
      "şaş": 1363,
      "sessiz": 1364,
      "understand": 1365,
      "ban": 1366,
      "cour": 1367,
      "ling": 1368,
      "gece": 1369,
      "ious": 1370,
      "ıştı": 1371,
      "asını": 1372,
      "Jo": 1373,
      "senin": 1374,
      "amaz": 1375,
      "hus": 1376,
      "yürü": 1377,
      "çev": 1378,
      "önem": 1379,
      "nered": 1380,
      "olmas": 1381,
      "soon": 1382,
      "sub": 1383,
      "friend": 1384,
      "pen": 1385,
      "yön": 1386,
      "yapt": 1387,
      "When": 1388,
      "umu": 1389,
      "tre": 1390,
      "kesin": 1391,
      "Mo": 1392,
      "band": 1393,
      "II": 1394,
      "ath": 1395,
      "aları": 1396,
      "anything": 1397,
      "döndü": 1398,
      "kalk": 1399,
      "words": 1400,
      "üzerine": 1401,
      "Pet": 1402,
      "ear": 1403,
      "undan": 1404,
      "ırım": 1405,
      "order": 1406,
      "ised": 1407,
      "str": 1408,
      "chan": 1409,
      "olduk": 1410,
      "luk": 1411,
      "beli": 1412,
      "ilg": 1413,
      "etmek": 1414,
      "fır": 1415,
      "ku": 1416,
      "taş": 1417,
      "ıma": 1418,
      "üp": 1419,
      "ody": 1420,
      "baktı": 1421,
      "brother": 1422,
      "baz": 1423,
      "smile": 1424,
      "tem": 1425,
      "both": 1426,
      "isten": 1427,
      "gelen": 1428,
      "tah": 1429,
      "yüzden": 1430,
      "John": 1431,
      "find": 1432,
      "ollow": 1433,
      "sahip": 1434,
      "yine": 1435,
      "inci": 1436,
      "expect": 1437,
      "ide": 1438,
      "dal": 1439,
      "hum": 1440,
      "tor": 1441,
      "tru": 1442,
      "üne": 1443,
      "oke": 1444,
      "pped": 1445,
      "God": 1446,
      "hep": 1447,
      "toward": 1448,
      "gitti": 1449,
      "This": 1450,
      "öl": 1451,
      "yoktu": 1452,
      "member": 1453,
      "hazır": 1454,
      "birkaç": 1455,
      "wind": 1456,
      "cons": 1457,
      "andır": 1458,
      "deği": 1459,
      "whole": 1460,
      "birlikte": 1461,
      "cid": 1462,
      "rest": 1463,
      "unç": 1464,
      "many": 1465,
      "That": 1466,
      "hel": 1467,
      "yerek": 1468,
      "better": 1469,
      "kardeş": 1470,
      "tat": 1471,
      "sam": 1472,
      "yıl": 1473,
      "won": 1474,
      "iss": 1475,
      "olmay": 1476,
      "larında": 1477,
      "miyordu": 1478,
      "half": 1479,
      "hız": 1480,
      "inan": 1481,
      "les": 1482,
      "sav": 1483,
      "değildi": 1484,
      "ason": 1485,
      "ısı": 1486,
      "far": 1487,
      "ınız": 1488,
      "cannot": 1489,
      "everything": 1490,
      "duğu": 1491,
      "husband": 1492,
      "body": 1493,
      "ched": 1494,
      "pl": 1495,
      "stran": 1496,
      "cond": 1497,
      "biliyordu": 1498,
      "değiş": 1499,
      "rew": 1500,
      "ight": 1501,
      "müş": 1502,
      "usu": 1503,
      "cei": 1504,
      "izin": 1505,
      "times": 1506,
      "sek": 1507,
      "genç": 1508,
      "hair": 1509,
      "hard": 1510,
      "lerle": 1511,
      "alk": 1512,
      "ram": 1513,
      "sın": 1514,
      "Çok": 1515,
      "erken": 1516,
      "içeri": 1517,
      "Re": 1518,
      "gave": 1519,
      "yim": 1520,
      "fully": 1521,
      "water": 1522,
      "kin": 1523,
      "arab": 1524,
      "alı": 1525,
      "miyorum": 1526,
      "hangi": 1527,
      "rağmen": 1528,
      "ace": 1529,
      "pri": 1530,
      "wr": 1531,
      "wish": 1532,
      "ship": 1533,
      "yon": 1534,
      "ıydı": 1535,
      "draw": 1536,
      "Bunu": 1537,
      "expres": 1538,
      "hiz": 1539,
      "eyse": 1540,
      "hands": 1541,
      "dışarı": 1542,
      "fre": 1543,
      "ugh": 1544,
      "whom": 1545,
      "rain": 1546,
      "efendim": 1547,
      "El": 1548,
      "ped": 1549,
      "akşam": 1550,
      "inu": 1551,
      "voice": 1552,
      "eas": 1553,
      "wait": 1554,
      "ald": 1555,
      "korkunç": 1556,
      "çe": 1557,
      "ğü": 1558,
      "also": 1559,
      "tions": 1560,
      "tav": 1561,
      "follow": 1562,
      "yağ": 1563,
      "TER": 1564,
      "ele": 1565,
      "ions": 1566,
      "ici": 1567,
      "bakış": 1568,
      "sert": 1569,
      "Why": 1570,
      "fell": 1571,
      "pan": 1572,
      "ğin": 1573,
      "As": 1574,
      "till": 1575,
      "lere": 1576,
      "kendisi": 1577,
      "boyunca": 1578,
      "yardım": 1579,
      "rought": 1580,
      "Var": 1581,
      "rid": 1582,
      "ayak": 1583,
      "ilen": 1584,
      "ladım": 1585,
      "cover": 1586,
      "luğ": 1587,
      "continu": 1588,
      "called": 1589,
      "So": 1590,
      "lied": 1591,
      "ılmış": 1592,
      "hear": 1593,
      "meli": 1594,
      "kendine": 1595,
      "home": 1596,
      "au": 1597,
      "ought": 1598,
      "young": 1599,
      "ruh": 1600,
      "woman": 1601,
      "course": 1602,
      "cü": 1603,
      "remember": 1604,
      "eld": 1605,
      "çi": 1606,
      "boş": 1607,
      "Alex": 1608,
      "hour": 1609,
      "sunuz": 1610,
      "uyor": 1611,
      "asla": 1612,
      "manın": 1613,
      "Tanrı": 1614,
      "ğüm": 1615,
      "lerinde": 1616,
      "onunla": 1617,
      "zar": 1618,
      "ters": 1619,
      "ılık": 1620,
      "tarafından": 1621,
      "larda": 1622,
      "cy": 1623,
      "exc": 1624,
      "asının": 1625,
      "madan": 1626,
      "kın": 1627,
      "yeme": 1628,
      "uma": 1629,
      "morning": 1630,
      "ned": 1631,
      "dür": 1632,
      "ızı": 1633,
      "brought": 1634,
      "fam": 1635,
      "mur": 1636,
      "keep": 1637,
      "tamamen": 1638,
      "şu": 1639,
      "LÜ": 1640,
      "endir": 1641,
      "does": 1642,
      "ğimi": 1643,
      "plan": 1644,
      "onlara": 1645,
      "alık": 1646,
      "olacak": 1647,
      "amay": 1648,
      "ject": 1649,
      "miyor": 1650,
      "stant": 1651,
      "ılan": 1652,
      "memnun": 1653,
      "Son": 1654,
      "lem": 1655,
      "seen": 1656,
      "suf": 1657,
      "taken": 1658,
      "duygu": 1659,
      "sı": 1660,
      "saç": 1661,
      "gidi": 1662,
      "sle": 1663,
      "karı": 1664,
      "At": 1665,
      "hun": 1666,
      "ich": 1667,
      "mean": 1668,
      "kadaş": 1669,
      "gördüm": 1670,
      "rıca": 1671,
      "hizmet": 1672,
      "Al": 1673,
      "kıyı": 1674,
      "yakın": 1675,
      "LÜM": 1676,
      "Rus": 1677,
      "ÖLÜM": 1678,
      "ğinden": 1679,
      "ıt": 1680,
      "sakin": 1681,
      "BÖLÜM": 1682,
      "If": 1683,
      "kün": 1684,
      "xt": 1685,
      "yum": 1686,
      "necess": 1687,
      "form": 1688,
      "hayal": 1689,
      "kısa": 1690,
      "eski": 1691,
      "HAP": 1692,
      "gerçekten": 1693,
      "AR": 1694,
      "bre": 1695,
      "koc": 1696,
      "run": 1697,
      "ire": 1698,
      "noti": 1699,
      "Then": 1700,
      "feeling": 1701,
      "AN": 1702,
      "CHAP": 1703,
      "ğine": 1704,
      "Şimdi": 1705,
      "arasında": 1706,
      "itu": 1707,
      "rov": 1708,
      "ween": 1709,
      "mother": 1710,
      "CHAPTER": 1711,
      "dok": 1712,
      "cho": 1713,
      "sure": 1714,
      "against": 1715,
      "pow": 1716,
      "sana": 1717,
      "imin": 1718,
      "fect": 1719,
      "ileri": 1720,
      "Bana": 1721,
      "gı": 1722,
      "öld": 1723,
      "ıntı": 1724,
      "dav": 1725,
      "yaşlı": 1726,
      "present": 1727,
      "His": 1728,
      "etraf": 1729,
      "neş": 1730,
      "ıldı": 1731,
      "St": 1732,
      "kaz": 1733,
      "ateş": 1734,
      "yaşam": 1735,
      "joy": 1736,
      "kli": 1737,
      "pat": 1738,
      "pain": 1739,
      "iled": 1740,
      "ışık": 1741,
      "between": 1742,
      "Onu": 1743,
      "question": 1744,
      "neredeyse": 1745,
      "col": 1746,
      "cap": 1747,
      "interest": 1748,
      "help": 1749,
      "care": 1750,
      "hold": 1751,
      "yere": 1752,
      "pal": 1753,
      "unut": 1754,
      "kabul": 1755,
      "Onun": 1756,
      "fik": 1757,
      "arkadaş": 1758,
      "ash": 1759,
      "stru": 1760,
      "ettim": 1761,
      "maktan": 1762,
      "kaldır": 1763,
      "burada": 1764,
      "olmadığını": 1765,
      "differ": 1766,
      "yin": 1767,
      "enden": 1768,
      "özellikle": 1769,
      "dden": 1770,
      "gs": 1771,
      "kâ": 1772,
      "kil": 1773,
      "girdi": 1774,
      "ül": 1775,
      "rying": 1776,
      "kapı": 1777,
      "Princess": 1778,
      "lul": 1779,
      "enough": 1780,
      "dele": 1781,
      "ceği": 1782,
      "diği": 1783,
      "whether": 1784,
      "biliyor": 1785,
      "hatta": 1786,
      "replied": 1787,
      "Miss": 1788,
      "dou": 1789,
      "leave": 1790,
      "kendimi": 1791,
      "buna": 1792,
      "mutlu": 1793,
      "sem": 1794,
      "sabah": 1795,
      "hissedi": 1796,
      "aşağı": 1797,
      "larından": 1798,
      "bekle": 1799,
      "Hiç": 1800,
      "kten": 1801,
      "ondan": 1802,
      "why": 1803,
      "ult": 1804,
      "world": 1805,
      "ledim": 1806,
      "certain": 1807,
      "ew": 1808,
      "ream": 1809,
      "akl": 1810,
      "ünden": 1811,
      "pose": 1812,
      "tuğ": 1813,
      "yüksek": 1814,
      "lim": 1815,
      "mark": 1816,
      "walk": 1817,
      "best": 1818,
      "nef": 1819,
      "next": 1820,
      "wanted": 1821,
      "Prenses": 1822,
      "TH": 1823,
      "bin": 1824,
      "soğ": 1825,
      "seni": 1826,
      "ayağa": 1827,
      "ağır": 1828,
      "thoughts": 1829,
      "muştu": 1830,
      "aw": 1831,
      "bas": 1832,
      "fle": 1833,
      "lum": 1834,
      "table": 1835,
      "ures": 1836,
      "ately": 1837,
      "sudden": 1838,
      "show": 1839,
      "ize": 1840,
      "field": 1841,
      "),": 1842,
      "EN": 1843,
      "listen": 1844,
      "sou": 1845,
      "anlay": 1846,
      "alone": 1847,
      "ihti": 1848,
      "Eğer": 1849,
      "bour": 1850,
      "tel": 1851,
      "andı": 1852,
      "lük": 1853,
      "sar": 1854,
      "tle": 1855,
      "gent": 1856,
      "lâ": 1857,
      "ton": 1858,
      "âlâ": 1859,
      "conf": 1860,
      "dolu": 1861,
      "fet": 1862,
      "sent": 1863,
      "imde": 1864,
      "por": 1865,
      "sk": 1866,
      "uc": 1867,
      "rather": 1868,
      "kah": 1869,
      "leştir": 1870,
      "vis": 1871,
      "ann": 1872,
      "ene": 1873,
      "tance": 1874,
      "masını": 1875,
      "father": 1876,
      "girl": 1877,
      "görünüyordu": 1878,
      "net": 1879,
      "sup": 1880,
      "coming": 1881,
      "Varenka": 1882,
      "reg": 1883,
      "yarat": 1884,
      "karşılaş": 1885,
      "hepsi": 1886,
      "already": 1887,
      "mel": 1888,
      "sign": 1889,
      "gönd": 1890,
      "appro": 1891,
      "geçir": 1892,
      "clear": 1893,
      "answered": 1894,
      "Bü": 1895,
      "ON": 1896,
      "Ona": 1897,
      "miz": 1898,
      "Mary": 1899,
      "ga": 1900,
      "really": 1901,
      "tiği": 1902,
      "sie": 1903,
      "ılı": 1904,
      "gerektiğini": 1905,
      "gener": 1906,
      "kurt": 1907,
      "ilik": 1908,
      "children": 1909,
      "yalnızca": 1910,
      "XX": 1911,
      "each": 1912,
      "deli": 1913,
      "live": 1914,
      "rose": 1915,
      "suç": 1916,
      "illed": 1917,
      "Mar": 1918,
      "kas": 1919,
      "yı": 1920,
      "ğünü": 1921,
      "ass": 1922,
      "tered": 1923,
      "sonunda": 1924,
      "yanına": 1925,
      "dık": 1926,
      "shore": 1927,
      "güven": 1928,
      "full": 1929,
      "answer": 1930,
      "country": 1931,
      "Fran": 1932,
      "hind": 1933,
      "ove": 1934,
      "sonu": 1935,
      "tri": 1936,
      "etme": 1937,
      "ended": 1938,
      "shed": 1939,
      "şeyin": 1940,
      "fair": 1941,
      "yukarı": 1942,
      "ired": 1943,
      "often": 1944,
      "years": 1945,
      "given": 1946,
      "uygun": 1947,
      "days": 1948,
      "Fair": 1949,
      "ith": 1950,
      "pur": 1951,
      "pren": 1952,
      "ilmiş": 1953,
      "lerden": 1954,
      "ents": 1955,
      "utan": 1956,
      "indeed": 1957,
      "fax": 1958,
      "söyleye": 1959,
      "Fairfax": 1960,
      "Ser": 1961,
      "ding": 1962,
      "lon": 1963,
      "ölüm": 1964,
      "ins": 1965,
      "lerinden": 1966,
      "ümkün": 1967,
      "bundan": 1968,
      "position": 1969,
      "sever": 1970,
      "gether": 1971,
      "benz": 1972,
      "değer": 1973,
      "böylece": 1974,
      "ations": 1975,
      "To": 1976,
      "tit": 1977,
      "alış": 1978,
      "together": 1979,
      "ross": 1980,
      "believe": 1981,
      "soğuk": 1982,
      "San": 1983,
      "cut": 1984,
      "either": 1985,
      "hâlâ": 1986,
      "öf": 1987,
      "point": 1988,
      "vin": 1989,
      "vur": 1990,
      "eder": 1991,
      "giz": 1992,
      "köy": 1993,
      "rahatsız": 1994,
      "oldukça": 1995,
      "Adele": 1996,
      "Fakat": 1997,
      "aha": 1998,
      "gid": 1999,
      "gone": 2000,
      "glan": 2001,
      "onların": 2002,
      "ants": 2003,
      "çıktı": 2004,
      "Mrs": 2005,
      "kit": 2006,
      "mit": 2007,
      "rek": 2008,
      "ünün": 2009,
      "rock": 2010,
      "gide": 2011,
      "cing": 2012,
      "fur": 2013,
      "tığını": 2014,
      "şüp": 2015,
      "ating": 2016,
      "step": 2017,
      "passed": 2018,
      "Neden": 2019,
      "alan": 2020,
      "dem": 2021,
      "görüş": 2022,
      "exce": 2023,
      "altında": 2024,
      "gre": 2025,
      "gul": 2026,
      "ıcı": 2027,
      "kav": 2028,
      "Bes": 2029,
      "Kend": 2030,
      "Svi": 2031,
      "bla": 2032,
      "dri": 2033,
      "keli": 2034,
      "vah": 2035,
      "amam": 2036,
      "others": 2037,
      "happy": 2038,
      "hast": 2039,
      "iy": 2040,
      "malar": 2041,
      "elini": 2042,
      "ached": 2043,
      "yeter": 2044,
      "aving": 2045,
      "yazh": 2046,
      "evening": 2047,
      "olmayan": 2048,
      "necessary": 2049,
      "Sviyazh": 2050,
      "My": 2051,
      "iyorum": 2052,
      "zev": 2053,
      "indi": 2054,
      "aba": 2055,
      "evid": 2056,
      "dost": 2057,
      "sesle": 2058,
      "Bessie": 2059,
      "Or": 2060,
      "des": 2061,
      "herhangi": 2062,
      "kept": 2063,
      "cevapladı": 2064,
      "mümkün": 2065,
      "ral": 2066,
      "attı": 2067,
      "madı": 2068,
      "menin": 2069,
      "appeared": 2070,
      "dar": 2071,
      "tığım": 2072,
      "ue": 2073,
      "isini": 2074,
      "parti": 2075,
      "tanı": 2076,
      "konusun": 2077,
      "ört": 2078,
      "Reed": 2079,
      "All": 2080,
      "cold": 2081,
      "dere": 2082,
      "İng": 2083,
      "need": 2084,
      "kiş": 2085,
      "convers": 2086,
      "ifad": 2087,
      "cially": 2088,
      "ıyordum": 2089,
      "minut": 2090,
      "İngil": 2091,
      "conversation": 2092,
      "gın": 2093,
      "naz": 2094,
      "wished": 2095,
      "çak": 2096,
      "onlar": 2097,
      "aydı": 2098,
      "char": 2099,
      "karıs": 2100,
      "tekne": 2101,
      "bette": 2102,
      "piece": 2103,
      "matter": 2104,
      "larıyla": 2105,
      "cted": 2106,
      "spir": 2107,
      "turning": 2108,
      "fall": 2109,
      "gra": 2110,
      "large": 2111,
      "haps": 2112,
      "verdim": 2113,
      "above": 2114,
      "riage": 2115,
      "few": 2116,
      "duğum": 2117,
      "Eng": 2118,
      "almost": 2119,
      "itting": 2120,
      "rup": 2121,
      "inç": 2122,
      "meet": 2123,
      "behind": 2124,
      "liği": 2125,
      "musun": 2126,
      "surpr": 2127,
      "öğren": 2128,
      "biç": 2129,
      "tra": 2130,
      "aldı": 2131,
      "seç": 2132,
      "etmeye": 2133,
      "resol": 2134,
      "ift": 2135,
      "ficul": 2136,
      "yerine": 2137,
      "malı": 2138,
      "pleasant": 2139,
      "difficul": 2140,
      "güçlü": 2141,
      "strange": 2142,
      "neşeli": 2143,
      "suddenly": 2144,
      "Daha": 2145,
      "sea": 2146,
      "beş": 2147,
      "law": 2148,
      "open": 2149,
      "arms": 2150,
      "foot": 2151,
      "natur": 2152,
      "gönder": 2153,
      "Be": 2154,
      "Sen": 2155,
      "ediyor": 2156,
      "gele": 2157,
      "derin": 2158,
      "işe": 2159,
      "rouble": 2160,
      "Sonra": 2161,
      "doub": 2162,
      "Ay": 2163,
      "vent": 2164,
      "başar": 2165,
      "tant": 2166,
      "adamın": 2167,
      "burg": 2168,
      "kimse": 2169,
      "cup": 2170,
      "sha": 2171,
      "yes": 2172,
      "added": 2173,
      "teh": 2174,
      "grow": 2175,
      "lığı": 2176,
      "sound": 2177,
      "sister": 2178,
      "dest": 2179,
      "oluş": 2180,
      "duk": 2181,
      "else": 2182,
      "laugh": 2183,
      "selves": 2184,
      "peri": 2185,
      "sizin": 2186,
      "mil": 2187,
      "pa": 2188,
      "rol": 2189,
      "ulaş": 2190,
      "ates": 2191,
      "dağ": 2192,
      "lif": 2193,
      "ımın": 2194,
      "oku": 2195,
      "ediyordu": 2196,
      "book": 2197,
      "söylü": 2198,
      "cesaret": 2199,
      "zorunda": 2200,
      "quiet": 2201,
      "tr": 2202,
      "tes": 2203,
      "tığı": 2204,
      "sho": 2205,
      "plain": 2206,
      "obser": 2207,
      "kullan": 2208,
      "Ger": 2209,
      "dam": 2210,
      "sit": 2211,
      "real": 2212,
      "Af": 2213,
      "Now": 2214,
      "pet": 2215,
      "heye": 2216,
      "desir": 2217,
      "ety": 2218,
      "continued": 2219,
      "Bur": 2220,
      "OR": 2221,
      "tried": 2222,
      "İş": 2223,
      "tik": 2224,
      "kişi": 2225,
      "making": 2226,
      "mah": 2227,
      "wards": 2228,
      "Ves": 2229,
      "lemek": 2230,
      "ırken": 2231,
      "lendi": 2232,
      "Veslov": 2233,
      "Di": 2234,
      "rema": 2235,
      "giy": 2236,
      "peas": 2237,
      "önünde": 2238,
      "Ancak": 2239,
      "leriyle": 2240,
      "ilerin": 2241,
      "ali": 2242,
      "umut": 2243,
      "entered": 2244,
      "gemi": 2245,
      "mesine": 2246,
      "Peters": 2247,
      "ring": 2248,
      "reason": 2249,
      "iling": 2250,
      "stra": 2251,
      "tuhaf": 2252,
      "soru": 2253,
      "Petersburg": 2254,
      "Do": 2255,
      "ging": 2256,
      "tum": 2257,
      "şe": 2258,
      "genel": 2259,
      "pleased": 2260,
      "soul": 2261,
      "glad": 2262,
      "çar": 2263,
      "recei": 2264,
      "ayan": 2265,
      "ils": 2266,
      "birbir": 2267,
      "master": 2268,
      "taking": 2269,
      "begin": 2270,
      "düşündüm": 2271,
      "wonder": 2272,
      "bad": 2273,
      "hall": 2274,
      "adığı": 2275,
      "ekledi": 2276,
      "view": 2277,
      "görev": 2278,
      "high": 2279,
      "Sviyazhsky": 2280,
      "Vas": 2281,
      "bal": 2282,
      "gaz": 2283,
      "key": 2284,
      "ors": 2285,
      "andan": 2286,
      "least": 2287,
      "zamanda": 2288,
      "case": 2289,
      "bazı": 2290,
      "sine": 2291,
      "çift": 2292,
      "remark": 2293,
      "among": 2294,
      "ımda": 2295,
      "mik": 2296,
      "fear": 2297,
      "başını": 2298,
      "fire": 2299,
      "expected": 2300,
      "Bet": 2301,
      "cus": 2302,
      "espe": 2303,
      "cked": 2304,
      "medim": 2305,
      "Elbette": 2306,
      "gentle": 2307,
      "ied": 2308,
      "uç": 2309,
      "şeye": 2310,
      "beside": 2311,
      "tep": 2312,
      "haykır": 2313,
      "uşak": 2314,
      "uzaklaş": 2315,
      "şüphe": 2316,
      "konusunda": 2317,
      "Kont": 2318,
      "iness": 2319,
      "asından": 2320,
      "olması": 2321,
      "bunlar": 2322,
      "ments": 2323,
      "Benim": 2324,
      "pleasure": 2325,
      "görünce": 2326,
      "For": 2327,
      "Ivan": 2328,
      "ited": 2329,
      "name": 2330,
      "yanında": 2331,
      "however": 2332,
      "fen": 2333,
      "past": 2334,
      "sall": 2335,
      "şöyle": 2336,
      "une": 2337,
      "become": 2338,
      "emin": 2339,
      "bunların": 2340,
      "henüz": 2341,
      "şaşır": 2342,
      "Count": 2343,
      "Ey": 2344,
      "Is": 2345,
      "lama": 2346,
      "ğe": 2347,
      "ory": 2348,
      "olmak": 2349,
      "duru": 2350,
      "elen": 2351,
      "esini": 2352,
      "işaret": 2353,
      "kayb": 2354,
      "anı": 2355,
      "onstant": 2356,
      "ayrıca": 2357,
      "yav": 2358,
      "lerde": 2359,
      "size": 2360,
      "wood": 2361,
      "önemli": 2362,
      "dark": 2363,
      "dört": 2364,
      "swe": 2365,
      "anlaş": 2366,
      "det": 2367,
      "elb": 2368,
      "erez": 2369,
      "ğimiz": 2370,
      "move": 2371,
      "impor": 2372,
      "covered": 2373,
      "davran": 2374,
      "beyaz": 2375,
      "kolay": 2376,
      "Serez": 2377,
      "diler": 2378,
      "ederek": 2379,
      "feet": 2380,
      "sonr": 2381,
      "parç": 2382,
      "kalar": 2383,
      "yani": 2384,
      "hope": 2385,
      "ihtiya": 2386,
      "Serezha": 2387,
      "impossible": 2388,
      "acqu": 2389,
      "yüzünde": 2390,
      "prince": 2391,
      "düzen": 2392,
      "ciddi": 2393,
      "kurtul": 2394,
      "since": 2395,
      "tab": 2396,
      "THE": 2397,
      "especially": 2398,
      "dle": 2399,
      "ground": 2400,
      "nur": 2401,
      "wall": 2402,
      "yas": 2403,
      "edil": 2404,
      "orm": 2405,
      "birinin": 2406,
      "div": 2407,
      "stay": 2408,
      "labour": 2409,
      "parlak": 2410,
      "zamanki": 2411,
      "sırada": 2412,
      "heyecan": 2413,
      "jo": 2414,
      "ph": 2415,
      "ze": 2416,
      "thir": 2417,
      "ayd": 2418,
      "start": 2419,
      "tive": 2420,
      "bot": 2421,
      "mekten": 2422,
      "lamak": 2423,
      "meyecek": 2424,
      "belli": 2425,
      "satis": 2426,
      "close": 2427,
      "quick": 2428,
      "bor": 2429,
      "four": 2430,
      "gth": 2431,
      "huz": 2432,
      "tart": 2433,
      "yel": 2434,
      "posed": 2435,
      "saying": 2436,
      "uyu": 2437,
      "ovna": 2438,
      "bring": 2439,
      "subject": 2440,
      "window": 2441,
      "power": 2442,
      "Bütün": 2443,
      "dak": 2444,
      "tin": 2445,
      "şet": 2446,
      "imag": 2447,
      "olmam": 2448,
      "yaban": 2449,
      "lerdi": 2450,
      "white": 2451,
      "allı": 2452,
      "halde": 2453,
      "small": 2454,
      "lish": 2455,
      "prom": 2456,
      "olsun": 2457,
      "ığın": 2458,
      "perhaps": 2459,
      "five": 2460,
      "ığımı": 2461,
      "hissediyordu": 2462,
      "zevk": 2463,
      "creat": 2464,
      "hte": 2465,
      "ks": 2466,
      "lendir": 2467,
      "siniz": 2468,
      "anlık": 2469,
      "oud": 2470,
      "person": 2471,
      "cial": 2472,
      "belki": 2473,
      "cular": 2474,
      "hızla": 2475,
      "fellow": 2476,
      "After": 2477,
      "hir": 2478,
      "ski": 2479,
      "heav": 2480,
      "heps": 2481,
      "sort": 2482,
      "horn": 2483,
      "açıkça": 2484,
      "hafif": 2485,
      "hissetti": 2486,
      "gülümseme": 2487,
      "dress": 2488,
      "different": 2489,
      "Betsy": 2490,
      "huzur": 2491,
      "blu": 2492,
      "cir": 2493,
      "gür": 2494,
      "kis": 2495,
      "ood": 2496,
      "sko": 2497,
      "yed": 2498,
      "zen": 2499,
      "island": 2500,
      "vel": 2501,
      "lek": 2502,
      "adi": 2503,
      "repe": 2504,
      "iliş": 2505,
      "immedi": 2506,
      "sesi": 2507,
      "ediyorum": 2508,
      "short": 2509,
      "bakarak": 2510,
      "yaret": 2511,
      "stopped": 2512,
      "kesinlikle": 2513,
      "expression": 2514,
      "nefret": 2515,
      "cou": 2516,
      "sim": 2517,
      "ara": 2518,
      "reli": 2519,
      "returned": 2520,
      "desp": 2521,
      "dair": 2522,
      "ımız": 2523,
      "year": 2524,
      "road": 2525,
      "odasına": 2526,
      "therefore": 2527,
      "spoke": 2528,
      "geçti": 2529,
      "doubt": 2530,
      "çiz": 2531,
      "alay": 2532,
      "amak": 2533,
      "terri": 2534,
      "üzün": 2535,
      "hayır": 2536,
      "haylov": 2537,
      "yaklaşık": 2538,
      "nazik": 2539,
      "Ag": 2540,
      "Beni": 2541,
      "ES": 2542,
      "fine": 2543,
      "vard": 2544,
      "death": 2545,
      "herkes": 2546,
      "götür": 2547,
      "terk": 2548,
      "cious": 2549,
      "comm": 2550,
      "dakika": 2551,
      "Baş": 2552,
      "iyle": 2553,
      "tone": 2554,
      "vol": 2555,
      "tom": 2556,
      "sec": 2557,
      "olay": 2558,
      "sight": 2559,
      "owed": 2560,
      "yerde": 2561,
      "getting": 2562,
      "lıkla": 2563,
      "longer": 2564,
      "evidently": 2565,
      "tow": 2566,
      "miştim": 2567,
      "güc": 2568,
      "karşıl": 2569,
      "mediğini": 2570,
      "yaptığı": 2571,
      "followed": 2572,
      "Frid": 2573,
      "Thorn": 2574,
      "ught": 2575,
      "became": 2576,
      "hav": 2577,
      "account": 2578,
      "within": 2579,
      "üzü": 2580,
      "boğ": 2581,
      "post": 2582,
      "yüzü": 2583,
      "korku": 2584,
      "chool": 2585,
      "Friday": 2586,
      "Thornfield": 2587,
      "oraya": 2588,
      "sey": 2589,
      "olabilir": 2590,
      "lived": 2591,
      "lerim": 2592,
      "happened": 2593,
      "çocuğ": 2594,
      "şaşkın": 2595,
      "bazen": 2596,
      "Hiçbir": 2597,
      "Bunun": 2598,
      "river": 2599,
      "--\"": 2600,
      "Artık": 2601,
      "family": 2602,
      "sleep": 2603,
      "cent": 2604,
      "fendi": 2605,
      "vak": 2606,
      "enter": 2607,
      "evlen": 2608,
      "büyü": 2609,
      "bunları": 2610,
      "uyla": 2611,
      "ziyaret": 2612,
      "prepar": 2613,
      "considered": 2614,
      "Alexis": 2615,
      "İşte": 2616,
      "Kat": 2617,
      "cat": 2618,
      "uf": 2619,
      "xed": 2620,
      "ond": 2621,
      "chi": 2622,
      "takip": 2623,
      "gereken": 2624,
      "mediği": 2625,
      "understood": 2626,
      "siness": 2627,
      "silah": 2628,
      "yüre": 2629,
      "ba": 2630,
      "dığı": 2631,
      "mid": 2632,
      "rak": 2633,
      "rım": 2634,
      "ıla": 2635,
      "ord": 2636,
      "state": 2637,
      "stair": 2638,
      "aptal": 2639,
      "lady": 2640,
      "geniş": 2641,
      "ortaya": 2642,
      "bahset": 2643,
      "kendisini": 2644,
      "immediately": 2645,
      "flu": 2646,
      "fact": 2647,
      "şap": 2648,
      "engel": 2649,
      "business": 2650,
      "ldü": 2651,
      "olduğum": 2652,
      "poor": 2653,
      "sizi": 2654,
      "zamanlar": 2655,
      "scow": 2656,
      "lass": 2657,
      "belirt": 2658,
      "ayrıl": 2659,
      "düny": 2660,
      "Ing": 2661,
      "trying": 2662,
      "dear": 2663,
      "olsay": 2664,
      "olacağını": 2665,
      "diz": 2666,
      "sahi": 2667,
      "ıştır": 2668,
      "eyi": 2669,
      "lanmış": 2670,
      "tekn": 2671,
      "daydı": 2672,
      "farklı": 2673,
      "kân": 2674,
      "Kap": 2675,
      "Not": 2676,
      "cr": 2677,
      "çat": 2678,
      "coat": 2679,
      "sanırım": 2680,
      "avallı": 2681,
      "verdiği": 2682,
      "women": 2683,
      "Sanırım": 2684,
      "köylü": 2685,
      "particular": 2686,
      "Cuma": 2687,
      "Of": 2688,
      "chair": 2689,
      "kek": 2690,
      "ğünde": 2691,
      "held": 2692,
      "offi": 2693,
      "deniz": 2694,
      "başına": 2695,
      "ctor": 2696,
      "themselves": 2697,
      "prak": 2698,
      "mutlul": 2699,
      "bizim": 2700,
      "Mosko": 2701,
      "change": 2702,
      "acele": 2703,
      "Fransız": 2704,
      "prens": 2705,
      "Bun": 2706,
      "cher": 2707,
      "dro": 2708,
      "doldu": 2709,
      "fr": 2710,
      "lit": 2711,
      "play": 2712,
      "arada": 2713,
      "thus": 2714,
      "ending": 2715,
      "uldu": 2716,
      "bildi": 2717,
      "biliyorum": 2718,
      "kalan": 2719,
      "says": 2720,
      "comfort": 2721,
      "duğunu": 2722,
      "dedim": 2723,
      "suffer": 2724,
      "Eyre": 2725,
      "ED": 2726,
      "Fren": 2727,
      "ges": 2728,
      "school": 2729,
      "asov": 2730,
      "olsa": 2731,
      "durdu": 2732,
      "dayan": 2733,
      "layan": 2734,
      "kurtar": 2735,
      "bize": 2736,
      "strong": 2737,
      "tavır": 2738,
      "Ingram": 2739,
      "Moskova": 2740,
      "French": 2741,
      "dread": 2742,
      "dream": 2743,
      "pay": 2744,
      "ror": 2745,
      "ğinin": 2746,
      "deh": 2747,
      "yorlardı": 2748,
      "lic": 2749,
      "tic": 2750,
      "ağaç": 2751,
      "ifade": 2752,
      "moved": 2753,
      "fied": 2754,
      "güneş": 2755,
      "ayıf": 2756,
      "horse": 2757,
      "talking": 2758,
      "appear": 2759,
      "Moscow": 2760,
      "Veslovsky": 2761,
      "yavaş": 2762,
      "ınca": 2763,
      "rel": 2764,
      "oken": 2765,
      "yemek": 2766,
      "söyledim": 2767,
      "yoksa": 2768,
      "afterwards": 2769,
      "dinner": 2770,
      "opini": 2771,
      "thinking": 2772,
      "noticed": 2773,
      "Kral": 2774,
      "cum": 2775,
      "kuş": 2776,
      "sof": 2777,
      "atten": 2778,
      "second": 2779,
      "nok": 2780,
      "bear": 2781,
      "liyordu": 2782,
      "sive": 2783,
      "liked": 2784,
      "respect": 2785,
      "sevinç": 2786,
      "calm": 2787,
      "gülümseyerek": 2788,
      "dehşet": 2789,
      "bright": 2790,
      "cl": 2791,
      "ham": 2792,
      "mine": 2793,
      "yık": 2794,
      "İl": 2795,
      "inqu": 2796,
      "meş": 2797,
      "bizi": 2798,
      "keş": 2799,
      "dolaş": 2800,
      "true": 2801,
      "kıyıya": 2802,
      "cam": 2803,
      "rüz": 2804,
      "sevi": 2805,
      "haber": 2806,
      "lerimi": 2807,
      "boz": 2808,
      "yüksel": 2809,
      "hanım": 2810,
      "ilgili": 2811,
      "usual": 2812,
      "drawing": 2813,
      "fresh": 2814,
      "tartış": 2815,
      "Tek": 2816,
      "kut": 2817,
      "late": 2818,
      "zayıf": 2819,
      "relat": 2820,
      "itself": 2821,
      "imkân": 2822,
      "manner": 2823,
      "serv": 2824,
      "dışında": 2825,
      "Prens": 2826,
      "ctions": 2827,
      "dred": 2828,
      "gle": 2829,
      "kayn": 2830,
      "pap": 2831,
      "pret": 2832,
      "sitting": 2833,
      "İN": 2834,
      "sti": 2835,
      "ching": 2836,
      "raid": 2837,
      "üzere": 2838,
      "yaptı": 2839,
      "ğimde": 2840,
      "ettiği": 2841,
      "sürekli": 2842,
      "money": 2843,
      "Russi": 2844,
      "break": 2845,
      "İngiliz": 2846,
      "Aman": 2847,
      "benden": 2848,
      "fast": 2849,
      "gal": 2850,
      "kon": 2851,
      "kir": 2852,
      "ener": 2853,
      "alet": 2854,
      "akıl": 2855,
      "soh": 2856,
      "danger": 2857,
      "comp": 2858,
      "yarı": 2859,
      "seeing": 2860,
      "carriage": 2861,
      "yürüdü": 2862,
      "hundred": 2863,
      ".]": 2864,
      "Han": 2865,
      "ome": 2866,
      "trouble": 2867,
      "za": 2868,
      "aniden": 2869,
      "yecek": 2870,
      "six": 2871,
      "suc": 2872,
      "ously": 2873,
      "known": 2874,
      "sevg": 2875,
      "sinir": 2876,
      "sense": 2877,
      "bağırdı": 2878,
      "ches": 2879,
      "sıra": 2880,
      "garip": 2881,
      "Alexand": 2882,
      "chief": 2883,
      "aile": 2884,
      "fright": 2885,
      "çı": 2886,
      "arri": 2887,
      "imden": 2888,
      "gözlerini": 2889,
      "dolayı": 2890,
      "stead": 2891,
      "kalktı": 2892,
      "black": 2893,
      "minutes": 2894,
      "Ak": 2895,
      "pu": 2896,
      "altı": 2897,
      "olas": 2898,
      "cep": 2899,
      "doing": 2900,
      "lost": 2901,
      "ards": 2902,
      "lamaya": 2903,
      "yourself": 2904,
      "haykırdı": 2905,
      "One": 2906,
      "cried": 2907,
      "toprak": 2908,
      "urken": 2909,
      "görmek": 2910,
      "emp": 2911,
      "kaldı": 2912,
      "ock": 2913,
      "ısını": 2914,
      "avasov": 2915,
      "yola": 2916,
      "olmasına": 2917,
      "idea": 2918,
      "visit": 2919,
      "English": 2920,
      "Katavasov": 2921,
      "sohbet": 2922,
      "Lydi": 2923,
      "Nich": 2924,
      "eat": 2925,
      "iety": 2926,
      "sum": 2927,
      "tığında": 2928,
      "lear": 2929,
      "unt": 2930,
      "deki": 2931,
      "laim": 2932,
      "yah": 2933,
      "azından": 2934,
      "aff": 2935,
      "kendiler": 2936,
      "getirdi": 2937,
      "direct": 2938,
      "colle": 2939,
      "Lydia": 2940,
      "Nicholas": 2941,
      "blo": 2942,
      "çoğ": 2943,
      "şef": 2944,
      "arran": 2945,
      "isinin": 2946,
      "neither": 2947,
      "ender": 2948,
      "bled": 2949,
      "isted": 2950,
      "pict": 2951,
      "AL": 2952,
      "En": 2953,
      "coun": 2954,
      "arken": 2955,
      "along": 2956,
      "leyi": 2957,
      "elik": 2958,
      "lips": 2959,
      "çekti": 2960,
      "oturdu": 2961,
      "tehlik": 2962,
      "Mik": 2963,
      "flow": 2964,
      "kleri": 2965,
      "ök": 2966,
      "şem": 2967,
      "şark": 2968,
      "aket": 2969,
      "yorsunuz": 2970,
      "living": 2971,
      "tears": 2972,
      "muhte": 2973,
      "şeyden": 2974,
      "zihn": 2975,
      "bon": 2976,
      "cil": 2977,
      "gri": 2978,
      "mese": 2979,
      "meyen": 2980,
      "deep": 2981,
      "rap": 2982,
      "indeki": 2983,
      "lıyordu": 2984,
      "occup": 2985,
      "ages": 2986,
      "ıyım": 2987,
      "Kontes": 2988,
      "Yaş": 2989,
      "cağ": 2990,
      "flo": 2991,
      "ghed": 2992,
      "tou": 2993,
      "wild": 2994,
      "ydı": 2995,
      "alth": 2996,
      "means": 2997,
      "duvar": 2998,
      "elde": 2999,
      "eved": 3000,
      "geliyor": 3001,
      "afraid": 3002,
      "carried": 3003,
      "sessizce": 3004,
      "human": 3005,
      "condition": 3006,
      "waiting": 3007,
      "auti": 3008,
      "kelime": 3009,
      "Countess": 3010,
      "Rom": 3011,
      "drew": 3012,
      "pul": 3013,
      "spo": 3014,
      "ase": 3015,
      "advan": 3016,
      "desc": 3017,
      "birini": 3018,
      "olup": 3019,
      "içine": 3020,
      "miyordum": 3021,
      "doğal": 3022,
      "yüzünden": 3023,
      "istiyordu": 3024,
      "hoşlan": 3025,
      "smiled": 3026,
      "towards": 3027,
      "ign": 3028,
      "ls": 3029,
      "alım": 3030,
      "ths": 3031,
      "ake": 3032,
      "former": 3033,
      "şeyle": 3034,
      "gelip": 3035,
      "canlı": 3036,
      "landı": 3037,
      "smiling": 3038,
      "sandal": 3039,
      "nature": 3040,
      "çevir": 3041,
      "friends": 3042,
      "pencer": 3043,
      "yumuşak": 3044,
      "vahşi": 3045,
      "imkânsız": 3046,
      "bri": 3047,
      "ivers": 3048,
      "rink": 3049,
      "tas": 3050,
      "öp": 3051,
      "İn": 3052,
      "alçak": 3053,
      "mey": 3054,
      "def": 3055,
      "amadı": 3056,
      "whis": 3057,
      "gover": 3058,
      "ısın": 3059,
      "sometimes": 3060,
      "yüzünü": 3061,
      "ING": 3062,
      "easy": 3063,
      "IS": 3064,
      "Tur": 3065,
      "kaş": 3066,
      "çağ": 3067,
      "ery": 3068,
      "edecek": 3069,
      "adaki": 3070,
      "birçok": 3071,
      "esinin": 3072,
      "aşk": 3073,
      "quar": 3074,
      "opened": 3075,
      "olurdu": 3076,
      "Gerçek": 3077,
      "Mikhaylov": 3078,
      "VII": 3079,
      "ive": 3080,
      "lış": 3081,
      "tesi": 3082,
      "itir": 3083,
      "dep": 3084,
      "olabile": 3085,
      "ceed": 3086,
      "diven": 3087,
      "hava": 3088,
      "ıktan": 3089,
      "gem": 3090,
      "conc": 3091,
      "ress": 3092,
      "yapmak": 3093,
      "masına": 3094,
      "knowled": 3095,
      "beri": 3096,
      "kendime": 3097,
      "dressed": 3098,
      "sıcak": 3099,
      "front": 3100,
      "ather": 3101,
      "hin": 3102,
      "jud": 3103,
      "opp": 3104,
      "ref": 3105,
      "birden": 3106,
      "eleri": 3107,
      "ized": 3108,
      "indim": 3109,
      "thousand": 3110,
      "hale": 3111,
      "bekledi": 3112,
      "finished": 3113,
      "hızlı": 3114,
      "öldür": 3115,
      "Diana": 3116,
      "With": 3117,
      "cre": 3118,
      "sw": 3119,
      "irmi": 3120,
      "return": 3121,
      "bulam": 3122,
      "esine": 3123,
      "saf": 3124,
      "ney": 3125,
      "başlam": 3126,
      "işi": 3127,
      "comple": 3128,
      "vice": 3129,
      "geldiğini": 3130,
      "mezdi": 3131,
      "insanlar": 3132,
      "olmadan": 3133,
      "remembered": 3134,
      "general": 3135,
      "Hay": 3136,
      "cross": 3137,
      "mir": 3138,
      "piş": 3139,
      "rü": 3140,
      "ying": 3141,
      "alıp": 3142,
      "beauti": 3143,
      "buk": 3144,
      "lerken": 3145,
      "loved": 3146,
      "başladım": 3147,
      "ture": 3148,
      "wenty": 3149,
      "seems": 3150,
      "saldır": 3151,
      "Tanrım": 3152,
      "yağmur": 3153,
      "resolved": 3154,
      "şefkat": 3155,
      "Ch": 3156,
      "Seni": 3157,
      "bast": 3158,
      "bread": 3159,
      "fan": 3160,
      "pati": 3161,
      "şid": 3162,
      "ingly": 3163,
      "yorlar": 3164,
      "action": 3165,
      "affair": 3166,
      "yanlış": 3167,
      "gözleri": 3168,
      "pass": 3169,
      "changed": 3170,
      "tatlı": 3171,
      "natural": 3172,
      "acquain": 3173,
      "filled": 3174,
      "sok": 3175,
      "habit": 3176,
      "supp": 3177,
      "yaptım": 3178,
      "ısına": 3179,
      "konuda": 3180,
      "acağı": 3181,
      "bilecek": 3182,
      "yolcul": 3183,
      "ürül": 3184,
      "yeniden": 3185,
      "lığa": 3186,
      "stairs": 3187,
      "Kor": 3188,
      "Wh": 3189,
      "mou": 3190,
      "nut": 3191,
      "pol": 3192,
      "shad": 3193,
      "isine": 3194,
      "deal": 3195,
      "dudak": 3196,
      "beye": 3197,
      "siyah": 3198,
      "aşır": 3199,
      "gest": 3200,
      "tıp": 3201,
      "izi": 3202,
      "başlad": 3203,
      "poin": 3204,
      "during": 3205,
      "rary": 3206,
      "mamış": 3207,
      "gülümsedi": 3208,
      "regard": 3209,
      "İlk": 3210,
      "Bar": 3211,
      "Böyle": 3212,
      "lığını": 3213,
      "ley": 3214,
      "etk": 3215,
      "aşağ": 3216,
      "firm": 3217,
      "However": 3218,
      "itude": 3219,
      "struck": 3220,
      "umutsuz": 3221,
      "opinion": 3222,
      "tirdi": 3223,
      "zı": 3224,
      "ayla": 3225,
      "temiz": 3226,
      "doctor": 3227,
      "olduğundan": 3228,
      "gibiydi": 3229,
      "sordum": 3230,
      "prov": 3231,
      "proper": 3232,
      "ettiğini": 3233,
      "özgür": 3234,
      "durumda": 3235,
      "eğit": 3236,
      "ceğimi": 3237,
      "married": 3238,
      "lığın": 3239,
      "terrible": 3240,
      "cere": 3241,
      "evet": 3242,
      "iğ": 3243,
      "lin": 3244,
      "tw": 3245,
      "tfen": 3246,
      "twenty": 3247,
      "sebe": 3248,
      "edile": 3249,
      "tea": 3250,
      "karak": 3251,
      "geliyordu": 3252,
      "alarını": 3253,
      "gördüğüm": 3254,
      "earth": 3255,
      "writ": 3256,
      "wrong": 3257,
      "deliver": 3258,
      "yabancı": 3259,
      "gülümsemeyle": 3260,
      "nokt": 3261,
      "Gol": 3262,
      "LE": 3263,
      "aat": 3264,
      "cri": 3265,
      "crow": 3266,
      "dil": 3267,
      "je": 3268,
      "port": 3269,
      "zavallı": 3270,
      "alın": 3271,
      "memiş": 3272,
      "dec": 3273,
      "duran": 3274,
      "larımı": 3275,
      "ılmaz": 3276,
      "shout": 3277,
      "ısında": 3278,
      "duydu": 3279,
      "layarak": 3280,
      "pray": 3281,
      "dönüş": 3282,
      "abildi": 3283,
      "please": 3284,
      "zorluk": 3285,
      "sürük": 3286,
      "speaking": 3287,
      "conscious": 3288,
      "hardly": 3289,
      "sweet": 3290,
      "quickly": 3291,
      "AS": 3292,
      "Tem": 3293,
      "klerini": 3294,
      "leyen": 3295,
      "amaya": 3296,
      "yev": 3297,
      "kadının": 3298,
      "tane": 3299,
      "eceğini": 3300,
      "yakal": 3301,
      "oyn": 3302,
      "standing": 3303,
      "tahmin": 3304,
      "elbis": 3305,
      "Constant": 3306,
      "Don": 3307,
      "Ev": 3308,
      "King": 3309,
      "Let": 3310,
      "Po": 3311,
      "Sad": 3312,
      "Th": 3313,
      "emek": 3314,
      "fakat": 3315,
      "hon": 3316,
      "kom": 3317,
      "lında": 3318,
      "rit": 3319,
      "send": 3320,
      "çağır": 3321,
      "öv": 3322,
      "daugh": 3323,
      "laid": 3324,
      "olduğumu": 3325,
      "exam": 3326,
      "occas": 3327,
      "effort": 3328,
      "gerekli": 3329,
      "benimle": 3330,
      "eşit": 3331,
      "except": 3332,
      "received": 3333,
      "beginning": 3334,
      "important": 3335,
      "Sadece": 3336,
      "sul": 3337,
      "war": 3338,
      "ydu": 3339,
      "şak": 3340,
      "aten": 3341,
      "elinde": 3342,
      "ury": 3343,
      "nem": 3344,
      "forgot": 3345,
      "ided": 3346,
      "ladies": 3347,
      "yanın": 3348,
      "ıyorsun": 3349,
      "landır": 3350,
      "sevgi": 3351,
      "dönerek": 3352,
      "letter": 3353,
      "horses": 3354,
      "Having": 3355,
      "Low": 3356,
      "cast": 3357,
      "gur": 3358,
      "glass": 3359,
      "num": 3360,
      "sını": 3361,
      "vaz": 3362,
      "Öyle": 3363,
      "stren": 3364,
      "esinde": 3365,
      "verici": 3366,
      "aşık": 3367,
      "whose": 3368,
      "eceğim": 3369,
      "duydum": 3370,
      "geçirdi": 3371,
      "kıv": 3372,
      "obli": 3373,
      "kitap": 3374,
      ",--": 3375,
      "ray": 3376,
      "zun": 3377,
      "almak": 3378,
      "vere": 3379,
      "lıyor": 3380,
      "oured": 3381,
      "week": 3382,
      "worth": 3383,
      "lenmiş": 3384,
      "bitir": 3385,
      "biliyordum": 3386,
      "değiştir": 3387,
      "fikir": 3388,
      "desire": 3389,
      "Vasenka": 3390,
      "nurse": 3391,
      "Constantine": 3392,
      "cru": 3393,
      "dığını": 3394,
      "fing": 3395,
      "hill": 3396,
      "yay": 3397,
      "yirmi": 3398,
      "erkek": 3399,
      "reco": 3400,
      "stri": 3401,
      "forget": 3402,
      "race": 3403,
      "perfect": 3404,
      "figu": 3405,
      "pping": 3406,
      "söylemek": 3407,
      "istiyorum": 3408,
      "reply": 3409,
      "savaş": 3410,
      "yaratık": 3411,
      "derece": 3412,
      "repeated": 3413,
      "tıpkı": 3414,
      "Biz": 3415,
      "king": 3416,
      "rul": 3417,
      "​​": 3418,
      "throw": 3419,
      "ities": 3420,
      "dead": 3421,
      "decid": 3422,
      "impres": 3423,
      "aman": 3424,
      "yapar": 3425,
      "göl": 3426,
      "başta": 3427,
      "merak": 3428,
      "happiness": 3429,
      "fortune": 3430,
      "zarar": 3431,
      "captain": 3432,
      "Hadi": 3433,
      "Nik": 3434,
      "bly": 3435,
      "illi": 3436,
      "bire": 3437,
      "etki": 3438,
      "okul": 3439,
      "tere": 3440,
      "board": 3441,
      "yapmaya": 3442,
      "katıl": 3443,
      "misin": 3444,
      "dikkatle": 3445,
      "yemeği": 3446,
      "gidip": 3447,
      "straight": 3448,
      "aydın": 3449,
      "town": 3450,
      "beautiful": 3451,
      "Golen": 3452,
      "Yar": 3453,
      "ago": 3454,
      "nar": 3455,
      "tran": 3456,
      "ining": 3457,
      "anim": 3458,
      "arz": 3459,
      "atha": 3460,
      "leye": 3461,
      "okum": 3462,
      "düşman": 3463,
      "yapıl": 3464,
      "indir": 3465,
      "taki": 3466,
      "presence": 3467,
      "scar": 3468,
      "everybody": 3469,
      "insanların": 3470,
      "silence": 3471,
      "istediğini": 3472,
      "certainly": 3473,
      "Ivanovna": 3474,
      "Agatha": 3475,
      "laimed": 3476,
      "eight": 3477,
      "ika": 3478,
      "mağ": 3479,
      "rin": 3480,
      "ang": 3481,
      "ably": 3482,
      "karanlık": 3483,
      "gelince": 3484,
      "itted": 3485,
      "uydu": 3486,
      "duyduğu": 3487,
      "buldum": 3488,
      "posses": 3489,
      "sıkı": 3490,
      "passion": 3491,
      "eğil": 3492,
      "türlü": 3493,
      "kısm": 3494,
      "müştü": 3495,
      "hours": 3496,
      "suppose": 3497,
      "steps": 3498,
      "Ste": 3499,
      "brow": 3500,
      "cand": 3501,
      "drink": 3502,
      "kaya": 3503,
      "nal": 3504,
      "os": 3505,
      "pon": 3506,
      "ping": 3507,
      "wise": 3508,
      "İç": 3509,
      "hes": 3510,
      "ordin": 3511,
      "leme": 3512,
      "reas": 3513,
      "refle": 3514,
      "delight": 3515,
      "stud": 3516,
      "düm": 3517,
      "idence": 3518,
      "soy": 3519,
      "ığına": 3520,
      "başkalar": 3521,
      "bilmiyorum": 3522,
      "gelir": 3523,
      "emedi": 3524,
      "ikay": 3525,
      "teklif": 3526,
      "burn": 3527,
      "feelings": 3528,
      "öğret": 3529,
      "trees": 3530,
      "kardeşinin": 3531,
      "charac": 3532,
      "surprised": 3533,
      "Ayrıca": 3534,
      "Temple": 3535,
      "Sana": 3536,
      "kem": 3537,
      "tiler": 3538,
      "vil": 3539,
      "çay": 3540,
      "inst": 3541,
      "ens": 3542,
      "reached": 3543,
      "elli": 3544,
      "eti": 3545,
      "tanım": 3546,
      "prof": 3547,
      "ıyorlardı": 3548,
      "vetli": 3549,
      "konuşmaya": 3550,
      "giriş": 3551,
      "bağır": 3552,
      "bağlı": 3553,
      "göründü": 3554,
      "yatak": 3555,
      "trem": 3556,
      "fırsat": 3557,
      "decided": 3558,
      "Le": 3559,
      "böl": 3560,
      "cük": 3561,
      "İvan": 3562,
      "ones": 3563,
      "bulu": 3564,
      "que": 3565,
      "madım": 3566,
      "ikna": 3567,
      "experi": 3568,
      "agree": 3569,
      "common": 3570,
      "açtı": 3571,
      "duğunda": 3572,
      "tained": 3573,
      "aching": 3574,
      "nedenle": 3575,
      "yeterince": 3576,
      "whisper": 3577,
      "gurur": 3578,
      "Here": 3579,
      "Helen": 3580,
      "Tam": 3581,
      "fıs": 3582,
      "try": 3583,
      "çiç": 3584,
      "ties": 3585,
      "veren": 3586,
      "kaf": 3587,
      "faith": 3588,
      "karşılık": 3589,
      "talih": 3590,
      "düşünüyordu": 3591,
      "Some": 3592,
      "observed": 3593,
      "Brock": 3594,
      "gay": 3595,
      "grew": 3596,
      "hit": 3597,
      "şim": 3598,
      "stu": 3599,
      "sions": 3600,
      "rich": 3601,
      "kürek": 3602,
      "host": 3603,
      "knowing": 3604,
      "ishing": 3605,
      "hurst": 3606,
      "several": 3607,
      "peasants": 3608,
      "Brockle": 3609,
      "Dur": 3610,
      "Mason": 3611,
      "Par": 3612,
      "Yak": 3613,
      "mük": 3614,
      "vs": 3615,
      "çıl": 3616,
      "ency": 3617,
      "educ": 3618,
      "amed": 3619,
      "idly": 3620,
      "ows": 3621,
      "ığından": 3622,
      "ardından": 3623,
      "emmel": 3624,
      "mention": 3625,
      "asker": 3626,
      "ığımda": 3627,
      "closed": 3628,
      "garden": 3629,
      "meliyim": 3630,
      "doktor": 3631,
      "started": 3632,
      "mükemmel": 3633,
      "Doğ": 3634,
      "Se": 3635,
      "iyet": 3636,
      "pit": 3637,
      "pity": 3638,
      "simp": 3639,
      "çab": 3640,
      "ğün": 3641,
      "atı": 3642,
      "dile": 3643,
      "box": 3644,
      "ement": 3645,
      "olduğuna": 3646,
      "zamandır": 3647,
      "gül": 3648,
      "laştır": 3649,
      "bling": 3650,
      "avo": 3651,
      "yarım": 3652,
      "Oblonski": 3653,
      "niyet": 3654,
      "kırm": 3655,
      "sonuç": 3656,
      "besides": 3657,
      "ilişk": 3658,
      "attention": 3659,
      "Brocklehurst": 3660,
      "Me": 3661,
      "Rivers": 3662,
      "Where": 3663,
      "gan": 3664,
      "kür": 3665,
      "killed": 3666,
      "spar": 3667,
      "tup": 3668,
      "vour": 3669,
      "onda": 3670,
      "amadım": 3671,
      "bes": 3672,
      "ented": 3673,
      "yeten": 3674,
      "acağımı": 3675,
      "contrary": 3676,
      "listened": 3677,
      "coura": 3678,
      "soft": 3679,
      "Gerçekten": 3680,
      "iğren": 3681,
      "Soc": 3682,
      "fed": 3683,
      "line": 3684,
      "pound": 3685,
      "tın": 3686,
      "tender": 3687,
      "yedi": 3688,
      "çöz": 3689,
      "ğince": 3690,
      "istek": 3691,
      "thi": 3692,
      "ayarak": 3693,
      "ilgi": 3694,
      "accor": 3695,
      "owing": 3696,
      "shing": 3697,
      "concer": 3698,
      "ümü": 3699,
      "aların": 3700,
      "uyandır": 3701,
      "geçen": 3702,
      "hasta": 3703,
      "buraya": 3704,
      "olmadığı": 3705,
      "öldü": 3706,
      "further": 3707,
      "third": 3708,
      "satisfied": 3709,
      "kaynak": 3710,
      "Akşam": 3711,
      "knowledge": 3712,
      "Come": 3713,
      "ime": 3714,
      "eline": 3715,
      "formed": 3716,
      "yaptık": 3717,
      "uzan": 3718,
      "ikinci": 3719,
      "uyum": 3720,
      "distance": 3721,
      "serious": 3722,
      "ıyorlar": 3723,
      "yolu": 3724,
      "cede": 3725,
      "kızar": 3726,
      "kardeşi": 3727,
      "plant": 3728,
      "kazan": 3729,
      "Society": 3730,
      "fit": 3731,
      "ker": 3732,
      "lılık": 3733,
      "mıyordu": 3734,
      "ts": 3735,
      "İyi": 3736,
      "ıya": 3737,
      "edin": 3738,
      "asındaki": 3739,
      "demek": 3740,
      "seki": 3741,
      "ıkları": 3742,
      "geliş": 3743,
      "weak": 3744,
      "değilim": 3745,
      "bileceği": 3746,
      "sett": 3747,
      "placed": 3748,
      "çalıştı": 3749,
      "arming": 3750,
      "elerin": 3751,
      "tempt": 3752,
      "fikr": 3753,
      "difficulty": 3754,
      "Burada": 3755,
      "olsaydı": 3756,
      "occasion": 3757,
      "recogn": 3758,
      "GE": 3759,
      "kam": 3760,
      "kab": 3761,
      "maları": 3762,
      "tree": 3763,
      "hesa": 3764,
      "aldım": 3765,
      "adığını": 3766,
      "ayrı": 3767,
      "sequ": 3768,
      "amıyordu": 3769,
      "diğini": 3770,
      "across": 3771,
      "caught": 3772,
      "ereye": 3773,
      "morrow": 3774,
      "çekici": 3775,
      "mayacak": 3776,
      "dire": 3777,
      "zorun": 3778,
      "kendisinin": 3779,
      "silent": 3780,
      "interrup": 3781,
      "istediği": 3782,
      "Alek": 3783,
      "belirsiz": 3784,
      "nerede": 3785,
      "pieces": 3786,
      "sahibi": 3787,
      "strength": 3788,
      "çiçek": 3789,
      "Dün": 3790,
      "Every": 3791,
      "jum": 3792,
      "yıld": 3793,
      "memişti": 3794,
      "olmuş": 3795,
      "die": 3796,
      "beyon": 3797,
      "şeyleri": 3798,
      "meyeceğini": 3799,
      "rising": 3800,
      "broken": 3801,
      "watch": 3802,
      "hatırladı": 3803,
      "sağlam": 3804,
      "exclaimed": 3805,
      "duruyordu": 3806,
      "beyond": 3807,
      "DA": 3808,
      "bay": 3809,
      "kus": 3810,
      "rate": 3811,
      "anti": 3812,
      "aded": 3813,
      "memor": 3814,
      "olmaz": 3815,
      "olmuştu": 3816,
      "olmalı": 3817,
      "lying": 3818,
      "neck": 3819,
      "uzat": 3820,
      "işte": 3821,
      "cket": 3822,
      "sizce": 3823,
      "lıktan": 3824,
      "thank": 3825,
      "sıkıntı": 3826,
      "kırık": 3827,
      "altına": 3828,
      "clock": 3829,
      "oğl": 3830,
      "yaptığım": 3831,
      "stranger": 3832,
      "Lowood": 3833,
      "Steve": 3834,
      "Düş": 3835,
      "Hat": 3836,
      "bs": 3837,
      "yse": 3838,
      "zil": 3839,
      "anladı": 3840,
      "ilan": 3841,
      "del": 3842,
      "liydi": 3843,
      "gius": 3844,
      "dog": 3845,
      "main": 3846,
      "tanış": 3847,
      "ikisi": 3848,
      "çıkardı": 3849,
      "rank": 3850,
      "fixed": 3851,
      "yüzüne": 3852,
      "reading": 3853,
      "stop": 3854,
      "beklen": 3855,
      "ative": 3856,
      "kararlı": 3857,
      "koşul": 3858,
      "dürüst": 3859,
      "kasvetli": 3860,
      "Sergius": 3861,
      "zengin": 3862,
      "middle": 3863,
      "conclu": 3864,
      "figure": 3865,
      "character": 3866,
      "kırmızı": 3867,
      "sekiz": 3868,
      ".”": 3869,
      "Gen": 3870,
      "Yan": 3871,
      "Yet": 3872,
      "bol": 3873,
      "gâ": 3874,
      "glo": 3875,
      "mere": 3876,
      "none": 3877,
      "İR": 3878,
      "anx": 3879,
      "enjoy": 3880,
      "seat": 3881,
      "bey": 3882,
      "idir": 3883,
      "mektup": 3884,
      "düşünmeye": 3885,
      "onunda": 3886,
      "worse": 3887,
      "alara": 3888,
      "effect": 3889,
      "gözyaş": 3890,
      "uştur": 3891,
      "mamıştı": 3892,
      "haklı": 3893,
      "truth": 3894,
      "daughter": 3895,
      "Bo": 3896,
      "Com": 3897,
      "Göz": 3898,
      "Uzun": 3899,
      "Who": 3900,
      "hing": 3901,
      "hüzün": 3902,
      "kr": 3903,
      "kuz": 3904,
      "kinden": 3905,
      "ush": 3906,
      "thor": 3907,
      "liber": 3908,
      "bula": 3909,
      "eksi": 3910,
      "vermek": 3911,
      "nez": 3912,
      "giving": 3913,
      "karısı": 3914,
      "app": 3915,
      "kalb": 3916,
      "coş": 3917,
      "aged": 3918,
      "princi": 3919,
      "kapat": 3920,
      "bıraktı": 3921,
      "bilirim": 3922,
      "yönet": 3923,
      "holding": 3924,
      "peasant": 3925,
      "çarp": 3926,
      "miktar": 3927,
      "sonraki": 3928,
      "prepared": 3929,
      "akıllı": 3930,
      "Sh": 3931,
      "dun": 3932,
      "fil": 3933,
      "sınız": 3934,
      "wet": 3935,
      "İsp": 3936,
      "ances": 3937,
      "irken": 3938,
      "ading": 3939,
      "stir": 3940,
      "stret": 3941,
      "cham": 3942,
      "eyim": 3943,
      "tering": 3944,
      "fee": 3945,
      "fection": 3946,
      "alarında": 3947,
      "vich": 3948,
      "söylen": 3949,
      "stern": 3950,
      "halinde": 3951,
      "abilirdi": 3952,
      "spect": 3953,
      "görünüyor": 3954,
      "benzer": 3955,
      "surprise": 3956,
      "remained": 3957,
      "remarked": 3958,
      "circum": 3959,
      "religi": 3960,
      "mutluluk": 3961,
      "Mikhaylovna": 3962,
      "pişman": 3963,
      ",”": 3964,
      "Hem": 3965,
      "gy": 3966,
      "mır": 3967,
      "mum": 3968,
      "uyan": 3969,
      "ering": 3970,
      "thes": 3971,
      "ıklarını": 3972,
      "sick": 3973,
      "yetiş": 3974,
      "kaptan": 3975,
      "gözlem": 3976,
      "sözünü": 3977,
      "tekrarladı": 3978,
      "görünen": 3979,
      "eğlen": 3980,
      "uzakta": 3981,
      "nearly": 3982,
      "dressing": 3983,
      "düşünüyorum": 3984,
      "ordered": 3985,
      "hung": 3986,
      "pale": 3987,
      "walked": 3988,
      "showed": 3989,
      "demir": 3990,
      "divor": 3991,
      "aceleyle": 3992,
      "meşgul": 3993,
      "relations": 3994,
      "bastır": 3995,
      "honour": 3996,
      "!...": 3997,
      "Ma": 3998,
      "TI": 3999,
      "aut": 4000,
      "breat": 4001,
      "dry": 4002,
      "ost": 4003,
      "Çoc": 4004,
      "Ön": 4005,
      "şil": 4006,
      "ator": 4007,
      "ayım": 4008,
      "duced": 4009,
      "hissed": 4010,
      "lock": 4011,
      "onest": 4012,
      "peace": 4013,
      "ders": 4014,
      "lıyorum": 4015,
      "Ann": 4016,
      "günü": 4017,
      "iliyor": 4018,
      "ıldığını": 4019,
      "olursa": 4020,
      "bulunan": 4021,
      "hizmetç": 4022,
      "purpose": 4023,
      "giderek": 4024,
      "glance": 4025,
      "ürültü": 4026,
      "yevna": 4027,
      "settled": 4028,
      "Konu": 4029,
      "ME": 4030,
      "cin": 4031,
      "honest": 4032,
      "mist": 4033,
      "wis": 4034,
      "çeşit": 4035,
      "adığım": 4036,
      "ekmek": 4037,
      "entir": 4038,
      "evde": 4039,
      "eydi": 4040,
      "bility": 4041,
      "takdir": 4042,
      "hayran": 4043,
      "kov": 4044,
      "gerekiyordu": 4045,
      "kapıyı": 4046,
      "Only": 4047,
      "altın": 4048,
      "hurried": 4049,
      "kalkıp": 4050,
      "meaning": 4051,
      "biliyorsun": 4052,
      "hepsini": 4053,
      "dreadful": 4054,
      "frightened": 4055,
      "picture": 4056,
      "şarkı": 4057,
      "şiddet": 4058,
      "From": 4059,
      "Kö": 4060,
      "beden": 4061,
      "fal": 4062,
      "fun": 4063,
      "mac": 4064,
      "ns": 4065,
      "erdi": 4066,
      "als": 4067,
      "thin": 4068,
      "seek": 4069,
      "elle": 4070,
      "lie": 4071,
      "neşeyle": 4072,
      "içe": 4073,
      "big": 4074,
      "kenar": 4075,
      "party": 4076,
      "ısıyla": 4077,
      "güv": 4078,
      "favour": 4079,
      "bakıyordu": 4080,
      "duyu": 4081,
      "layıp": 4082,
      "çüncü": 4083,
      "bekli": 4084,
      "mission": 4085,
      "ayrıntı": 4086,
      "early": 4087,
      "notice": 4088,
      "shoot": 4089,
      "ihtiyaç": 4090,
      "yelken": 4091,
      "şapk": 4092,
      "company": 4093,
      "blood": 4094,
      "entirely": 4095,
      "00": 4096,
      "Ab": 4097,
      "Baz": 4098,
      "Du": 4099,
      "Gör": 4100,
      "Just": 4101,
      "Mat": 4102,
      "Nasıl": 4103,
      "jour": 4104,
      "phy": 4105,
      "train": 4106,
      "şiş": 4107,
      "ilt": 4108,
      "separ": 4109,
      "station": 4110,
      "noble": 4111,
      "aced": 4112,
      "abroad": 4113,
      "note": 4114,
      "tee": 4115,
      "ıltı": 4116,
      "shot": 4117,
      "ürken": 4118,
      "--'": 4119,
      "lanan": 4120,
      "sorry": 4121,
      "fici": 4122,
      "layacak": 4123,
      "karşısında": 4124,
      "comes": 4125,
      "üzerinden": 4126,
      "dinle": 4127,
      "fazlas": 4128,
      "kaybet": 4129,
      "hafta": 4130,
      "larımız": 4131,
      "bank": 4132,
      "gelecek": 4133,
      "shame": 4134,
      "ordinary": 4135,
      "thick": 4136,
      "ball": 4137,
      "kıy": 4138,
      "odan": 4139,
      "aslında": 4140,
      "isin": 4141,
      "leaving": 4142,
      "adın": 4143,
      "adır": 4144,
      "imli": 4145,
      "iment": 4146,
      "shut": 4147,
      "outside": 4148,
      "izlen": 4149,
      "görmeye": 4150,
      "yiyecek": 4151,
      "tuk": 4152,
      "spent": 4153,
      "nedeniyle": 4154,
      "istiyor": 4155,
      "grass": 4156,
      "görüyorum": 4157,
      "hizmetçi": 4158,
      "hastal": 4159,
      "creature": 4160,
      "particularly": 4161,
      "mouth": 4162,
      "karakter": 4163,
      "scarce": 4164,
      "Go": 4165,
      "Yash": 4166,
      "ds": 4167,
      "fl": 4168,
      "gürültü": 4169,
      "hikay": 4170,
      "ibar": 4171,
      "kış": 4172,
      "mama": 4173,
      "nit": 4174,
      "pir": 4175,
      "rab": 4176,
      "rits": 4177,
      "iri": 4178,
      "aly": 4179,
      "leep": 4180,
      "elim": 4181,
      "raş": 4182,
      "giana": 4183,
      "rust": 4184,
      "exact": 4185,
      "sayı": 4186,
      "yerleş": 4187,
      "length": 4188,
      "compan": 4189,
      "anyone": 4190,
      "mesinin": 4191,
      "kaçın": 4192,
      "chest": 4193,
      "eşy": 4194,
      "Georgiana": 4195,
      "kıskan": 4196,
      "amayacağını": 4197,
      "dokun": 4198,
      "titre": 4199,
      "tığımda": 4200,
      "Russian": 4201,
      "Yashvin": 4202,
      "Bak": 4203,
      "Besi": 4204,
      "Have": 4205,
      "PR": 4206,
      "Prov": 4207,
      "fond": 4208,
      "gitt": 4209,
      "pun": 4210,
      "taz": 4211,
      "ina": 4212,
      "eng": 4213,
      "edildi": 4214,
      "iron": 4215,
      "isa": 4216,
      "lean": 4217,
      "recolle": 4218,
      "unpleasant": 4219,
      "amın": 4220,
      "verme": 4221,
      "chur": 4222,
      "nah": 4223,
      "yapacak": 4224,
      "uzattı": 4225,
      "coach": 4226,
      "hayvan": 4227,
      "spite": 4228,
      "duyg": 4229,
      "köş": 4230,
      "köpek": 4231,
      "adamı": 4232,
      "yolda": 4233,
      "dönüp": 4234,
      "zihin": 4235,
      "reddet": 4236,
      "prehen": 4237,
      "hissettim": 4238,
      "baby": 4239,
      "running": 4240,
      "utanç": 4241,
      "derecede": 4242,
      "shook": 4243,
      "gentleman": 4244,
      "simple": 4245,
      "doldur": 4246,
      "pretty": 4247,
      "summer": 4248,
      "muhteşem": 4249,
      "obliged": 4250,
      "circumst": 4251,
      "Er": 4252,
      "OF": 4253,
      "bask": 4254,
      "gg": 4255,
      "hil": 4256,
      "kum": 4257,
      "pes": 4258,
      "sli": 4259,
      "slight": 4260,
      "zal": 4261,
      "çer": 4262,
      "çuk": 4263,
      "irrit": 4264,
      "ality": 4265,
      "mefendi": 4266,
      "requ": 4267,
      "esca": 4268,
      "ımdan": 4269,
      "urt": 4270,
      "raised": 4271,
      "ığa": 4272,
      "bilirdi": 4273,
      "düştü": 4274,
      "kalab": 4275,
      "discus": 4276,
      "halk": 4277,
      "bileceğim": 4278,
      "gitmek": 4279,
      "gördüğü": 4280,
      "bahç": 4281,
      "cheer": 4282,
      "uğu": 4283,
      "uğraş": 4284,
      "bulunduğu": 4285,
      "ONS": 4286,
      "divorce": 4287,
      "Bel": 4288,
      "Ex": 4289,
      "Mont": 4290,
      "ez": 4291,
      "süz": 4292,
      "sürü": 4293,
      "ölü": 4294,
      "şunu": 4295,
      "inv": 4296,
      "anne": 4297,
      "health": 4298,
      "ertesi": 4299,
      "oradan": 4300,
      "adını": 4301,
      "olmal": 4302,
      "died": 4303,
      "yorgun": 4304,
      "liar": 4305,
      "sabır": 4306,
      "forward": 4307,
      "super": 4308,
      "denize": 4309,
      "ağın": 4310,
      "üzgün": 4311,
      "conne": 4312,
      "bilg": 4313,
      "parmak": 4314,
      "morency": 4315,
      "sizlik": 4316,
      "tüfe": 4317,
      "gerekir": 4318,
      "merdiven": 4319,
      "kanıt": 4320,
      "sıradan": 4321,
      "diğeri": 4322,
      "clothes": 4323,
      "months": 4324,
      "corn": 4325,
      "duygusu": 4326,
      "listening": 4327,
      "drive": 4328,
      "difficult": 4329,
      "learn": 4330,
      "yetenek": 4331,
      "Montmorency": 4332,
      "Gel": 4333,
      "binin": 4334,
      "bound": 4335,
      "balık": 4336,
      "fas": 4337,
      "kne": 4338,
      "kill": 4339,
      "rand": 4340,
      "rac": 4341,
      "vü": 4342,
      "İL": 4343,
      "instant": 4344,
      "ınt": 4345,
      "birine": 4346,
      "els": 4347,
      "ellerini": 4348,
      "ured": 4349,
      "neh": 4350,
      "ağan": 4351,
      "omuz": 4352,
      "oldum": 4353,
      "apa": 4354,
      "kalın": 4355,
      "explain": 4356,
      "fault": 4357,
      "uyku": 4358,
      "knows": 4359,
      "yarar": 4360,
      "bulut": 4361,
      "imizi": 4362,
      "önemsiz": 4363,
      "Orada": 4364,
      "despair": 4365,
      "ufak": 4366,
      "ceeded": 4367,
      "Aleksand": 4368,
      "church": 4369,
      "Az": 4370,
      "Frou": 4371,
      "OL": 4372,
      "UR": 4373,
      "dığım": 4374,
      "ms": 4375,
      "pis": 4376,
      "tall": 4377,
      "yoğ": 4378,
      "Çün": 4379,
      "inten": 4380,
      "enced": 4381,
      "asleep": 4382,
      "ising": 4383,
      "itions": 4384,
      "dua": 4385,
      "noon": 4386,
      "gez": 4387,
      "ulmuş": 4388,
      "ağac": 4389,
      "tage": 4390,
      "bildiği": 4391,
      "yapmam": 4392,
      "hood": 4393,
      "saygı": 4394,
      "bileceğini": 4395,
      "handsome": 4396,
      "gust": 4397,
      "hanı": 4398,
      "risti": 4399,
      "oyun": 4400,
      "happen": 4401,
      "incisi": 4402,
      "yüce": 4403,
      "Arkad": 4404,
      "sym": 4405,
      "ceived": 4406,
      "luğu": 4407,
      "approached": 4408,
      "grown": 4409,
      "volun": 4410,
      "çoğu": 4411,
      "vazgeç": 4412,
      "study": 4413,
      "çılgın": 4414,
      "Çünkü": 4415,
      "Mu": 4416,
      "ST": 4417,
      "cade": 4418,
      "döne": 4419,
      "igh": 4420,
      "lor": 4421,
      "rent": 4422,
      "snow": 4423,
      "wa": 4424,
      "çığ": 4425,
      "ömer": 4426,
      "onay": 4427,
      "onlarla": 4428,
      "orman": 4429,
      "asız": 4430,
      "meant": 4431,
      "aking": 4432,
      "stone": 4433,
      "elinden": 4434,
      "safe": 4435,
      "rote": 4436,
      "forgive": 4437,
      "sic": 4438,
      "evl": 4439,
      "amaç": 4440,
      "maid": 4441,
      "moon": 4442,
      "yerleştir": 4443,
      "lendid": 4444,
      "spring": 4445,
      "koyu": 4446,
      "viol": 4447,
      "aven": 4448,
      "ettiğim": 4449,
      "yaşadığı": 4450,
      "efend": 4451,
      "küçüm": 4452,
      "bahar": 4453,
      "boyun": 4454,
      "sözleri": 4455,
      "sözcük": 4456,
      "ginç": 4457,
      "corner": 4458,
      "tahl": 4459,
      "famili": 4460,
      "interested": 4461,
      "basit": 4462,
      "lumbağ": 4463,
      "spirit": 4464,
      "oluştur": 4465,
      "laughing": 4466,
      "birdenbire": 4467,
      "affairs": 4468,
      "fısıld": 4469,
      "mırıld": 4470,
      "voluntar": 4471,
      "ömert": 4472,
      "!--": 4473,
      "AT": 4474,
      "IV": 4475,
      "Que": 4476,
      "bacak": 4477,
      "cömert": 4478,
      "fra": 4479,
      "loud": 4480,
      "mini": 4481,
      "yüş": 4482,
      "İtal": 4483,
      "şan": 4484,
      "inf": 4485,
      "intim": 4486,
      "influ": 4487,
      "ased": 4488,
      "legs": 4489,
      "melen": 4490,
      "olamaz": 4491,
      "liver": 4492,
      "liğini": 4493,
      "verand": 4494,
      "bilmiyordu": 4495,
      "para": 4496,
      "parça": 4497,
      "uzu": 4498,
      "ısır": 4499,
      "meyeceğim": 4500,
      "uygul": 4501,
      "yakışık": 4502,
      "kaplı": 4503,
      "mesinden": 4504,
      "çalışıyordu": 4505,
      "putting": 4506,
      "istemiyorum": 4507,
      "sake": 4508,
      "düşünceler": 4509,
      "batak": 4510,
      "kulu": 4511,
      "abilecek": 4512,
      "belirgin": 4513,
      "questions": 4514,
      "waited": 4515,
      "tuğu": 4516,
      "glanced": 4517,
      "demand": 4518,
      "grace": 4519,
      "England": 4520,
      "heavy": 4521,
      "tavırla": 4522,
      "rüzgar": 4523,
      "success": 4524,
      "arrange": 4525,
      "forgotten": 4526,
      "Besides": 4527,
      "Hır": 4528,
      "Küç": 4529,
      "Stahl": 4530,
      "Your": 4531,
      "ceden": 4532,
      "free": 4533,
      "ori": 4534,
      "olmaya": 4535,
      "inip": 4536,
      "edici": 4537,
      "göm": 4538,
      "eyen": 4539,
      "eyle": 4540,
      "pecu": 4541,
      "odaya": 4542,
      "These": 4543,
      "result": 4544,
      "emir": 4545,
      "sesini": 4546,
      "teki": 4547,
      "konuyu": 4548,
      "distur": 4549,
      "prove": 4550,
      "sterday": 4551,
      "sevindim": 4552,
      "seniz": 4553,
      "horror": 4554,
      "durumu": 4555,
      "mül": 4556,
      "nearer": 4557,
      "olduklarını": 4558,
      "ilgil": 4559,
      "clearly": 4560,
      "gather": 4561,
      "İngiltere": 4562,
      "spirits": 4563,
      "meeting": 4564,
      "cherbat": 4565,
      "arrived": 4566,
      "occupied": 4567,
      "aşırı": 4568,
      "shouted": 4569,
      "interrupted": 4570,
      "kusur": 4571,
      "Shcherbat": 4572,
      "Çocuk": 4573,
      "yoğun": 4574,
      "peculiar": 4575,
      "?...": 4576,
      "Hall": 4577,
      "Mer": 4578,
      "bbi": 4579,
      "idi": 4580,
      "kayı": 4581,
      "rum": 4582,
      "viz": 4583,
      "warm": 4584,
      "İki": 4585,
      "ilginç": 4586,
      "sefer": 4587,
      "bugün": 4588,
      "hers": 4589,
      "içten": 4590,
      "sov": 4591,
      "ılmıştı": 4592,
      "odasında": 4593,
      "sonsuz": 4594,
      "whatever": 4595,
      "mıştım": 4596,
      "splendid": 4597,
      "lediler": 4598,
      "gerektiği": 4599,
      "kapının": 4600,
      "clean": 4601,
      "çıkarıp": 4602,
      "matters": 4603,
      "bably": 4604,
      "savun": 4605,
      "frequ": 4606,
      "tavsi": 4607,
      "boşan": 4608,
      "difference": 4609,
      "suçlu": 4610,
      "öfkey": 4611,
      "kurtuluş": 4612,
      "Hannah": 4613,
      "candle": 4614,
      "according": 4615,
      "Konuş": 4616,
      "Küçük": 4617,
      "Ac": 4618,
      "Per": 4619,
      "Senin": 4620,
      "puk": 4621,
      "slow": 4622,
      "tonu": 4623,
      "ution": 4624,
      "wrote": 4625,
      "ydü": 4626,
      "aring": 4627,
      "edim": 4628,
      "alous": 4629,
      "ison": 4630,
      "lemeye": 4631,
      "unable": 4632,
      "deta": 4633,
      "acti": 4634,
      "soci": 4635,
      "ılması": 4636,
      "ızda": 4637,
      "caused": 4638,
      "yapacağım": 4639,
      "occur": 4640,
      "baktım": 4641,
      "sayg": 4642,
      "durak": 4643,
      "mayan": 4644,
      "duyul": 4645,
      "geçmiş": 4646,
      "ortun": 4647,
      "ortasında": 4648,
      "esiyle": 4649,
      "toplum": 4650,
      "bilirsin": 4651,
      "soluk": 4652,
      "sürdür": 4653,
      "talked": 4654,
      "larımın": 4655,
      "tatmin": 4656,
      "easily": 4657,
      "AND": 4658,
      "palto": 4659,
      "Mari": 4660,
      "kitab": 4661,
      "söylüyor": 4662,
      "belirtti": 4663,
      "rüzgâ": 4664,
      "servant": 4665,
      "descri": 4666,
      "fancy": 4667,
      "While": 4668,
      "sınıf": 4669,
      "impression": 4670,
      "simply": 4671,
      "Queen": 4672,
      ".)": 4673,
      ".—": 4674,
      "Kil": 4675,
      "Papa": 4676,
      "bell": 4677,
      "huy": 4678,
      "ron": 4679,
      "wound": 4680,
      "yandan": 4681,
      "ıç": 4682,
      "anlad": 4683,
      "lecek": 4684,
      "meas": 4685,
      "ford": 4686,
      "evine": 4687,
      "sug": 4688,
      "test": 4689,
      "ağz": 4690,
      "feat": 4691,
      "kaldım": 4692,
      "çıkan": 4693,
      "seslendi": 4694,
      "hot": 4695,
      "latter": 4696,
      "pressed": 4697,
      "possi": 4698,
      "oturma": 4699,
      "oturuyordu": 4700,
      "tıktan": 4701,
      "hoşnut": 4702,
      "soldi": 4703,
      "marriage": 4704,
      "hurt": 4705,
      "excited": 4706,
      "carefully": 4707,
      "ashamed": 4708,
      "vahş": 4709,
      "minute": 4710,
      "quietly": 4711,
      "creatures": 4712,
      "Hayat": 4713,
      "Christi": 4714,
      "education": 4715,
      "avoid": 4716,
      "iğrenç": 4717,
      "ritsky": 4718,
      "yakışıklı": 4719,
      "Konstant": 4720,
      "Tav": 4721,
      "bow": 4722,
      "bag": 4723,
      "frow": 4724,
      "ggs": 4725,
      "path": 4726,
      "wed": 4727,
      "ötes": 4728,
      "aram": 4729,
      "arch": 4730,
      "repro": 4731,
      "acım": 4732,
      "iddi": 4733,
      "önüne": 4734,
      "consequ": 4735,
      "ümüş": 4736,
      "masının": 4737,
      "perde": 4738,
      "lantı": 4739,
      "Hep": 4740,
      "zamanlarda": 4741,
      "later": 4742,
      "çalışma": 4743,
      "geriye": 4744,
      "sırt": 4745,
      "gerçekleş": 4746,
      "sürede": 4747,
      "broad": 4748,
      "miles": 4749,
      "koştu": 4750,
      "yürüyüş": 4751,
      "supper": 4752,
      "yeterli": 4753,
      "karısının": 4754,
      "teknenin": 4755,
      "bildiğim": 4756,
      "beyefendi": 4757,
      "number": 4758,
      "angry": 4759,
      "nezaket": 4760,
      "Konstantin": 4761,
      "Kom": 4762,
      "RE": 4763,
      "cen": 4764,
      "cik": 4765,
      "cry": 4766,
      "ff": 4767,
      "mıyor": 4768,
      "nereye": 4769,
      "oper": 4770,
      "situ": 4771,
      "ydim": 4772,
      "üçüncü": 4773,
      "şük": 4774,
      "instead": 4775,
      "araya": 4776,
      "adama": 4777,
      "resi": 4778,
      "reck": 4779,
      "ilmesi": 4780,
      "duty": 4781,
      "dull": 4782,
      "verir": 4783,
      "rovich": 4784,
      "force": 4785,
      "ute": 4786,
      "giyin": 4787,
      "suya": 4788,
      "ılmad": 4789,
      "tened": 4790,
      "weather": 4791,
      "sorun": 4792,
      "öylesine": 4793,
      "belong": 4794,
      "asking": 4795,
      "hang": 4796,
      "rooms": 4797,
      "düşündüğüm": 4798,
      "adanın": 4799,
      "yuvar": 4800,
      "bara": 4801,
      "carry": 4802,
      "marry": 4803,
      "istediğim": 4804,
      "endiş": 4805,
      "excit": 4806,
      "suffici": 4807,
      "girls": 4808,
      "ederim": 4809,
      "grey": 4810,
      "tanıdık": 4811,
      "remain": 4812,
      "secret": 4813,
      "cloud": 4814,
      "Tekrar": 4815,
      "VIII": 4816,
      "courage": 4817,
      "Belki": 4818,
      "vücu": 4819,
      "kayıt": 4820,
      "Car": 4821,
      "Gün": 4822,
      "Span": 4823,
      "VE": 4824,
      "Ven": 4825,
      "Will": 4826,
      "bent": 4827,
      "equ": 4828,
      "kıp": 4829,
      "involuntar": 4830,
      "onur": 4831,
      "onlardan": 4832,
      "amıyorum": 4833,
      "ets": 4834,
      "suy": 4835,
      "ısız": 4836,
      "çekme": 4837,
      "rance": 4838,
      "mediğim": 4839,
      "Karde": 4840,
      "kuru": 4841,
      "offered": 4842,
      "çalışarak": 4843,
      "istiyordum": 4844,
      "imize": 4845,
      "abileceğim": 4846,
      "food": 4847,
      "expressed": 4848,
      "ease": 4849,
      "powder": 4850,
      "etrafında": 4851,
      "söyleyecek": 4852,
      "hanımefendi": 4853,
      "Gates": 4854,
      "Kız": 4855,
      "Keş": 4856,
      "Lon": 4857,
      "Las": 4858,
      "Tamam": 4859,
      "winter": 4860,
      "yana": 4861,
      "çit": 4862,
      "inj": 4863,
      "ira": 4864,
      "rebbi": 4865,
      "itary": 4866,
      "ston": 4867,
      "lau": 4868,
      "lağ": 4869,
      "lerce": 4870,
      "yesterday": 4871,
      "umun": 4872,
      "umda": 4873,
      "azar": 4874,
      "ruble": 4875,
      "using": 4876,
      "emret": 4877,
      "pocket": 4878,
      "affection": 4879,
      "pers": 4880,
      "kesti": 4881,
      "sanız": 4882,
      "değildir": 4883,
      "yarış": 4884,
      "iliyordu": 4885,
      "konuşma": 4886,
      "satın": 4887,
      "oturup": 4888,
      "hig": 4889,
      "yatağa": 4890,
      "broke": 4891,
      "koydu": 4892,
      "samimi": 4893,
      "Alman": 4894,
      "rovna": 4895,
      "interesting": 4896,
      "öfk": 4897,
      "gizli": 4898,
      "kaşlarını": 4899,
      "depend": 4900,
      "başlamıştı": 4901,
      "memory": 4902,
      "küçümse": 4903,
      "öfkeyle": 4904,
      "suggest": 4905,
      "Gateshead": 4906,
      "BİR": 4907,
      "Can": 4908,
      "Dar": 4909,
      "IR": 4910,
      "Madam": 4911,
      "TO": 4912,
      "Yine": 4913,
      "cası": 4914,
      "fut": 4915,
      "fif": 4916,
      "lığım": 4917,
      "moun": 4918,
      "nek": 4919,
      "treat": 4920,
      "ual": 4921,
      "vation": 4922,
      "İk": 4923,
      "Şu": 4924,
      "şö": 4925,
      "asıyla": 4926,
      "leyin": 4927,
      "akrab": 4928,
      "stup": 4929,
      "beaut": 4930,
      "esinden": 4931,
      "vermedi": 4932,
      "lah": 4933,
      "sail": 4934,
      "nest": 4935,
      "edip": 4936,
      "termin": 4937,
      "suit": 4938,
      "odadan": 4939,
      "bilmiyordum": 4940,
      "hate": 4941,
      "emo": 4942,
      "madığını": 4943,
      "kendim": 4944,
      "çıktım": 4945,
      "masaya": 4946,
      "cking": 4947,
      "moving": 4948,
      "hovs": 4949,
      "ples": 4950,
      "anyol": 4951,
      "hala": 4952,
      "yaşay": 4953,
      "ishche": 4954,
      "gitme": 4955,
      "sırasında": 4956,
      "örtü": 4957,
      "sürece": 4958,
      "lığına": 4959,
      "tatsız": 4960,
      "savages": 4961,
      "nefes": 4962,
      "fallen": 4963,
      "vardır": 4964,
      "ılacak": 4965,
      "suffering": 4966,
      "jealous": 4967,
      "eğlence": 4968,
      "breath": 4969,
      "circumstances": 4970,
      "familiar": 4971,
      "hovskoy": 4972,
      "Am": 4973,
      "Av": 4974,
      "Aş": 4975,
      "Eli": 4976,
      "Kı": 4977,
      "bb": 4978,
      "bölüm": 4979,
      "cha": 4980,
      "cro": 4981,
      "ebilir": 4982,
      "fend": 4983,
      "fayd": 4984,
      "nad": 4985,
      "ole": 4986,
      "tent": 4987,
      "türü": 4988,
      "zz": 4989,
      "çim": 4990,
      "çök": 4991,
      "arasına": 4992,
      "aklı": 4993,
      "olağan": 4994,
      "davet": 4995,
      "etmiş": 4996,
      "esk": 4997,
      "idor": 4998,
      "terci": 4999,
      "karış": 5000,
      "resmi": 5001,
      "exer": 5002,
      "zamanı": 5003,
      "zamankinden": 5004,
      "ilerini": 5005,
      "lamış": 5006,
      "doğrul": 5007,
      "durup": 5008,
      "yarg": 5009,
      "shoulder": 5010,
      "nice": 5011,
      "burst": 5012,
      "ots": 5013,
      "tired": 5014,
      "görevi": 5015,
      "devlet": 5016,
      "boyn": 5017,
      "kansız": 5018,
      "passing": 5019,
      "intro": 5020,
      "mesiyle": 5021,
      "istiyorsun": 5022,
      "mücade": 5023,
      "yaklaştı": 5024,
      "üstü": 5025,
      "dünyanın": 5026,
      "ölç": 5027,
      "tuğunu": 5028,
      "flesh": 5029,
      "fetch": 5030,
      "sonuc": 5031,
      "Serpuk": 5032,
      "oluşan": 5033,
      "importance": 5034,
      "yüzündeki": 5035,
      "Kraliçe": 5036,
      "servants": 5037,
      "paper": 5038,
      "İnsan": 5039,
      "cruel": 5040,
      "fingers": 5041,
      "villa": 5042,
      "chamber": 5043,
      "Keşke": 5044,
      "Laska": 5045,
      "future": 5046,
      "beauty": 5047,
      "Serpukhovskoy": 5048,
      "By": 5049,
      "Bundan": 5050,
      "Kim": 5051,
      "Mas": 5052,
      "Never": 5053,
      "Sab": 5054,
      "Sonunda": 5055,
      "UN": 5056,
      "hol": 5057,
      "hid": 5058,
      "leden": 5059,
      "nine": 5060,
      "although": 5061,
      "iller": 5062,
      "olo": 5063,
      "olabildi": 5064,
      "duya": 5065,
      "stre": 5066,
      "stream": 5067,
      "storm": 5068,
      "noise": 5069,
      "lies": 5070,
      "veriyordu": 5071,
      "miyim": 5072,
      "evi": 5073,
      "kağ": 5074,
      "apart": 5075,
      "önceden": 5076,
      "kadarıyla": 5077,
      "resim": 5078,
      "ısının": 5079,
      "lütfen": 5080,
      "gerekiyor": 5081,
      "adamlar": 5082,
      "önceki": 5083,
      "plained": 5084,
      "Biraz": 5085,
      "dikten": 5086,
      "minnet": 5087,
      "mıyorum": 5088,
      "fortun": 5089,
      "imizin": 5090,
      "attack": 5091,
      "fool": 5092,
      "drawn": 5093,
      "following": 5094,
      "kapıya": 5095,
      "aklına": 5096,
      "signif": 5097,
      "generally": 5098,
      "alışkan": 5099,
      "green": 5100,
      "gentlemen": 5101,
      "imagine": 5102,
      "promised": 5103,
      "commun": 5104,
      "seydim": 5105,
      "vakti": 5106,
      "emplo": 5107,
      "kendilerine": 5108,
      "itiraf": 5109,
      "pointing": 5110,
      "sebep": 5111,
      "Önce": 5112,
      "wishes": 5113,
      "çeşitli": 5114,
      "odanın": 5115,
      "ONSK": 5116,
      "Christian": 5117,
      "kayıtsız": 5118,
      "De": 5119,
      "Dmit": 5120,
      "Git": 5121,
      "LER": 5122,
      "Mada": 5123,
      "Ro": 5124,
      "VI": 5125,
      "ager": 5126,
      "gor": 5127,
      "kno": 5128,
      "kaba": 5129,
      "nı": 5130,
      "vat": 5131,
      "zer": 5132,
      "çor": 5133,
      "çam": 5134,
      "İs": 5135,
      "Şap": 5136,
      "aralarında": 5137,
      "asyon": 5138,
      "almaya": 5139,
      "adm": 5140,
      "uni": 5141,
      "rah": 5142,
      "teen": 5143,
      "tesel": 5144,
      "üzde": 5145,
      "ıza": 5146,
      "izing": 5147,
      "görme": 5148,
      "başında": 5149,
      "sanat": 5150,
      "çekil": 5151,
      "spread": 5152,
      "duyduğum": 5153,
      "landığını": 5154,
      "merha": 5155,
      "oppos": 5156,
      "tains": 5157,
      "miser": 5158,
      "altından": 5159,
      "uğr": 5160,
      "sürdü": 5161,
      "dikkatli": 5162,
      "orders": 5163,
      "fırtın": 5164,
      "trust": 5165,
      "wishing": 5166,
      "aldat": 5167,
      "keeping": 5168,
      "walking": 5169,
      "telaş": 5170,
      "Büyük": 5171,
      "footman": 5172,
      "destro": 5173,
      "lifted": 5174,
      "movement": 5175,
      "secure": 5176,
      "Yaşlı": 5177,
      "geminin": 5178,
      "opportun": 5179,
      "Golenishche": 5180,
      "buluş": 5181,
      "anxious": 5182,
      "İspanyol": 5183,
      "şiddetli": 5184,
      "scarcely": 5185,
      "sayıda": 5186,
      "Arkadyevna": 5187,
      "lumbağa": 5188,
      "Hıristi": 5189,
      "Shcherbatsky": 5190,
      "Madame": 5191,
      "Golenishchev": 5192,
      "Gü": 5193,
      "Gris": 5194,
      "Sah": 5195,
      "dığında": 5196,
      "giden": 5197,
      "ier": 5198,
      "ucu": 5199,
      "vag": 5200,
      "ats": 5201,
      "itibar": 5202,
      "build": 5203,
      "tide": 5204,
      "lav": 5205,
      "laz": 5206,
      "rushed": 5207,
      "çoktan": 5208,
      "yip": 5209,
      "usunu": 5210,
      "parçal": 5211,
      "poz": 5212,
      "extre": 5213,
      "çıkıp": 5214,
      "kest": 5215,
      "alarına": 5216,
      "konusu": 5217,
      "şekkür": 5218,
      "günah": 5219,
      "belirdi": 5220,
      "serbest": 5221,
      "yakında": 5222,
      "acağına": 5223,
      "keskin": 5224,
      "offer": 5225,
      "söyledik": 5226,
      "kendisinden": 5227,
      "tarafına": 5228,
      "insanın": 5229,
      "brid": 5230,
      "sağlık": 5231,
      "abileceği": 5232,
      "seninle": 5233,
      "yaptığını": 5234,
      "believed": 5235,
      "temp": 5236,
      "istence": 5237,
      "dalg": 5238,
      "torment": 5239,
      "glancing": 5240,
      "grave": 5241,
      "German": 5242,
      "ihtiyac": 5243,
      "joined": 5244,
      "circle": 5245,
      "kissed": 5246,
      "official": 5247,
      "breakfast": 5248,
      "floor": 5249,
      "Barbara": 5250,
      "mentioned": 5251,
      "exactly": 5252,
      "influence": 5253,
      "tercih": 5254,
      "Grisha": 5255,
      "Koc": 5256,
      "bine": 5257,
      "dy": 5258,
      "ears": 5259,
      "gro": 5260,
      "kok": 5261,
      "kont": 5262,
      "pair": 5263,
      "smo": 5264,
      "skin": 5265,
      "yard": 5266,
      "Öğ": 5267,
      "arp": 5268,
      "ern": 5269,
      "edemedi": 5270,
      "asy": 5271,
      "lead": 5272,
      "seydi": 5273,
      "diş": 5274,
      "sage": 5275,
      "forced": 5276,
      "youth": 5277,
      "feared": 5278,
      "başlı": 5279,
      "mach": 5280,
      "işken": 5281,
      "ilerden": 5282,
      "kese": 5283,
      "alarının": 5284,
      "lüyordu": 5285,
      "discovered": 5286,
      "probably": 5287,
      "lattı": 5288,
      "gözlerinde": 5289,
      "medik": 5290,
      "merely": 5291,
      "tutarak": 5292,
      "edemez": 5293,
      "bahsedi": 5294,
      "prevent": 5295,
      "görünüş": 5296,
      "attığı": 5297,
      "babasının": 5298,
      "Peter": 5299,
      "express": 5300,
      "painful": 5301,
      "destek": 5302,
      "tively": 5303,
      "heaven": 5304,
      "hafifçe": 5305,
      "huzursuz": 5306,
      "blue": 5307,
      "üzüntü": 5308,
      "comfortable": 5309,
      "Alexandrovich": 5310,
      "until": 5311,
      "acquaintance": 5312,
      "yolculuğ": 5313,
      "pointed": 5314,
      "eğitim": 5315,
      "zihinsel": 5316,
      "situation": 5317,
      "Eliza": 5318,
      "Hen": 5319,
      "IT": 5320,
      "Kendi": 5321,
      "Lü": 5322,
      "Yap": 5323,
      "blic": 5324,
      "cüm": 5325,
      "fish": 5326,
      "gain": 5327,
      "müz": 5328,
      "nes": 5329,
      "neler": 5330,
      "squ": 5331,
      "ually": 5332,
      "wit": 5333,
      "wret": 5334,
      "zaf": 5335,
      "anta": 5336,
      "aled": 5337,
      "andığını": 5338,
      "oluyordu": 5339,
      "amac": 5340,
      "ettir": 5341,
      "ettiler": 5342,
      "ırlar": 5343,
      "ırtı": 5344,
      "gön": 5345,
      "ardon": 5346,
      "dered": 5347,
      "madığı": 5348,
      "işç": 5349,
      "meni": 5350,
      "moral": 5351,
      "roud": 5352,
      "yanından": 5353,
      "ilerle": 5354,
      "dist": 5355,
      "willing": 5356,
      "service": 5357,
      "yargı": 5358,
      "buldu": 5359,
      "acaktı": 5360,
      "ıplak": 5361,
      "gerekti": 5362,
      "gözlerinin": 5363,
      "ıyormuş": 5364,
      "gue": 5365,
      "guard": 5366,
      "news": 5367,
      "seven": 5368,
      "begun": 5369,
      "harc": 5370,
      "ıldığında": 5371,
      "tuttu": 5372,
      "sıkıcı": 5373,
      "edebilir": 5374,
      "geldiğinde": 5375,
      "yalvar": 5376,
      "barut": 5377,
      "object": 5378,
      "voya": 5379,
      "worked": 5380,
      "surround": 5381,
      "increas": 5382,
      "bulunduğum": 5383,
      "steward": 5384,
      "görüyordu": 5385,
      "düşünüyordum": 5386,
      "inanıyorum": 5387,
      "uyorlardı": 5388,
      "tersine": 5389,
      "suff": 5390,
      "üllü": 5391,
      "karısına": 5392,
      "tabi": 5393,
      "satisf": 5394,
      "Fransızca": 5395,
      "keşf": 5396,
      "kendilerini": 5397,
      "mesele": 5398,
      "regarded": 5399,
      "nemli": 5400,
      "başkalarının": 5401,
      "Bazen": 5402,
      "escape": 5403,
      "slowly": 5404,
      "rüzgâr": 5405,
      "Hıristiyan": 5406,
      "AY": 5407,
      "CE": 5408,
      "May": 5409,
      "Pil": 5410,
      "Siz": 5411,
      "cart": 5412,
      "plo": 5413,
      "vate": 5414,
      "wand": 5415,
      "yut": 5416,
      "zak": 5417,
      "Üç": 5418,
      "edir": 5419,
      "andım": 5420,
      "velo": 5421,
      "ayağ": 5422,
      "deg": 5423,
      "etmedi": 5424,
      "nose": 5425,
      "beğ": 5426,
      "liğinde": 5427,
      "ırd": 5428,
      "lerimin": 5429,
      "nehir": 5430,
      "utely": 5431,
      "evinde": 5432,
      "teac": 5433,
      "karaya": 5434,
      "manzar": 5435,
      "appar": 5436,
      "parlıyordu": 5437,
      "olduğunda": 5438,
      "ladığı": 5439,
      "masanın": 5440,
      "agre": 5441,
      "gücü": 5442,
      "haline": 5443,
      "adamdı": 5444,
      "sade": 5445,
      "guess": 5446,
      "tedir": 5447,
      "konuşuyordu": 5448,
      "malıyım": 5449,
      "mutsuz": 5450,
      "müyordu": 5451,
      "finite": 5452,
      "III": 5453,
      "kulağ": 5454,
      "kardeşine": 5455,
      "zarif": 5456,
      "dokuz": 5457,
      "presented": 5458,
      "signs": 5459,
      "gemiye": 5460,
      "judge": 5461,
      "crowd": 5462,
      "jumped": 5463,
      "false": 5464,
      "journey": 5465,
      "kıskanç": 5466,
      "laughed": 5467,
      "nadir": 5468,
      "olabildiğince": 5469,
      "opposite": 5470,
      "Lütfen": 5471,
      "Did": 5472,
      "Fare": 5473,
      "Pest": 5474,
      "Saat": 5475,
      "bac": 5476,
      "fro": 5477,
      "lıl": 5478,
      "proud": 5479,
      "twi": 5480,
      "tük": 5481,
      "zaten": 5482,
      "çıplak": 5483,
      "İY": 5484,
      "Şçer": 5485,
      "arti": 5486,
      "arasındaki": 5487,
      "atlı": 5488,
      "attempt": 5489,
      "meleri": 5490,
      "ung": 5491,
      "olmaktan": 5492,
      "liğin": 5493,
      "esin": 5494,
      "herkesin": 5495,
      "saved": 5496,
      "ump": 5497,
      "dük": 5498,
      "allowed": 5499,
      "teş": 5500,
      "bilmek": 5501,
      "tanın": 5502,
      "affet": 5503,
      "çıkard": 5504,
      "tarif": 5505,
      "proved": 5506,
      "doğrudan": 5507,
      "mamak": 5508,
      "kızı": 5509,
      "oturmuş": 5510,
      "boylu": 5511,
      "mistake": 5512,
      "calling": 5513,
      "watched": 5514,
      "kulak": 5515,
      "abileceğini": 5516,
      "koşarak": 5517,
      "sessizlik": 5518,
      "değişik": 5519,
      "memnuniyet": 5520,
      "gidiyor": 5521,
      "luluk": 5522,
      "confused": 5523,
      "porter": 5524,
      "sisters": 5525,
      "receive": 5526,
      "keyif": 5527,
      "Ivanich": 5528,
      "born": 5529,
      "appearance": 5530,
      "çağr": 5531,
      "yolculuk": 5532,
      "perfectly": 5533,
      "kısmını": 5534,
      "hitap": 5535,
      "tonuyla": 5536,
      "involuntarily": 5537,
      "Şapk": 5538,
      "merhamet": 5539,
      "pozis": 5540,
      "smoo": 5541,
      "Pestsov": 5542,
      "Şçerbat": 5543,
      "Bab": 5544,
      "Din": 5545,
      "Good": 5546,
      "SE": 5547,
      "Very": 5548,
      "cra": 5549,
      "dö": 5550,
      "fak": 5551,
      "fash": 5552,
      "rise": 5553,
      "sunu": 5554,
      "sought": 5555,
      "senden": 5556,
      "tren": 5557,
      "yurt": 5558,
      "çö": 5559,
      "çen": 5560,
      "edom": 5561,
      "reach": 5562,
      "aked": 5563,
      "unch": 5564,
      "itaat": 5565,
      "ols": 5566,
      "ceğine": 5567,
      "liyor": 5568,
      "lives": 5569,
      "buz": 5570,
      "tied": 5571,
      "save": 5572,
      "yeşil": 5573,
      "sical": 5574,
      "acted": 5575,
      "göky": 5576,
      "evil": 5577,
      "rica": 5578,
      "dom": 5579,
      "omz": 5580,
      "cave": 5581,
      "kader": 5582,
      "bene": 5583,
      "condu": 5584,
      "gelmişti": 5585,
      "mavi": 5586,
      "existence": 5587,
      "langu": 5588,
      "looks": 5589,
      "mayacağım": 5590,
      "spoken": 5591,
      "ists": 5592,
      "epey": 5593,
      "isiyle": 5594,
      "presently": 5595,
      "iliği": 5596,
      "sevdiği": 5597,
      "gitmeye": 5598,
      "yoldan": 5599,
      "Onları": 5600,
      "korkut": 5601,
      "dinlen": 5602,
      "söylemeye": 5603,
      "special": 5604,
      "görüntü": 5605,
      "içindeki": 5606,
      "grat": 5607,
      "mürebbi": 5608,
      "working": 5609,
      "düşüncesi": 5610,
      "hatırlay": 5611,
      "moments": 5612,
      "hurry": 5613,
      "arabanın": 5614,
      "kaldırdı": 5615,
      "girdiğinde": 5616,
      "Marsh": 5617,
      "kasab": 5618,
      "pursu": 5619,
      "blame": 5620,
      "driven": 5621,
      "roubles": 5622,
      "kolayca": 5623,
      "thirty": 5624,
      "bottom": 5625,
      "aptalca": 5626,
      "cağını": 5627,
      "advantage": 5628,
      "twel": 5629,
      "experienced": 5630,
      "whispered": 5631,
      "direction": 5632,
      "hüzünlü": 5633,
      "stretched": 5634,
      "güvence": 5635,
      "fazlasını": 5636,
      "gittim": 5637,
      "coachman": 5638,
      "çığlık": 5639,
      "ılmadık": 5640,
      "Darya": 5641,
      "mücadele": 5642,
      "minnettar": 5643,
      "fashion": 5644,
      "Kadın": 5645,
      "Li": 5646,
      "Lord": 5647,
      "Oliver": 5648,
      "Sal": 5649,
      "Stre": 5650,
      "Yal": 5651,
      "ail": 5652,
      "cının": 5653,
      "eager": 5654,
      "gall": 5655,
      "lend": 5656,
      "sön": 5657,
      "ular": 5658,
      "asın": 5659,
      "vest": 5660,
      "dek": 5661,
      "sepet": 5662,
      "etmişti": 5663,
      "liğe": 5664,
      "vert": 5665,
      "verse": 5666,
      "ıklı": 5667,
      "absol": 5668,
      "ığının": 5669,
      "ığıyla": 5670,
      "allow": 5671,
      "tele": 5672,
      "ılıyordu": 5673,
      "conv": 5674,
      "işan": 5675,
      "explan": 5676,
      "ısından": 5677,
      "faces": 5678,
      "canım": 5679,
      "ilerledi": 5680,
      "didn": 5681,
      "viv": 5682,
      "tarz": 5683,
      "varsa": 5684,
      "estate": 5685,
      "shoulders": 5686,
      "tutmak": 5687,
      "bitter": 5688,
      "dikleri": 5689,
      "bağım": 5690,
      "solgun": 5691,
      "valtı": 5692,
      "gösterdi": 5693,
      "taşı": 5694,
      "temper": 5695,
      "farther": 5696,
      "aldığı": 5697,
      "yardımcı": 5698,
      "hearing": 5699,
      "aware": 5700,
      "gider": 5701,
      "tekneyi": 5702,
      "biçim": 5703,
      "teslim": 5704,
      "alive": 5705,
      "uzaklaştır": 5706,
      "sonradan": 5707,
      "inquir": 5708,
      "inquired": 5709,
      "touched": 5710,
      "quarter": 5711,
      "Böylece": 5712,
      "weeks": 5713,
      "huylu": 5714,
      "stupid": 5715,
      "Kısa": 5716,
      "voyage": 5717,
      "DE": 5718,
      "Esh": 5719,
      "Mama": 5720,
      "Mill": 5721,
      "Rab": 5722,
      "dying": 5723,
      "fold": 5724,
      "hır": 5725,
      "mısın": 5726,
      "mısır": 5727,
      "usion": 5728,
      "around": 5729,
      "arasından": 5730,
      "thed": 5731,
      "threw": 5732,
      "mev": 5733,
      "mead": 5734,
      "birleş": 5735,
      "olon": 5736,
      "elimden": 5737,
      "bebe": 5738,
      "veriyor": 5739,
      "yafet": 5740,
      "roof": 5741,
      "eyn": 5742,
      "upstairs": 5743,
      "başlay": 5744,
      "başıma": 5745,
      "ressed": 5746,
      "geldim": 5747,
      "yapabilir": 5748,
      "yapılmış": 5749,
      "agit": 5750,
      "fight": 5751,
      "compar": 5752,
      "komik": 5753,
      "duyuldu": 5754,
      "korum": 5755,
      "ceket": 5756,
      "gular": 5757,
      "merry": 5758,
      "ounced": 5759,
      "otuz": 5760,
      "ıldım": 5761,
      "ıldığı": 5762,
      "cevab": 5763,
      "ova": 5764,
      "olmadı": 5765,
      "koyul": 5766,
      "getirmek": 5767,
      "kimsenin": 5768,
      "düzelt": 5769,
      "çevr": 5770,
      "write": 5771,
      "portion": 5772,
      "güvenli": 5773,
      "Sanki": 5774,
      "excell": 5775,
      "iyilik": 5776,
      "travel": 5777,
      "paused": 5778,
      "books": 5779,
      "giymiş": 5780,
      "gazing": 5781,
      "salladı": 5782,
      "imagin": 5783,
      "arranged": 5784,
      "touch": 5785,
      "taste": 5786,
      "governess": 5787,
      "rüy": 5788,
      "writing": 5789,
      "Poole": 5790,
      "Genç": 5791,
      "Hemen": 5792,
      "taze": 5793,
      "faydası": 5794,
      "opportunity": 5795,
      "kontrol": 5796,
      "işkence": 5797,
      "zafer": 5798,
      ").": 5799,
      "Ed": 5800,
      "LAR": 5801,
      "Met": 5802,
      "Ya": 5803,
      "Yüz": 5804,
      "bür": 5805,
      "eper": 5806,
      "ope": 5807,
      "rast": 5808,
      "trou": 5809,
      "uya": 5810,
      "vous": 5811,
      "öy": 5812,
      "ense": 5813,
      "eness": 5814,
      "oned": 5815,
      "ises": 5816,
      "aday": 5817,
      "akıntı": 5818,
      "offee": 5819,
      "oked": 5820,
      "umur": 5821,
      "races": 5822,
      "eylem": 5823,
      "loss": 5824,
      "shir": 5825,
      "karm": 5826,
      "azı": 5827,
      "başı": 5828,
      "makes": 5829,
      "bilmiyor": 5830,
      "ified": 5831,
      "tenance": 5832,
      "kalmış": 5833,
      "cting": 5834,
      "persu": 5835,
      "cience": 5836,
      "wore": 5837,
      "fulness": 5838,
      "Bugün": 5839,
      "served": 5840,
      "forehead": 5841,
      "ettik": 5842,
      "yaşayan": 5843,
      "yoksul": 5844,
      "sadakat": 5845,
      "mental": 5846,
      "afternoon": 5847,
      "Birkaç": 5848,
      "cheek": 5849,
      "month": 5850,
      "hayatın": 5851,
      "Petritsky": 5852,
      "ceive": 5853,
      "private": 5854,
      "author": 5855,
      "Allah": 5856,
      "kocasının": 5857,
      "aklıma": 5858,
      "regret": 5859,
      "approaching": 5860,
      "ımıza": 5861,
      "mutluluğ": 5862,
      "yavaşça": 5863,
      "Alexander": 5864,
      "öptü": 5865,
      "Turtle": 5866,
      "polit": 5867,
      "Nikol": 5868,
      "soylu": 5869,
      "gayet": 5870,
      "liberty": 5871,
      "religion": 5872,
      "şapkasını": 5873,
      "ıntılı": 5874,
      "occurred": 5875,
      "soldiers": 5876,
      "twelve": 5877,
      "Eshton": 5878,
      "Glad": 5879,
      "Kuz": 5880,
      "NE": 5881,
      "Pav": 5882,
      "Two": 5883,
      "Tvers": 5884,
      "Vlas": 5885,
      "aid": 5886,
      "fat": 5887,
      "ras": 5888,
      "redi": 5889,
      "sla": 5890,
      "Öz": 5891,
      "anlar": 5892,
      "araz": 5893,
      "edilen": 5894,
      "ormanın": 5895,
      "meth": 5896,
      "secur": 5897,
      "etmesi": 5898,
      "etmeden": 5899,
      "buçuk": 5900,
      "veril": 5901,
      "oking": 5902,
      "umuz": 5903,
      "actions": 5904,
      "raz": 5905,
      "ılıp": 5906,
      "karım": 5907,
      "peş": 5908,
      "convin": 5909,
      "mektu": 5910,
      "parator": 5911,
      "wealth": 5912,
      "cost": 5913,
      "işleri": 5914,
      "masından": 5915,
      "yanındaki": 5916,
      "cano": 5917,
      "çekerek": 5918,
      "commen": 5919,
      "tarl": 5920,
      "geçmeden": 5921,
      "konuşmalar": 5922,
      "stock": 5923,
      "dining": 5924,
      "kural": 5925,
      "görecek": 5926,
      "lower": 5927,
      "grand": 5928,
      "HAR": 5929,
      "düşünüyor": 5930,
      "kısmı": 5931,
      "friendly": 5932,
      "sınır": 5933,
      "luğa": 5934,
      "etrafına": 5935,
      "alışılmadık": 5936,
      "gazed": 5937,
      "parçası": 5938,
      "enerj": 5939,
      "pulled": 5940,
      "sandalye": 5941,
      "Leah": 5942,
      "leaning": 5943,
      "nehrin": 5944,
      "Aziz": 5945,
      "tavsiye": 5946,
      "details": 5947,
      "features": 5948,
      "suyun": 5949,
      "Kardeş": 5950,
      "miserable": 5951,
      "beneath": 5952,
      "convinced": 5953,
      "Ad": 5954,
      "CH": 5955,
      "LY": 5956,
      "clas": 5957,
      "coffee": 5958,
      "fla": 5959,
      "fiz": 5960,
      "jest": 5961,
      "plat": 5962,
      "tro": 5963,
      "yn": 5964,
      "yeler": 5965,
      "arım": 5966,
      "assur": 5967,
      "leyerek": 5968,
      "refer": 5969,
      "ilty": 5970,
      "imkansız": 5971,
      "amış": 5972,
      "story": 5973,
      "etmeyi": 5974,
      "nobody": 5975,
      "ekme": 5976,
      "esiz": 5977,
      "lerek": 5978,
      "umed": 5979,
      "entreat": 5980,
      "dans": 5981,
      "karıştır": 5982,
      "şeylerin": 5983,
      "başk": 5984,
      "bilin": 5985,
      "hata": 5986,
      "kalp": 5987,
      "extra": 5988,
      "compl": 5989,
      "geçerken": 5990,
      "lediği": 5991,
      "konuşurken": 5992,
      "gördük": 5993,
      "eliyle": 5994,
      "söylediği": 5995,
      "intelli": 5996,
      "yatağ": 5997,
      "eğildi": 5998,
      "istem": 5999,
      "istemiyordu": 6000,
      "kollarını": 6001,
      "toprağ": 6002,
      "telling": 6003,
      "anlattı": 6004,
      "döndüğünde": 6005,
      "saman": 6006,
      "saçları": 6007,
      "kilit": 6008,
      "kavga": 6009,
      "eminim": 6010,
      "taban": 6011,
      "blushed": 6012,
      "Kaplumbağa": 6013,
      "tehlikeli": 6014,
      "muhtemelen": 6015,
      "olabileceğini": 6016,
      "şefkatli": 6017,
      "written": 6018,
      "şimdiye": 6019,
      "Yaklaş": 6020,
      "required": 6021,
      "hoşnutsuz": 6022,
      "ölçü": 6023,
      "Yalnız": 6024,
      "Are": 6025,
      "Chur": 6026,
      "LA": 6027,
      "Mi": 6028,
      "Mock": 6029,
      "bis": 6030,
      "fate": 6031,
      "hıç": 6032,
      "ked": 6033,
      "kral": 6034,
      "pack": 6035,
      "zeki": 6036,
      "çaba": 6037,
      "ater": 6038,
      "alacak": 6039,
      "isel": 6040,
      "leg": 6041,
      "ayacak": 6042,
      "ingen": 6043,
      "amıyor": 6044,
      "cel": 6045,
      "duce": 6046,
      "stac": 6047,
      "lacak": 6048,
      "neigh": 6049,
      "göğ": 6050,
      "shel": 6051,
      "cau": 6052,
      "ruin": 6053,
      "fever": 6054,
      "manage": 6055,
      "önüm": 6056,
      "gelgit": 6057,
      "ladığını": 6058,
      "ourselves": 6059,
      "cool": 6060,
      "cote": 6061,
      "işçev": 6062,
      "ıydım": 6063,
      "langı": 6064,
      "yanıma": 6065,
      "yanımda": 6066,
      "motion": 6067,
      "avna": 6068,
      "avanta": 6069,
      "bless": 6070,
      "gereksiz": 6071,
      "landığı": 6072,
      "guilty": 6073,
      "talep": 6074,
      "gittiğini": 6075,
      "Karenina": 6076,
      "ability": 6077,
      "devo": 6078,
      "kaçını": 6079,
      "brilli": 6080,
      "müyor": 6081,
      "rahatlat": 6082,
      "başladılar": 6083,
      "koydum": 6084,
      "Tanya": 6085,
      "üzerindeki": 6086,
      "hazırlan": 6087,
      "saçmal": 6088,
      "XXX": 6089,
      "laughter": 6090,
      "desired": 6091,
      "Burns": 6092,
      "Veslovski": 6093,
      "genellikle": 6094,
      "çiftç": 6095,
      "şüphesiz": 6096,
      "ğimizi": 6097,
      "davranış": 6098,
      "hepsinin": 6099,
      "seviyorum": 6100,
      "directly": 6101,
      "rapidly": 6102,
      "Golenişçev": 6103,
      "narrow": 6104,
      "osity": 6105,
      "Ertesi": 6106,
      "sympat": 6107,
      "Acaba": 6108,
      "Şapkacı": 6109,
      "Millcote": 6110,
      "excellent": 6111,
      "Metrov": 6112,
      "Nikolavna": 6113,
      "avantaj": 6114,
      "?--": 6115,
      "Gry": 6116,
      "Grace": 6117,
      "Lou": 6118,
      "Mak": 6119,
      "Sor": 6120,
      "Sev": 6121,
      "Top": 6122,
      "Yol": 6123,
      "bı": 6124,
      "cler": 6125,
      "clim": 6126,
      "ices": 6127,
      "kni": 6128,
      "pup": 6129,
      "pardon": 6130,
      "sini": 6131,
      "vas": 6132,
      "wra": 6133,
      "yöne": 6134,
      "çayır": 6135,
      "ğiz": 6136,
      "thro": 6137,
      "lease": 6138,
      "adv": 6139,
      "adık": 6140,
      "seve": 6141,
      "ete": 6142,
      "becer": 6143,
      "charming": 6144,
      "raise": 6145,
      "miyorsun": 6146,
      "içinden": 6147,
      "odada": 6148,
      "bilen": 6149,
      "kalmıştı": 6150,
      "explained": 6151,
      "ıssız": 6152,
      "teker": 6153,
      "owner": 6154,
      "rang": 6155,
      "yeri": 6156,
      "otherwise": 6157,
      "ukat": 6158,
      "yours": 6159,
      "köpe": 6160,
      "pressing": 6161,
      "korkusu": 6162,
      "yazık": 6163,
      "bitti": 6164,
      "hakaret": 6165,
      "oturan": 6166,
      "kırsal": 6167,
      "hide": 6168,
      "content": 6169,
      "farkında": 6170,
      "gram": 6171,
      "Nothing": 6172,
      "hatırlam": 6173,
      "Herkes": 6174,
      "marsh": 6175,
      "attrac": 6176,
      "çevre": 6177,
      "olmasını": 6178,
      "savage": 6179,
      "pride": 6180,
      "freedom": 6181,
      "amayacak": 6182,
      "showing": 6183,
      "annesinin": 6184,
      "değerli": 6185,
      "gidecek": 6186,
      "kişinin": 6187,
      "ifadesi": 6188,
      "seçim": 6189,
      "venture": 6190,
      "okudu": 6191,
      "birbirine": 6192,
      "views": 6193,
      "phon": 6194,
      "imagined": 6195,
      "alaycı": 6196,
      "götürdü": 6197,
      "Başka": 6198,
      "gücüm": 6199,
      "vakit": 6200,
      "ziyaretç": 6201,
      "dizgin": 6202,
      "relation": 6203,
      "sevgili": 6204,
      "public": 6205,
      "countenance": 6206,
      "flowers": 6207,
      "spot": 6208,
      "yaparken": 6209,
      "trembling": 6210,
      "pounds": 6211,
      "hesap": 6212,
      "Hatter": 6213,
      "eksikli": 6214,
      "principal": 6215,
      "mırıldandı": 6216,
      "ilgilendir": 6217,
      "excitement": 6218,
      "exerc": 6219,
      "village": 6220,
      "uniform": 6221,
      "extreme": 6222,
      "method": 6223,
      "Church": 6224,
      "neighbour": 6225,
      ":--": 6226,
      "Ayağ": 6227,
      "Colon": 6228,
      "Dok": 6229,
      "Güzel": 6230,
      "Jan": 6231,
      "Kost": 6232,
      "LI": 6233,
      "Nered": 6234,
      "Sir": 6235,
      "Sop": 6236,
      "aim": 6237,
      "bran": 6238,
      "chen": 6239,
      "fek": 6240,
      "farming": 6241,
      "gold": 6242,
      "ket": 6243,
      "lined": 6244,
      "sence": 6245,
      "tey": 6246,
      "yür": 6247,
      "zah": 6248,
      "üyle": 6249,
      "şans": 6250,
      "ortak": 6251,
      "aside": 6252,
      "alarak": 6253,
      "aldır": 6254,
      "ision": 6255,
      "meme": 6256,
      "regular": 6257,
      "unhappy": 6258,
      "ayının": 6259,
      "determin": 6260,
      "oluyor": 6261,
      "stor": 6262,
      "yemin": 6263,
      "ridi": 6264,
      "sharp": 6265,
      "pem": 6266,
      "song": 6267,
      "bilgi": 6268,
      "bildir": 6269,
      "antly": 6270,
      "düşünür": 6271,
      "ısrar": 6272,
      "eceği": 6273,
      "Anne": 6274,
      "mov": 6275,
      "hopes": 6276,
      "ilerek": 6277,
      "whence": 6278,
      "lamb": 6279,
      "sorrow": 6280,
      "alarla": 6281,
      "fic": 6282,
      "yerden": 6283,
      "disput": 6284,
      "blind": 6285,
      "vious": 6286,
      "türe": 6287,
      "below": 6288,
      "sery": 6289,
      "serve": 6290,
      "bulmak": 6291,
      "isible": 6292,
      "Onlar": 6293,
      "yazdı": 6294,
      "söylediğini": 6295,
      "söze": 6296,
      "sözlerini": 6297,
      "hie": 6298,
      "armed": 6299,
      "yalan": 6300,
      "nereden": 6301,
      "medin": 6302,
      "yaklaşan": 6303,
      "öğleden": 6304,
      "düzel": 6305,
      "lığından": 6306,
      "inanç": 6307,
      "priest": 6308,
      "gidiyordu": 6309,
      "runk": 6310,
      "noticing": 6311,
      "davrand": 6312,
      "vision": 6313,
      "tekneye": 6314,
      "naturally": 6315,
      "growing": 6316,
      "Diğer": 6317,
      "birbirlerine": 6318,
      "nursery": 6319,
      "çocuğun": 6320,
      "olsaydım": 6321,
      "Russia": 6322,
      "dangerous": 6323,
      "leyici": 6324,
      "complete": 6325,
      "declar": 6326,
      "agreeable": 6327,
      "Spani": 6328,
      "Sahte": 6329,
      "twice": 6330,
      "language": 6331,
      "Kostya": 6332,
      "Sophie": 6333,
      ");": 6334,
      "-'": 6335,
      "IX": 6336,
      "Tom": 6337,
      "VR": 6338,
      "WH": 6339,
      "bowed": 6340,
      "cenin": 6341,
      "fel": 6342,
      "kuy": 6343,
      "lisi": 6344,
      "lord": 6345,
      "nment": 6346,
      "phan": 6347,
      "zinc": 6348,
      "thew": 6349,
      "edilmiş": 6350,
      "ale": 6351,
      "adına": 6352,
      "unexpected": 6353,
      "ayın": 6354,
      "imon": 6355,
      "olar": 6356,
      "buy": 6357,
      "üni": 6358,
      "ünlü": 6359,
      "lace": 6360,
      "ırsa": 6361,
      "sighed": 6362,
      "accompl": 6363,
      "götüre": 6364,
      "som": 6365,
      "deneyim": 6366,
      "teşekkür": 6367,
      "shone": 6368,
      "görür": 6369,
      "şeydi": 6370,
      "conce": 6371,
      "bilinc": 6372,
      "emedim": 6373,
      "yapması": 6374,
      "yaprak": 6375,
      "uzağa": 6376,
      "iksel": 6377,
      "düşünerek": 6378,
      "zamandan": 6379,
      "meniz": 6380,
      "cks": 6381,
      "sesleri": 6382,
      "bakan": 6383,
      "bakın": 6384,
      "bakmak": 6385,
      "mayın": 6386,
      "produced": 6387,
      "söylediler": 6388,
      "varsay": 6389,
      "yarın": 6390,
      "isteyen": 6391,
      "koridor": 6392,
      "gözlerle": 6393,
      "sadık": 6394,
      "mercy": 6395,
      "tutul": 6396,
      "düşündüğünü": 6397,
      "doluydu": 6398,
      "çabuk": 6399,
      "kaçır": 6400,
      "bekliyordu": 6401,
      "tingu": 6402,
      "wants": 6403,
      "açıklama": 6404,
      "carrying": 6405,
      "atic": 6406,
      "türden": 6407,
      "repent": 6408,
      "voices": 6409,
      "düşüncelerini": 6410,
      "lığının": 6411,
      "düşünüyorsun": 6412,
      "çevirdi": 6413,
      "olmasa": 6414,
      "taşın": 6415,
      "conditions": 6416,
      "continually": 6417,
      "ülke": 6418,
      "prensin": 6419,
      "derinlik": 6420,
      "woods": 6421,
      "bottle": 6422,
      "promise": 6423,
      "catch": 6424,
      "Bunlar": 6425,
      "Bunları": 6426,
      "Yaşvin": 6427,
      "meydan": 6428,
      "aşağılan": 6429,
      "deliverance": 6430,
      "portra": 6431,
      "Nikolay": 6432,
      "Doğru": 6433,
      "fikrini": 6434,
      "Matthew": 6435,
      "sabırsız": 6436,
      "İtalya": 6437,
      "gathered": 6438,
      "ötesinde": 6439,
      "sufficient": 6440,
      "Sabah": 6441,
      "agreed": 6442,
      "Gryphon": 6443,
      "pembe": 6444,
      "?”": 6445,
      "Mort": 6446,
      "Xury": 6447,
      "bye": 6448,
      "bid": 6449,
      "cık": 6450,
      "dın": 6451,
      "gru": 6452,
      "grou": 6453,
      "gment": 6454,
      "graf": 6455,
      "ggle": 6456,
      "nation": 6457,
      "omy": 6458,
      "pend": 6459,
      "vir": 6460,
      "yell": 6461,
      "anan": 6462,
      "theless": 6463,
      "ala": 6464,
      "addressed": 6465,
      "cele": 6466,
      "ırt": 6467,
      "sap": 6468,
      "entrance": 6469,
      "rail": 6470,
      "mies": 6471,
      "ışı": 6472,
      "ışığı": 6473,
      "uttered": 6474,
      "terror": 6475,
      "myster": 6476,
      "odore": 6477,
      "Theodore": 6478,
      "usuna": 6479,
      "weary": 6480,
      "düşünme": 6481,
      "ısınız": 6482,
      "cide": 6483,
      "bunlardan": 6484,
      "yerini": 6485,
      "yerinde": 6486,
      "kop": 6487,
      "duyunca": 6488,
      "geçip": 6489,
      "kör": 6490,
      "gözden": 6491,
      "ıyorsunuz": 6492,
      "konuşmayı": 6493,
      "harika": 6494,
      "ayıcı": 6495,
      "dinledi": 6496,
      "tutku": 6497,
      "haksız": 6498,
      "offended": 6499,
      "bağış": 6500,
      "söylediğim": 6501,
      "chess": 6502,
      "tarafında": 6503,
      "greater": 6504,
      "verdiğini": 6505,
      "eşlik": 6506,
      "dışı": 6507,
      "lovely": 6508,
      "koltuğ": 6509,
      "elerini": 6510,
      "biriyle": 6511,
      "Indi": 6512,
      "hayatı": 6513,
      "görüyor": 6514,
      "cases": 6515,
      "üstünde": 6516,
      "ildiğini": 6517,
      "döndüm": 6518,
      "ilgilen": 6519,
      "expecting": 6520,
      "saçma": 6521,
      "Rusya": 6522,
      "struggle": 6523,
      "annesi": 6524,
      "game": 6525,
      "öfke": 6526,
      "Kendisine": 6527,
      "söylüyordu": 6528,
      "custom": 6529,
      "uzaklaştı": 6530,
      "sevinçle": 6531,
      "visitors": 6532,
      "quarrel": 6533,
      "consciousness": 6534,
      "talihsiz": 6535,
      "miktarda": 6536,
      "mistress": 6537,
      "society": 6538,
      "Avrup": 6539,
      "Dmitrich": 6540,
      "teselli": 6541,
      "değişiklik": 6542,
      "Stremov": 6543,
      "HARR": 6544,
      "Morton": 6545,
      ";\"": 6546,
      "Char": 6547,
      "Dent": 6548,
      "Eh": 6549,
      "Eur": 6550,
      "FOR": 6551,
      "Gi": 6552,
      "Ju": 6553,
      "Lv": 6554,
      "OW": 6555,
      "Zem": 6556,
      "drow": 6557,
      "dared": 6558,
      "ec": 6559,
      "fare": 6560,
      "mend": 6561,
      "mod": 6562,
      "nam": 6563,
      "radi": 6564,
      "sars": 6565,
      "vain": 6566,
      "wel": 6567,
      "öde": 6568,
      "üf": 6569,
      "şar": 6570,
      "aris": 6571,
      "eding": 6572,
      "ederken": 6573,
      "ature": 6574,
      "ism": 6575,
      "isim": 6576,
      "aksine": 6577,
      "ilere": 6578,
      "depar": 6579,
      "season": 6580,
      "seized": 6581,
      "ceğinden": 6582,
      "verin": 6583,
      "verecek": 6584,
      "wide": 6585,
      "acy": 6586,
      "acity": 6587,
      "solem": 6588,
      "ries": 6589,
      "karışık": 6590,
      "muz": 6591,
      "sona": 6592,
      "likely": 6593,
      "ükü": 6594,
      "gergin": 6595,
      "bilerek": 6596,
      "parmağ": 6597,
      "ikisinin": 6598,
      "areş": 6599,
      "cip": 6600,
      "somewhat": 6601,
      "lanmıştı": 6602,
      "yanı": 6603,
      "bakmaya": 6604,
      "rengi": 6605,
      "sport": 6606,
      "distant": 6607,
      "iyileş": 6608,
      "acağız": 6609,
      "prison": 6610,
      "gözlü": 6611,
      "sevdi": 6612,
      "sevimli": 6613,
      "kızardı": 6614,
      "dolay": 6615,
      "justice": 6616,
      "görünüm": 6617,
      "contented": 6618,
      "intended": 6619,
      "barbar": 6620,
      "clever": 6621,
      "oğlu": 6622,
      "koyuldu": 6623,
      "hafız": 6624,
      "hayatını": 6625,
      "ical": 6626,
      "current": 6627,
      "kulü": 6628,
      "çocuklar": 6629,
      "görül": 6630,
      "ildiği": 6631,
      "humili": 6632,
      "olmayacak": 6633,
      "murmur": 6634,
      "kapıdan": 6635,
      "confidence": 6636,
      "uygunsuz": 6637,
      "desper": 6638,
      "command": 6639,
      "konum": 6640,
      "arrival": 6641,
      "istedim": 6642,
      "itiraz": 6643,
      "öldürdü": 6644,
      "aşağıl": 6645,
      "özgürlü": 6646,
      "Bizim": 6647,
      "tranqu": 6648,
      "faithful": 6649,
      "kerchief": 6650,
      "lılıkla": 6651,
      "teeth": 6652,
      "disturbed": 6653,
      "olağanüstü": 6654,
      "gönüllü": 6655,
      "explanation": 6656,
      "Ayağa": 6657,
      "Europe": 6658,
      "solemn": 6659,
      "BE": 6660,
      "Even": 6661,
      "Gri": 6662,
      "Mad": 6663,
      "Mareş": 6664,
      "Ru": 6665,
      "Te": 6666,
      "Tit": 6667,
      "dönem": 6668,
      "gev": 6669,
      "hu": 6670,
      "kn": 6671,
      "lent": 6672,
      "ming": 6673,
      "oda": 6674,
      "pil": 6675,
      "ption": 6676,
      "sığ": 6677,
      "sünü": 6678,
      "tely": 6679,
      "yesi": 6680,
      "üyordu": 6681,
      "inside": 6682,
      "height": 6683,
      "enti": 6684,
      "irkin": 6685,
      "isinden": 6686,
      "addressing": 6687,
      "rezil": 6688,
      "ilmişti": 6689,
      "ital": 6690,
      "birds": 6691,
      "olasıl": 6692,
      "diyorum": 6693,
      "star": 6694,
      "elder": 6695,
      "besle": 6696,
      "liğine": 6697,
      "busy": 6698,
      "hap": 6699,
      "chat": 6700,
      "absence": 6701,
      "götürü": 6702,
      "aştır": 6703,
      "tern": 6704,
      "susp": 6705,
      "dogs": 6706,
      "lot": 6707,
      "onsense": 6708,
      "muyor": 6709,
      "görkem": 6710,
      "goes": 6711,
      "apprehen": 6712,
      "kenara": 6713,
      "yapacağını": 6714,
      "yapmayı": 6715,
      "yapılan": 6716,
      "coast": 6717,
      "düşünmek": 6718,
      "ilerinin": 6719,
      "renk": 6720,
      "yerin": 6721,
      "arkasında": 6722,
      "arkasına": 6723,
      "isting": 6724,
      "Italy": 6725,
      "larınız": 6726,
      "köle": 6727,
      "preser": 6728,
      "Ondan": 6729,
      "konuşmak": 6730,
      "posing": 6731,
      "süs": 6732,
      "maması": 6733,
      "scene": 6734,
      "tutuyordu": 6735,
      "çalıştım": 6736,
      "oysa": 6737,
      "silk": 6738,
      "kayın": 6739,
      "grup": 6740,
      "inize": 6741,
      "öğr": 6742,
      "value": 6743,
      "kötülük": 6744,
      "göstermek": 6745,
      "hareketsiz": 6746,
      "INDA": 6747,
      "yönlendir": 6748,
      "ayakta": 6749,
      "melidir": 6750,
      "slept": 6751,
      "yaşamaya": 6752,
      "capable": 6753,
      "tanıdığı": 6754,
      "kişisel": 6755,
      "Because": 6756,
      "shape": 6757,
      "tehlike": 6758,
      "pause": 6759,
      "dağıt": 6760,
      "elbise": 6761,
      "Again": 6762,
      "çocuğu": 6763,
      "drove": 6764,
      "directed": 6765,
      "bukle": 6766,
      "support": 6767,
      "tenderness": 6768,
      "ushka": 6769,
      "Annushka": 6770,
      "yoldaş": 6771,
      "kalabalık": 6772,
      "learnt": 6773,
      "intention": 6774,
      "fısıldadı": 6775,
      "possibility": 6776,
      "reproach": 6777,
      "Hepsi": 6778,
      "satisfaction": 6779,
      "degree": 6780,
      "nadiren": 6781,
      "Edward": 6782,
      "Tverskaya": 6783,
      "AM": 6784,
      "Geri": 6785,
      "Him": 6786,
      "OU": 6787,
      "Please": 6788,
      "Qu": 6789,
      "Si": 6790,
      "Söz": 6791,
      "Size": 6792,
      "Tell": 6793,
      "YA": 6794,
      "bard": 6795,
      "class": 6796,
      "dunuz": 6797,
      "dök": 6798,
      "fon": 6799,
      "gümüş": 6800,
      "iye": 6801,
      "peyn": 6802,
      "rist": 6803,
      "sni": 6804,
      "task": 6805,
      "vity": 6806,
      "wine": 6807,
      "ğüne": 6808,
      "ines": 6809,
      "anız": 6810,
      "aray": 6811,
      "araç": 6812,
      "eniz": 6813,
      "ordu": 6814,
      "asil": 6815,
      "ındaydı": 6816,
      "thr": 6817,
      "memek": 6818,
      "melerini": 6819,
      "develo": 6820,
      "cept": 6821,
      "ceased": 6822,
      "liğinin": 6823,
      "buğ": 6824,
      "buydu": 6825,
      "shes": 6826,
      "lose": 6827,
      "unusu": 6828,
      "tıcı": 6829,
      "upset": 6830,
      "mantık": 6831,
      "başlangı": 6832,
      "öner": 6833,
      "conver": 6834,
      "conqu": 6835,
      "yield": 6836,
      "olduğunca": 6837,
      "ike": 6838,
      "ikisini": 6839,
      "lamp": 6840,
      "keçi": 6841,
      "worst": 6842,
      "alardan": 6843,
      "konuya": 6844,
      "uyuy": 6845,
      "discover": 6846,
      "distri": 6847,
      "arkasından": 6848,
      "günde": 6849,
      "değildim": 6850,
      "forest": 6851,
      "ilet": 6852,
      "yolunda": 6853,
      "hiçbiri": 6854,
      "ortadan": 6855,
      "bırakıp": 6856,
      "bıraktım": 6857,
      "silver": 6858,
      "interval": 6859,
      "isteği": 6860,
      "gras": 6861,
      "kolunu": 6862,
      "mazur": 6863,
      "hatırlayarak": 6864,
      "kimin": 6865,
      "curious": 6866,
      "hissettiği": 6867,
      "impati": 6868,
      "stepped": 6869,
      "Therefore": 6870,
      "olmasın": 6871,
      "sooner": 6872,
      "pencere": 6873,
      "taht": 6874,
      "helped": 6875,
      "kendisiyle": 6876,
      "kıyıda": 6877,
      "Onunla": 6878,
      "fields": 6879,
      "confess": 6880,
      "Kendini": 6881,
      "hastily": 6882,
      "malarını": 6883,
      "observe": 6884,
      "giys": 6885,
      "join": 6886,
      "bahsetti": 6887,
      "played": 6888,
      "keşke": 6889,
      "succeeded": 6890,
      "Roma": 6891,
      "formerly": 6892,
      "LEV": 6893,
      "finger": 6894,
      "thrown": 6895,
      "reasons": 6896,
      "experience": 6897,
      "kızararak": 6898,
      "Yani": 6899,
      "shooting": 6900,
      "slightly": 6901,
      "frequently": 6902,
      "Kilise": 6903,
      "consequence": 6904,
      "Marshal": 6905,
      "portrait": 6906,
      "dolayısıyla": 6907,
      "AD": 6908,
      "Au": 6909,
      "Bil": 6910,
      "Bill": 6911,
      "Lyn": 6912,
      "Nor": 6913,
      "Un": 6914,
      "bare": 6915,
      "cdan": 6916,
      "fill": 6917,
      "flat": 6918,
      "kev": 6919,
      "lle": 6920,
      "milk": 6921,
      "ration": 6922,
      "yiz": 6923,
      "ıc": 6924,
      "şa": 6925,
      "atarak": 6926,
      "asa": 6927,
      "almış": 6928,
      "add": 6929,
      "ader": 6930,
      "adalet": 6931,
      "ima": 6932,
      "olum": 6933,
      "olmayı": 6934,
      "olabilirdi": 6935,
      "ambit": 6936,
      "amıştı": 6937,
      "diyor": 6938,
      "ünce": 6939,
      "forty": 6940,
      "wicked": 6941,
      "histor": 6942,
      "utter": 6943,
      "ends": 6944,
      "music": 6945,
      "rule": 6946,
      "respon": 6947,
      "düşür": 6948,
      "hated": 6949,
      "gelin": 6950,
      "ember": 6951,
      "pot": 6952,
      "weight": 6953,
      "işle": 6954,
      "dediği": 6955,
      "dediğim": 6956,
      "zamana": 6957,
      "baktığında": 6958,
      "alarından": 6959,
      "disgust": 6960,
      "vicdan": 6961,
      "günün": 6962,
      "servet": 6963,
      "söyler": 6964,
      "halkın": 6965,
      "olanı": 6966,
      "olanlar": 6967,
      "yoktur": 6968,
      "landım": 6969,
      "yolunu": 6970,
      "yoluna": 6971,
      "süt": 6972,
      "mamız": 6973,
      "girip": 6974,
      "ovt": 6975,
      "tarafta": 6976,
      "contri": 6977,
      "barış": 6978,
      "örne": 6979,
      "diğerleri": 6980,
      "cloak": 6981,
      "ERE": 6982,
      "hakkındaki": 6983,
      "hatırlat": 6984,
      "anlamak": 6985,
      "anlamıştı": 6986,
      "doors": 6987,
      "corre": 6988,
      "attle": 6989,
      "kindly": 6990,
      "earnest": 6991,
      "kuv": 6992,
      "tahta": 6993,
      "yıllar": 6994,
      "araba": 6995,
      "yemeğinden": 6996,
      "necessity": 6997,
      "kocaman": 6998,
      "ateşin": 6999,
      "fikri": 7000,
      "kaldırıp": 7001,
      "benzeri": 7002,
      "dostum": 7003,
      "falling": 7004,
      "rolled": 7005,
      "şeh": 7006,
      "movements": 7007,
      "powerful": 7008,
      "şaşkınlıkla": 7009,
      "entering": 7010,
      "uff": 7011,
      "bildiğini": 7012,
      "learned": 7013,
      "bonnet": 7014,
      "rapid": 7015,
      "Turovt": 7016,
      "firmly": 7017,
      "delivered": 7018,
      "Though": 7019,
      "İvaniç": 7020,
      "Everything": 7021,
      "pişmanlık": 7022,
      "izlenim": 7023,
      "cheerful": 7024,
      "frame": 7025,
      "origin": 7026,
      "ONSKY": 7027,
      "ihtiyacım": 7028,
      "tedirgin": 7029,
      "gökyüz": 7030,
      "shirt": 7031,
      "HARRIS": 7032,
      "Zemst": 7033,
      "görkemli": 7034,
      ".,": 7035,
      "Kal": 7036,
      "Lisa": 7037,
      "OM": 7038,
      "Su": 7039,
      "dare": 7040,
      "fay": 7041,
      "hollow": 7042,
      "kiss": 7043,
      "rily": 7044,
      "sn": 7045,
      "üc": 7046,
      "üre": 7047,
      "İK": 7048,
      "anmış": 7049,
      "arac": 7050,
      "reput": 7051,
      "remind": 7052,
      "seed": 7053,
      "olma": 7054,
      "sty": 7055,
      "tip": 7056,
      "herkese": 7057,
      "rode": 7058,
      "roman": 7059,
      "uments": 7060,
      "geon": 7061,
      "inex": 7062,
      "temel": 7063,
      "shire": 7064,
      "parlayan": 7065,
      "embar": 7066,
      "işler": 7067,
      "exp": 7068,
      "masıyla": 7069,
      "perceived": 7070,
      "hoped": 7071,
      "worn": 7072,
      "çeken": 7073,
      "bunlara": 7074,
      "fice": 7075,
      "spor": 7076,
      "blow": 7077,
      "yarısı": 7078,
      "fired": 7079,
      "handkerchief": 7080,
      "iliğinden": 7081,
      "özen": 7082,
      "sincer": 7083,
      "places": 7084,
      "edemiyordu": 7085,
      "chee": 7086,
      "düzgün": 7087,
      "çocukları": 7088,
      "çocukların": 7089,
      "dikkatini": 7090,
      "understanding": 7091,
      "finding": 7092,
      "ideas": 7093,
      "daldı": 7094,
      "dalgın": 7095,
      "gittik": 7096,
      "duygularını": 7097,
      "colour": 7098,
      "kilise": 7099,
      "kahve": 7100,
      "kahka": 7101,
      "kahvaltı": 7102,
      "supposed": 7103,
      "sonucu": 7104,
      "gideceğim": 7105,
      "başarısız": 7106,
      "söylüyorum": 7107,
      "amongst": 7108,
      "custo": 7109,
      "şaşırt": 7110,
      "ğimizde": 7111,
      "princes": 7112,
      "blushing": 7113,
      "relief": 7114,
      "boğul": 7115,
      "evlenme": 7116,
      "ception": 7117,
      "zihninde": 7118,
      "ignor": 7119,
      "imkânsızdı": 7120,
      "completely": 7121,
      "şidde": 7122,
      "shade": 7123,
      "efforts": 7124,
      "spare": 7125,
      "kaynaklan": 7126,
      "beklenmedik": 7127,
      "Abbot": 7128,
      "eşyalar": 7129,
      "uykuya": 7130,
      "bataklık": 7131,
      "sonsuza": 7132,
      "higher": 7133,
      "communic": 7134,
      "bridge": 7135,
      "smooth": 7136,
      "fiziksel": 7137,
      "Mihaylov": 7138,
      "Lynn": 7139,
      "Afri": 7140,
      "Adam": 7141,
      "Ber": 7142,
      "Bor": 7143,
      "Ce": 7144,
      "House": 7145,
      "KAR": 7146,
      "Mut": 7147,
      "Miller": 7148,
      "OV": 7149,
      "Ses": 7150,
      "Zavallı": 7151,
      "binde": 7152,
      "bold": 7153,
      "diniz": 7154,
      "fol": 7155,
      "gged": 7156,
      "pure": 7157,
      "tong": 7158,
      "ug": 7159,
      "wreck": 7160,
      "zir": 7161,
      "çant": 7162,
      "şere": 7163,
      "anno": 7164,
      "anlama": 7165,
      "aries": 7166,
      "aralık": 7167,
      "lest": 7168,
      "adaydı": 7169,
      "tol": 7170,
      "toz": 7171,
      "returning": 7172,
      "birinci": 7173,
      "olun": 7174,
      "amıyordum": 7175,
      "dul": 7176,
      "etkil": 7177,
      "notion": 7178,
      "beast": 7179,
      "tiz": 7180,
      "yahat": 7181,
      "chance": 7182,
      "okş": 7183,
      "urdu": 7184,
      "forgiven": 7185,
      "içer": 7186,
      "acul": 7187,
      "aband": 7188,
      "miydi": 7189,
      "event": 7190,
      "shock": 7191,
      "kadına": 7192,
      "odası": 7193,
      "görmüş": 7194,
      "görmedim": 7195,
      "bende": 7196,
      "rush": 7197,
      "ruhum": 7198,
      "appoint": 7199,
      "yiye": 7200,
      "qual": 7201,
      "yapan": 7202,
      "kalem": 7203,
      "kalacak": 7204,
      "cot": 7205,
      "exe": 7206,
      "ctly": 7207,
      "cigar": 7208,
      "ğimin": 7209,
      "güldü": 7210,
      "aston": 7211,
      "takes": 7212,
      "comprehen": 7213,
      "vict": 7214,
      "iyice": 7215,
      "iyileştir": 7216,
      "blew": 7217,
      "prote": 7218,
      "doğrusu": 7219,
      "kapattı": 7220,
      "useful": 7221,
      "useless": 7222,
      "landowner": 7223,
      "muştum": 7224,
      "scul": 7225,
      "scream": 7226,
      "devil": 7227,
      "sözler": 7228,
      "kırk": 7229,
      "kanı": 7230,
      "geldiğince": 7231,
      "mezdim": 7232,
      "misaf": 7233,
      "örnek": 7234,
      "watching": 7235,
      "adımlarla": 7236,
      "considering": 7237,
      "dünya": 7238,
      "amazdı": 7239,
      "subay": 7240,
      "gelene": 7241,
      "aldığını": 7242,
      "remembering": 7243,
      "plans": 7244,
      "roviç": 7245,
      "öldürü": 7246,
      "double": 7247,
      "sempati": 7248,
      "kitchen": 7249,
      "evident": 7250,
      "difficulties": 7251,
      "lawyer": 7252,
      "opening": 7253,
      "natured": 7254,
      "paid": 7255,
      "şehir": 7256,
      "wonderful": 7257,
      "kayboldu": 7258,
      "anlaşılmaz": 7259,
      "walls": 7260,
      "stayed": 7261,
      "uyucu": 7262,
      "dropped": 7263,
      "sinirlen": 7264,
      "ALI": 7265,
      "Christ": 7266,
      "acquainted": 7267,
      "shadow": 7268,
      "possessed": 7269,
      "possession": 7270,
      "delightful": 7271,
      "öğretmen": 7272,
      "krall": 7273,
      "Duchess": 7274,
      "companion": 7275,
      "slip": 7276,
      "waist": 7277,
      "evlilik": 7278,
      "yuvarlak": 7279,
      "kağıt": 7280,
      "absolutely": 7281,
      "extraordinary": 7282,
      "saçmalık": 7283,
      "Bi": 7284,
      "Em": 7285,
      "Has": 7286,
      "Kol": 7287,
      "Sam": 7288,
      "Sizi": 7289,
      "cous": 7290,
      "eh": 7291,
      "fati": 7292,
      "hom": 7293,
      "kere": 7294,
      "ners": 7295,
      "ook": 7296,
      "pud": 7297,
      "rut": 7298,
      "rors": 7299,
      "sis": 7300,
      "çır": 7301,
      "çul": 7302,
      "çirkin": 7303,
      "şık": 7304,
      "şişe": 7305,
      "anger": 7306,
      "arg": 7307,
      "enorm": 7308,
      "atın": 7309,
      "aln": 7310,
      "alıyordu": 7311,
      "altogether": 7312,
      "admit": 7313,
      "admir": 7314,
      "memiz": 7315,
      "topar": 7316,
      "union": 7317,
      "sef": 7318,
      "sefil": 7319,
      "cezal": 7320,
      "diyordu": 7321,
      "stif": 7322,
      "stain": 7323,
      "eldiven": 7324,
      "etmem": 7325,
      "yag": 7326,
      "lery": 7327,
      "chant": 7328,
      "sacri": 7329,
      "youn": 7330,
      "evden": 7331,
      "mud": 7332,
      "musunuz": 7333,
      "benef": 7334,
      "managed": 7335,
      "başının": 7336,
      "makin": 7337,
      "makta": 7338,
      "quant": 7339,
      "larındaki": 7340,
      "ıslak": 7341,
      "mişlerdi": 7342,
      "ıyan": 7343,
      "eceğimi": 7344,
      "mışlardı": 7345,
      "lenen": 7346,
      "comr": 7347,
      "distin": 7348,
      "ishment": 7349,
      "memur": 7350,
      "kurnaz": 7351,
      "gördüğünde": 7352,
      "çalışmaya": 7353,
      "metre": 7354,
      "sides": 7355,
      "bahsed": 7356,
      "passage": 7357,
      "prec": 7358,
      "tıklarını": 7359,
      "dışına": 7360,
      "duruma": 7361,
      "içindeydi": 7362,
      "grate": 7363,
      "single": 7364,
      "getiren": 7365,
      "bedroom": 7366,
      "harekete": 7367,
      "fincan": 7368,
      "fırlat": 7369,
      "ayakkab": 7370,
      "luğun": 7371,
      "kocasına": 7372,
      "leaves": 7373,
      "skaya": 7374,
      "approach": 7375,
      "delic": 7376,
      "March": 7377,
      "assis": 7378,
      "titri": 7379,
      "Kendimi": 7380,
      "hastalık": 7381,
      "malıdır": 7382,
      "mahvet": 7383,
      "ihtiyacı": 7384,
      "düzenli": 7385,
      "subjects": 7386,
      "dünyada": 7387,
      "çatarak": 7388,
      "bozul": 7389,
      "yürüdüm": 7390,
      "sebebi": 7391,
      "aydınlat": 7392,
      "Yarın": 7393,
      "burnt": 7394,
      "profes": 7395,
      "concerned": 7396,
      "yıldır": 7397,
      "Düşes": 7398,
      "hissederek": 7399,
      "hurriedly": 7400,
      "engaged": 7401,
      "çılgınca": 7402,
      "Perhaps": 7403,
      "Tavşan": 7404,
      "signific": 7405,
      "surrounded": 7406,
      "beğen": 7407,
      "kaçınıl": 7408,
      "brilliant": 7409,
      "becerik": 7410,
      "ridicul": 7411,
      "Avrupa": 7412,
      "Grifon": 7413,
      "Titus": 7414,
      "snipe": 7415,
      "Zemstvo": 7416,
      "enormous": 7417,
      "Milan": 7418,
      "Myag": 7419,
      "Neyse": 7420,
      "Rya": 7421,
      "Us": 7422,
      "Wait": 7423,
      "Yağ": 7424,
      "Yeni": 7425,
      "bıy": 7426,
      "gili": 7427,
      "gently": 7428,
      "nonsense": 7429,
      "phe": 7430,
      "pour": 7431,
      "tast": 7432,
      "ues": 7433,
      "çey": 7434,
      "İm": 7435,
      "ıdan": 7436,
      "inform": 7437,
      "inşa": 7438,
      "ani": 7439,
      "arily": 7440,
      "ende": 7441,
      "orted": 7442,
      "organ": 7443,
      "asık": 7444,
      "andığı": 7445,
      "advice": 7446,
      "reh": 7447,
      "unless": 7448,
      "itable": 7449,
      "seld": 7450,
      "seyahat": 7451,
      "olacağım": 7452,
      "amı": 7453,
      "aming": 7454,
      "due": 7455,
      "tif": 7456,
      "vermişti": 7457,
      "lap": 7458,
      "ırdam": 7459,
      "sigh": 7460,
      "sigar": 7461,
      "inizi": 7462,
      "ışığında": 7463,
      "evna": 7464,
      "ricul": 7465,
      "dene": 7466,
      "loving": 7467,
      "share": 7468,
      "gören": 7469,
      "gerçe": 7470,
      "convi": 7471,
      "usal": 7472,
      "independ": 7473,
      "yapıyor": 7474,
      "affect": 7475,
      "işlerini": 7476,
      "dediğini": 7477,
      "çıkmak": 7478,
      "somewhere": 7479,
      "canlandır": 7480,
      "hotel": 7481,
      "çekiyor": 7482,
      "mayacağını": 7483,
      "yüzlü": 7484,
      "dissatisfied": 7485,
      "proceeded": 7486,
      "yaramaz": 7487,
      "estab": 7488,
      "guide": 7489,
      "tale": 7490,
      "gitmişti": 7491,
      "harvest": 7492,
      "stoop": 7493,
      "korkuyordu": 7494,
      "goodness": 7495,
      "preci": 7496,
      "mezar": 7497,
      "specially": 7498,
      "vanished": 7499,
      "yatıştır": 7500,
      "açıklam": 7501,
      "salona": 7502,
      "elerden": 7503,
      "hayatta": 7504,
      "hatırlıyorum": 7505,
      "anlatmaya": 7506,
      "Arab": 7507,
      "finit": 7508,
      "finish": 7509,
      "yöntem": 7510,
      "etmekten": 7511,
      "hazırlık": 7512,
      "kardeşini": 7513,
      "yılda": 7514,
      "arabaya": 7515,
      "yumuş": 7516,
      "patron": 7517,
      "hissediyorum": 7518,
      "lükle": 7519,
      "sentence": 7520,
      "benziyordu": 7521,
      "titredi": 7522,
      "mittee": 7523,
      "rocks": 7524,
      "dostça": 7525,
      "needed": 7526,
      "duktan": 7527,
      "plainly": 7528,
      "tabak": 7529,
      "coats": 7530,
      "sufferings": 7531,
      "paylaş": 7532,
      "çağırdı": 7533,
      "refused": 7534,
      "gölgel": 7535,
      "arzu": 7536,
      "arzul": 7537,
      "brows": 7538,
      "kemer": 7539,
      "girişim": 7540,
      "softly": 7541,
      "yıldız": 7542,
      "conclusion": 7543,
      "yetiştir": 7544,
      "kalabal": 7545,
      "intimate": 7546,
      "frowning": 7547,
      "acımasız": 7548,
      "opera": 7549,
      "rahip": 7550,
      "müzik": 7551,
      "Pilot": 7552,
      "lendirdi": 7553,
      "Rabbit": 7554,
      "meadow": 7555,
      "Kuzma": 7556,
      "istemsizce": 7557,
      "sympathy": 7558,
      "knife": 7559,
      "tekerlek": 7560,
      "Doktor": 7561,
      "zahmet": 7562,
      "peynir": 7563,
      "cezalandır": 7564,
      "Ryabinin": 7565,
      "Ces": 7566,
      "Cour": 7567,
      "Had": 7568,
      "Mart": 7569,
      "NA": 7570,
      "Sizin": 7571,
      "Would": 7572,
      "döv": 7573,
      "een": 7574,
      "east": 7575,
      "fru": 7576,
      "frank": 7577,
      "gate": 7578,
      "htar": 7579,
      "keder": 7580,
      "nas": 7581,
      "oo": 7582,
      "pill": 7583,
      "sün": 7584,
      "vy": 7585,
      "yast": 7586,
      "üt": 7587,
      "şaf": 7588,
      "instru": 7589,
      "anki": 7590,
      "anladım": 7591,
      "ata": 7592,
      "atış": 7593,
      "adil": 7594,
      "adada": 7595,
      "adop": 7596,
      "tohum": 7597,
      "ayar": 7598,
      "ilar": 7599,
      "decide": 7600,
      "amadığı": 7601,
      "ceğiz": 7602,
      "strain": 7603,
      "içini": 7604,
      "edik": 7605,
      "accept": 7606,
      "enty": 7607,
      "razı": 7608,
      "sole": 7609,
      "teach": 7610,
      "teba": 7611,
      "başvur": 7612,
      "parted": 7613,
      "quet": 7614,
      "yapmış": 7615,
      "anahtar": 7616,
      "güdü": 7617,
      "sayesinde": 7618,
      "çekingen": 7619,
      "atest": 7620,
      "durdur": 7621,
      "yükse": 7622,
      "yüzünün": 7623,
      "spend": 7624,
      "anywhere": 7625,
      "koca": 7626,
      "viously": 7627,
      "inceledi": 7628,
      "prospect": 7629,
      "foreign": 7630,
      "söylerken": 7631,
      "halkı": 7632,
      "korun": 7633,
      "practi": 7634,
      "gerektir": 7635,
      "çaldı": 7636,
      "sevdiğini": 7637,
      "özür": 7638,
      "özgü": 7639,
      "ıldayan": 7640,
      "mamı": 7641,
      "tutan": 7642,
      "girmek": 7643,
      "kızın": 7644,
      "tırm": 7645,
      "tarafa": 7646,
      "tıklarında": 7647,
      "mutlak": 7648,
      "kayg": 7649,
      "grad": 7650,
      "inclined": 7651,
      "çıkarmak": 7652,
      "anlattım": 7653,
      "court": 7654,
      "Moor": 7655,
      "hepimiz": 7656,
      "conscience": 7657,
      "usually": 7658,
      "bakışla": 7659,
      "nedir": 7660,
      "itual": 7661,
      "yaşamak": 7662,
      "strugg": 7663,
      "luluğ": 7664,
      "yukarıda": 7665,
      "ifadeyle": 7666,
      "başarılı": 7667,
      "çaresiz": 7668,
      "wondered": 7669,
      "bringing": 7670,
      "personal": 7671,
      "dünyadaki": 7672,
      "drop": 7673,
      "playing": 7674,
      "yükselen": 7675,
      "pictures": 7676,
      "grief": 7677,
      "tasar": 7678,
      "beyefend": 7679,
      "decision": 7680,
      "Öyleyse": 7681,
      "kingdom": 7682,
      "nala": 7683,
      "During": 7684,
      "uzanan": 7685,
      "Hatta": 7686,
      "nitelik": 7687,
      "Providence": 7688,
      "connected": 7689,
      "knee": 7690,
      "Aleksandroviç": 7691,
      "Muhte": 7692,
      "equally": 7693,
      "persons": 7694,
      "çimen": 7695,
      "sonucuna": 7696,
      "employ": 7697,
      "sağlıklı": 7698,
      "apparently": 7699,
      "pozisyon": 7700,
      "bağımsız": 7701,
      "authority": 7702,
      "Colonel": 7703,
      "yürürken": 7704,
      "ünifor": 7705,
      "aracıl": 7706,
      "kaçınılmaz": 7707,
      "endeav": 7708,
      "'--": 7709,
      "Bili": 7710,
      "Duy": 7711,
      "EL": 7712,
      "Gover": 7713,
      "Haz": 7714,
      "Landa": 7715,
      "Mlle": 7716,
      "Slav": 7717,
      "Tha": 7718,
      "Take": 7719,
      "Zaten": 7720,
      "bits": 7721,
      "cit": 7722,
      "cattle": 7723,
      "ech": 7724,
      "flas": 7725,
      "glow": 7726,
      "glit": 7727,
      "kedi": 7728,
      "kast": 7729,
      "lant": 7730,
      "oh": 7731,
      "uyordum": 7732,
      "vad": 7733,
      "wil": 7734,
      "wol": 7735,
      "wave": 7736,
      "çta": 7737,
      "ödü": 7738,
      "İst": 7739,
      "inno": 7740,
      "inhabit": 7741,
      "angel": 7742,
      "hend": 7743,
      "hesit": 7744,
      "atik": 7745,
      "irad": 7746,
      "thither": 7747,
      "rever": 7748,
      "recall": 7749,
      "request": 7750,
      "recover": 7751,
      "recalled": 7752,
      "removed": 7753,
      "deb": 7754,
      "vermeye": 7755,
      "chol": 7756,
      "sabit": 7757,
      "ımızı": 7758,
      "içki": 7759,
      "accid": 7760,
      "gök": 7761,
      "raising": 7762,
      "kafam": 7763,
      "lod": 7764,
      "shining": 7765,
      "kara": 7766,
      "wheels": 7767,
      "boots": 7768,
      "ürper": 7769,
      "ify": 7770,
      "ladığım": 7771,
      "işin": 7772,
      "çıkardım": 7773,
      "elled": 7774,
      "agricul": 7775,
      "miştir": 7776,
      "gülerek": 7777,
      "lanche": 7778,
      "fail": 7779,
      "sizden": 7780,
      "Heaven": 7781,
      "mood": 7782,
      "bakarken": 7783,
      "keeper": 7784,
      "çekin": 7785,
      "çekip": 7786,
      "distingu": 7787,
      "duymak": 7788,
      "avukat": 7789,
      "yaral": 7790,
      "berrak": 7791,
      "gözlerine": 7792,
      "konuştu": 7793,
      "timid": 7794,
      "bitirdi": 7795,
      "cesur": 7796,
      "missed": 7797,
      "kaygı": 7798,
      "waters": 7799,
      "toplantı": 7800,
      "valet": 7801,
      "battle": 7802,
      "ihmal": 7803,
      "abilirim": 7804,
      "materi": 7805,
      "calcul": 7806,
      "north": 7807,
      "ayrıldı": 7808,
      "lovna": 7809,
      "güçsüz": 7810,
      "larımızı": 7811,
      "yürümeye": 7812,
      "yönel": 7813,
      "yönelt": 7814,
      "fırladı": 7815,
      "ınızı": 7816,
      "Reading": 7817,
      "yardımıyla": 7818,
      "ruhunda": 7819,
      "choice": 7820,
      "ateşli": 7821,
      "arkadaşı": 7822,
      "mutluyum": 7823,
      "flew": 7824,
      "ucuna": 7825,
      "gizem": 7826,
      "gidelim": 7827,
      "greet": 7828,
      "greatest": 7829,
      "kavray": 7830,
      "kavuştur": 7831,
      "Kendisi": 7832,
      "indign": 7833,
      "charge": 7834,
      "Beyaz": 7835,
      "Vasily": 7836,
      "dörtnala": 7837,
      "heyecanlı": 7838,
      "borç": 7839,
      "windows": 7840,
      "kisinden": 7841,
      "similar": 7842,
      "karşılığında": 7843,
      "dehşete": 7844,
      "meşgu": 7845,
      "seviyor": 7846,
      "gallery": 7847,
      "deeply": 7848,
      "judgment": 7849,
      "patient": 7850,
      "etkilen": 7851,
      "lines": 7852,
      "gördüğümde": 7853,
      "şaka": 7854,
      "İçeri": 7855,
      "yaptıkları": 7856,
      "yararlı": 7857,
      "vücud": 7858,
      "fifty": 7859,
      "jealousy": 7860,
      "yargıl": 7861,
      "street": 7862,
      "knocked": 7863,
      "lazım": 7864,
      "square": 7865,
      "article": 7866,
      "conduct": 7867,
      "karmaşık": 7868,
      "Pavlovna": 7869,
      "Vlasevna": 7870,
      "determined": 7871,
      "group": 7872,
      "pillar": 7873,
      "misafir": 7874,
      "Myagkaya": 7875,
      "Usher": 7876,
      "seldom": 7877,
      "Landau": 7878,
      "):": 7879,
      "AB": 7880,
      "Ağ": 7881,
      "Brezil": 7882,
      "Fer": 7883,
      "Gar": 7884,
      "Ol": 7885,
      "Our": 7886,
      "Por": 7887,
      "Sonu": 7888,
      "Sever": 7889,
      "Step": 7890,
      "Upon": 7891,
      "Whe": 7892,
      "bbed": 7893,
      "brain": 7894,
      "dit": 7895,
      "donu": 7896,
      "fly": 7897,
      "fow": 7898,
      "faced": 7899,
      "gli": 7900,
      "gates": 7901,
      "mate": 7902,
      "mıydı": 7903,
      "pür": 7904,
      "pelerin": 7905,
      "sına": 7906,
      "swall": 7907,
      "tles": 7908,
      "taydı": 7909,
      "wing": 7910,
      "yam": 7911,
      "yards": 7912,
      "zem": 7913,
      "öte": 7914,
      "öbet": 7915,
      "üs": 7916,
      "indifferent": 7917,
      "anlıyorum": 7918,
      "arse": 7919,
      "arka": 7920,
      "andırdı": 7921,
      "veil": 7922,
      "vexed": 7923,
      "melan": 7924,
      "recovered": 7925,
      "reconc": 7926,
      "uncle": 7927,
      "deed": 7928,
      "imle": 7929,
      "amid": 7930,
      "stere": 7931,
      "stic": 7932,
      "ellikle": 7933,
      "daily": 7934,
      "ette": 7935,
      "built": 7936,
      "ündü": 7937,
      "eser": 7938,
      "haft": 7939,
      "neyin": 7940,
      "içimde": 7941,
      "sip": 7942,
      "ument": 7943,
      "ediyordum": 7944,
      "raft": 7945,
      "ıştım": 7946,
      "gecik": 7947,
      "suyu": 7948,
      "suyla": 7949,
      "ılıyor": 7950,
      "shud": 7951,
      "shaking": 7952,
      "butter": 7953,
      "muyordu": 7954,
      "tail": 7955,
      "goat": 7956,
      "manız": 7957,
      "mantar": 7958,
      "önlem": 7959,
      "ğiyle": 7960,
      "...\"": 7961,
      "yapma": 7962,
      "kalmadı": 7963,
      "west": 7964,
      "cook": 7965,
      "işim": 7966,
      "luc": 7967,
      "ısındaki": 7968,
      "---": 7969,
      "faint": 7970,
      "yanıl": 7971,
      "bakıyor": 7972,
      "sormak": 7973,
      "lüğü": 7974,
      "arkam": 7975,
      "günlük": 7976,
      "geçiyordu": 7977,
      "tüy": 7978,
      "proceed": 7979,
      "hedge": 7980,
      "handed": 7981,
      "gözleriyle": 7982,
      "setting": 7983,
      "merrily": 7984,
      "ersiniz": 7985,
      "katı": 7986,
      "girdim": 7987,
      "boys": 7988,
      "mistaken": 7989,
      "tıkları": 7990,
      "fazl": 7991,
      "böylesine": 7992,
      "durumdan": 7993,
      "süredir": 7994,
      "ihtim": 7995,
      "abilirdim": 7996,
      "sağlamak": 7997,
      "saatte": 7998,
      "abileceğimi": 7999,
      "kısmen": 8000,
      "önemlisi": 8001,
      "oldukları": 8002,
      "sahipti": 8003,
      "alılar": 8004,
      "aldığım": 8005,
      "sertçe": 8006,
      "Aslında": 8007,
      "kocası": 8008,
      "kâh": 8009,
      "awful": 8010,
      "confusion": 8011,
      "France": 8012,
      "Fransa": 8013,
      "indic": 8014,
      "laws": 8015,
      "Aynı": 8016,
      "sounded": 8017,
      "realized": 8018,
      "lendiğini": 8019,
      "remarkable": 8020,
      "tepenin": 8021,
      "ormouse": 8022,
      "fellows": 8023,
      "ilişki": 8024,
      "kurtarmak": 8025,
      "sofa": 8026,
      "attentively": 8027,
      "Hangi": 8028,
      "Alexandrovna": 8029,
      "bride": 8030,
      "Kork": 8031,
      "example": 8032,
      "okumaya": 8033,
      "sıkıca": 8034,
      "reflection": 8035,
      "instance": 8036,
      "Paris": 8037,
      "ilişkiler": 8038,
      "zorundaydı": 8039,
      "oğlunun": 8040,
      "concluded": 8041,
      "gloom": 8042,
      "kuzey": 8043,
      "hungry": 8044,
      "physical": 8045,
      "zalim": 8046,
      "üzgünüm": 8047,
      "yetenekli": 8048,
      "London": 8049,
      "Londra": 8050,
      "çamur": 8051,
      "epeyce": 8052,
      "çevrili": 8053,
      "exercise": 8054,
      "kuyru": 8055,
      "zincir": 8056,
      "Lvov": 8057,
      "unusual": 8058,
      "accident": 8059,
      "Brezilya": 8060,
      "Dormouse": 8061,
      "HE": 8062,
      "Nord": 8063,
      "aunt": 8064,
      "ccar": 8065,
      "ctive": 8066,
      "hired": 8067,
      "lığında": 8068,
      "lilik": 8069,
      "oş": 8070,
      "ril": 8071,
      "sation": 8072,
      "sark": 8073,
      "sarı": 8074,
      "tadını": 8075,
      "vb": 8076,
      "wake": 8077,
      "ysa": 8078,
      "èche": 8079,
      "üri": 8080,
      "ino": 8081,
      "inval": 8082,
      "instr": 8083,
      "anak": 8084,
      "aramaya": 8085,
      "ening": 8086,
      "atlar": 8087,
      "atta": 8088,
      "alev": 8089,
      "aloud": 8090,
      "istan": 8091,
      "iselle": 8092,
      "memesi": 8093,
      "delik": 8094,
      "design": 8095,
      "stak": 8096,
      "etmesini": 8097,
      "liğinden": 8098,
      "tie": 8099,
      "verst": 8100,
      "saz": 8101,
      "umph": 8102,
      "acing": 8103,
      "actu": 8104,
      "acıma": 8105,
      "accompan": 8106,
      "abili": 8107,
      "giydi": 8108,
      "superi": 8109,
      "ağına": 8110,
      "odasının": 8111,
      "rud": 8112,
      "ruined": 8113,
      "sonuna": 8114,
      "likte": 8115,
      "önünden": 8116,
      "constant": 8117,
      "resist": 8118,
      "kenin": 8119,
      "mekte": 8120,
      "selam": 8121,
      "gelmedi": 8122,
      "kalmak": 8123,
      "küf": 8124,
      "cies": 8125,
      "zamanında": 8126,
      "hotin": 8127,
      "çekiyordu": 8128,
      "takın": 8129,
      "durgun": 8130,
      "bliss": 8131,
      "yetecek": 8132,
      "tüccar": 8133,
      "adamların": 8134,
      "reader": 8135,
      "settle": 8136,
      "hastened": 8137,
      "dönen": 8138,
      "mamal": 8139,
      "mamaya": 8140,
      "söyleyerek": 8141,
      "aynısını": 8142,
      "lets": 8143,
      "letters": 8144,
      "kızıl": 8145,
      "oturdum": 8146,
      "hither": 8147,
      "kanlı": 8148,
      "prefer": 8149,
      "misfortune": 8150,
      "yuv": 8151,
      "barın": 8152,
      "silently": 8153,
      "repul": 8154,
      "grant": 8155,
      "mony": 8156,
      "güzeldi": 8157,
      "hayata": 8158,
      "hayatının": 8159,
      "düşünceli": 8160,
      "curtain": 8161,
      "anlamda": 8162,
      "partly": 8163,
      "calèche": 8164,
      "kadınlar": 8165,
      "ayrıld": 8166,
      "ships": 8167,
      "audi": 8168,
      "çiğ": 8169,
      "doesn": 8170,
      "hayalet": 8171,
      "basamak": 8172,
      "ihtiyat": 8173,
      "karşılaştır": 8174,
      "melisin": 8175,
      "geçirmek": 8176,
      "suçlam": 8177,
      "lonely": 8178,
      "öfkeli": 8179,
      "driving": 8180,
      "darling": 8181,
      "öğrenc": 8182,
      "öğrenmek": 8183,
      "dukları": 8184,
      "mahv": 8185,
      "gemiyi": 8186,
      "sorular": 8187,
      "badly": 8188,
      "gaze": 8189,
      "duruyor": 8190,
      "dilerim": 8191,
      "divided": 8192,
      "labourers": 8193,
      "yelim": 8194,
      "couple": 8195,
      "şaşkınlık": 8196,
      "office": 8197,
      "Bunların": 8198,
      "yükseldi": 8199,
      "İngilizce": 8200,
      "empty": 8201,
      "sohbete": 8202,
      "advanced": 8203,
      "pencereden": 8204,
      "noktaya": 8205,
      "sürüklen": 8206,
      "kıvr": 8207,
      "kıvır": 8208,
      "hills": 8209,
      "passionate": 8210,
      "eğilim": 8211,
      "reflected": 8212,
      "İvanovna": 8213,
      "gülün": 8214,
      "thorough": 8215,
      "coşku": 8216,
      "akıllıca": 8217,
      "bekliyordum": 8218,
      "Görü": 8219,
      "irritated": 8220,
      "instantly": 8221,
      "graceful": 8222,
      "suggested": 8223,
      "şömin": 8224,
      "emoiselle": 8225,
      "introduced": 8226,
      "alışkanlık": 8227,
      "Liber": 8228,
      "telegram": 8229,
      "imagination": 8230,
      "peşinden": 8231,
      "mektubu": 8232,
      "Janet": 8233,
      "felaket": 8234,
      "drowned": 8235,
      "departure": 8236,
      "desperate": 8237,
      "tongue": 8238,
      "appointment": 8239,
      "rehber": 8240,
      "Court": 8241,
      "Nordston": 8242,
      "Bri": 8243,
      "Bah": 8244,
      "CON": 8245,
      "EK": 8246,
      "Eve": 8247,
      "Fil": 8248,
      "Gece": 8249,
      "IL": 8250,
      "Kesin": 8251,
      "NING": 8252,
      "OB": 8253,
      "Sou": 8254,
      "Than": 8255,
      "Yu": 8256,
      "bini": 8257,
      "bree": 8258,
      "bought": 8259,
      "clu": 8260,
      "kıl": 8261,
      "kılı": 8262,
      "mock": 8263,
      "nöbet": 8264,
      "salar": 8265,
      "tuz": 8266,
      "tram": 8267,
      "vik": 8268,
      "vot": 8269,
      "win": 8270,
      "Çalış": 8271,
      "ÜN": 8272,
      "çu": 8273,
      "şanı": 8274,
      "inn": 8275,
      "inat": 8276,
      "anni": 8277,
      "heat": 8278,
      "erzak": 8279,
      "edeceğim": 8280,
      "iran": 8281,
      "asıydı": 8282,
      "alle": 8283,
      "vex": 8284,
      "ades": 8285,
      "tools": 8286,
      "ilah": 8287,
      "improve": 8288,
      "birleştir": 8289,
      "sear": 8290,
      "ami": 8291,
      "stuff": 8292,
      "larak": 8293,
      "becoming": 8294,
      "buried": 8295,
      "tight": 8296,
      "esir": 8297,
      "vermeden": 8298,
      "lerimiz": 8299,
      "içgüdü": 8300,
      "ediyorsun": 8301,
      "acle": 8302,
      "acknowled": 8303,
      "accusto": 8304,
      "göstere": 8305,
      "evli": 8306,
      "geve": 8307,
      "gives": 8308,
      "dance": 8309,
      "loose": 8310,
      "kadını": 8311,
      "mush": 8312,
      "manı": 8313,
      "appreci": 8314,
      "contemp": 8315,
      "geldin": 8316,
      "wear": 8317,
      "ext": 8318,
      "masa": 8319,
      "peror": 8320,
      "agna": 8321,
      "ğimden": 8322,
      "somebody": 8323,
      "lanarak": 8324,
      "faali": 8325,
      "bakmadan": 8326,
      "bakalım": 8327,
      "çekic": 8328,
      "sorgul": 8329,
      "ateşi": 8330,
      "anybody": 8331,
      "incecik": 8332,
      "tarih": 8333,
      "proposed": 8334,
      "vari": 8335,
      "various": 8336,
      "yakalay": 8337,
      "veda": 8338,
      "pron": 8339,
      "adamla": 8340,
      "rows": 8341,
      "buradan": 8342,
      "korkmuş": 8343,
      "scy": 8344,
      "kurum": 8345,
      "kıyafet": 8346,
      "geride": 8347,
      "prehend": 8348,
      "tarafı": 8349,
      "greatly": 8350,
      "Geç": 8351,
      "eşi": 8352,
      "açıktı": 8353,
      "cares": 8354,
      "carpet": 8355,
      "durumunu": 8356,
      "bıraktığı": 8357,
      "istic": 8358,
      "Neh": 8359,
      "report": 8360,
      "hoşuna": 8361,
      "lightly": 8362,
      "bilirsiniz": 8363,
      "biriydi": 8364,
      "mazdı": 8365,
      "tümüyle": 8366,
      "HAD": 8367,
      "hemş": 8368,
      "sağlayacak": 8369,
      "attend": 8370,
      "hearted": 8371,
      "babası": 8372,
      "dikkatlice": 8373,
      "kalktım": 8374,
      "taşım": 8375,
      "eleg": 8376,
      "eleven": 8377,
      "Varya": 8378,
      "hearth": 8379,
      "amayan": 8380,
      "sıç": 8381,
      "kısacası": 8382,
      "powers": 8383,
      "etrafta": 8384,
      "pains": 8385,
      "interests": 8386,
      "kilis": 8387,
      "bekleyen": 8388,
      "porch": 8389,
      "ucunda": 8390,
      "kahkah": 8391,
      "kahveren": 8392,
      "karşılaştı": 8393,
      "karısını": 8394,
      "spiritual": 8395,
      "liğiyle": 8396,
      "gönderdi": 8397,
      "doubted": 8398,
      "sallayarak": 8399,
      "zevkle": 8400,
      "kissing": 8401,
      "repeat": 8402,
      "ESS": 8403,
      "preparing": 8404,
      "cats": 8405,
      "dayanılmaz": 8406,
      "calmly": 8407,
      "stick": 8408,
      "pushed": 8409,
      "leyip": 8410,
      "refuse": 8411,
      "rüya": 8412,
      "examined": 8413,
      "castle": 8414,
      "tereyağ": 8415,
      "trans": 8416,
      "eğilip": 8417,
      "brown": 8418,
      "seriously": 8419,
      "recognized": 8420,
      "anticip": 8421,
      "eksik": 8422,
      "religious": 8423,
      "funny": 8424,
      "macer": 8425,
      "000": 8426,
      "pirinç": 8427,
      "Province": 8428,
      "Aleksandrovna": 8429,
      "violent": 8430,
      "demanded": 8431,
      "gömle": 8432,
      "içtenlikle": 8433,
      "kitabı": 8434,
      "measures": 8435,
      "iddia": 8436,
      "belonged": 8437,
      "emretti": 8438,
      "öfkel": 8439,
      "building": 8440,
      "wretched": 8441,
      "tabii": 8442,
      "keyifli": 8443,
      "gallop": 8444,
      "secured": 8445,
      "ölçüde": 8446,
      "ücret": 8447,
      "çeyrek": 8448,
      "aracılığıyla": 8449,
      "invalid": 8450,
      "accustomed": 8451,
      "faaliyet": 8452,
      ";'": 8453,
      "AK": 8454,
      "Blanche": 8455,
      "CI": 8456,
      "Ek": 8457,
      "Et": 8458,
      "June": 8459,
      "Otur": 8460,
      "Rob": 8461,
      "Shall": 8462,
      "UL": 8463,
      "ax": 8464,
      "city": 8465,
      "dör": 8466,
      "drank": 8467,
      "drunk": 8468,
      "farm": 8469,
      "gesi": 8470,
      "jury": 8471,
      "kid": 8472,
      "kward": 8473,
      "mare": 8474,
      "nde": 8475,
      "nüf": 8476,
      "paket": 8477,
      "rated": 8478,
      "rings": 8479,
      "süne": 8480,
      "sünün": 8481,
      "tına": 8482,
      "uyorum": 8483,
      "vardım": 8484,
      "üyor": 8485,
      "indifference": 8486,
      "army": 8487,
      "araştır": 8488,
      "edeceğini": 8489,
      "oradaki": 8490,
      "ouses": 8491,
      "alg": 8492,
      "alter": 8493,
      "memi": 8494,
      "reve": 8495,
      "remo": 8496,
      "akış": 8497,
      "ilo": 8498,
      "itti": 8499,
      "delay": 8500,
      "bird": 8501,
      "seated": 8502,
      "olgun": 8503,
      "olsam": 8504,
      "olacağı": 8505,
      "duties": 8506,
      "elere": 8507,
      "larsa": 8508,
      "bebek": 8509,
      "lerse": 8510,
      "chor": 8511,
      "charm": 8512,
      "wholly": 8513,
      "forth": 8514,
      "acting": 8515,
      "ışın": 8516,
      "aşa": 8517,
      "ulted": 8518,
      "tıyordu": 8519,
      "illness": 8520,
      "şeyim": 8521,
      "whenever": 8522,
      "makla": 8523,
      "resses": 8524,
      "boards": 8525,
      "hatred": 8526,
      "kaları": 8527,
      "uzz": 8528,
      "madığım": 8529,
      "ikov": 8530,
      "kütü": 8531,
      "güver": 8532,
      "seslen": 8533,
      "renkli": 8534,
      "sank": 8535,
      "saydı": 8536,
      "çekmek": 8537,
      "alarda": 8538,
      "discourse": 8539,
      "koya": 8540,
      "tüfek": 8541,
      "proof": 8542,
      "bulduğum": 8543,
      "acağından": 8544,
      "bert": 8545,
      "ledir": 8546,
      "guest": 8547,
      "merdiv": 8548,
      "gitmem": 8549,
      "üzereydi": 8550,
      "konuşuyor": 8551,
      "konuşmanın": 8552,
      "harm": 8553,
      "hariç": 8554,
      "dinliyordu": 8555,
      "tuttum": 8556,
      "zih": 8557,
      "giren": 8558,
      "sıktı": 8559,
      "devoured": 8560,
      "bitkin": 8561,
      "cesine": 8562,
      "direk": 8563,
      "beklent": 8564,
      "lling": 8565,
      "speech": 8566,
      "farkındaydı": 8567,
      "lessly": 8568,
      "nedeni": 8569,
      "bıraktığım": 8570,
      "happens": 8571,
      "isteye": 8572,
      "istemez": 8573,
      "nervous": 8574,
      "koyun": 8575,
      "household": 8576,
      "solitary": 8577,
      "surve": 8578,
      "getiril": 8579,
      "lasses": 8580,
      "anlamı": 8581,
      "anlamını": 8582,
      "anlamaya": 8583,
      "anlamıyorum": 8584,
      "parts": 8585,
      "gösteren": 8586,
      "lığıyla": 8587,
      "kindness": 8588,
      "boats": 8589,
      "consideration": 8590,
      "şeylerden": 8591,
      "olmasından": 8592,
      "string": 8593,
      "lukla": 8594,
      "fırtına": 8595,
      "olmayacağını": 8596,
      "plough": 8597,
      "price": 8598,
      "ayaklarının": 8599,
      "luğunu": 8600,
      "boşuna": 8601,
      "sakinleş": 8602,
      "breast": 8603,
      "itution": 8604,
      "kaldırarak": 8605,
      "ülk": 8606,
      "marked": 8607,
      "awkward": 8608,
      "enemies": 8609,
      "tereddü": 8610,
      "severe": 8611,
      "değerlendir": 8612,
      "titiz": 8613,
      "darbe": 8614,
      "coldly": 8615,
      "karısıyla": 8616,
      "tray": 8617,
      "tesad": 8618,
      "ORGE": 8619,
      "bazıları": 8620,
      "ımızda": 8621,
      "centre": 8622,
      "staircase": 8623,
      "crack": 8624,
      "officer": 8625,
      "ağaçların": 8626,
      "opinions": 8627,
      "seviyordu": 8628,
      "energy": 8629,
      "visitor": 8630,
      "pulling": 8631,
      "swim": 8632,
      "habitation": 8633,
      "supply": 8634,
      "etkili": 8635,
      "property": 8636,
      "edilemez": 8637,
      "prayers": 8638,
      "Kingston": 8639,
      "animated": 8640,
      "okumak": 8641,
      "Sometimes": 8642,
      "istekli": 8643,
      "GEORGE": 8644,
      "connection": 8645,
      "describe": 8646,
      "eskiden": 8647,
      "destroyed": 8648,
      "machine": 8649,
      "conveni": 8650,
      "folded": 8651,
      "agitation": 8652,
      "hıçkırık": 8653,
      "Makhotin": 8654,
      "attractive": 8655,
      "modern": 8656,
      "ükümet": 8657,
      "bardak": 8658,
      "district": 8659,
      "history": 8660,
      "correct": 8661,
      "homur": 8662,
      "significant": 8663,
      "ridiculous": 8664,
      "Yağmur": 8665,
      "Thames": 8666,
      "gülünç": 8667,
      "Liberal": 8668,
      "Briggs": 8669,
      "Robin": 8670,
      "!”": 8671,
      "30": 8672,
      "Braz": 8673,
      "Che": 8674,
      "DI": 8675,
      "Dış": 8676,
      "ET": 8677,
      "Ef": 8678,
      "Kur": 8679,
      "Mon": 8680,
      "Söyle": 8681,
      "aj": 8682,
      "blan": 8683,
      "cısı": 8684,
      "dad": 8685,
      "dre": 8686,
      "dirdi": 8687,
      "eği": 8688,
      "glor": 8689,
      "kiler": 8690,
      "kuyla": 8691,
      "lof": 8692,
      "list": 8693,
      "osun": 8694,
      "puzz": 8695,
      "raki": 8696,
      "sığın": 8697,
      "tö": 8698,
      "vac": 8699,
      "visible": 8700,
      "wn": 8701,
      "çinin": 8702,
      "şart": 8703,
      "anlıyor": 8704,
      "hest": 8705,
      "orta": 8706,
      "isn": 8707,
      "thre": 8708,
      "leti": 8709,
      "ady": 8710,
      "adaya": 8711,
      "reter": 8712,
      "birinde": 8713,
      "birik": 8714,
      "dust": 8715,
      "style": 8716,
      "elleri": 8717,
      "lardır": 8718,
      "etmiyordu": 8719,
      "etmiyor": 8720,
      "beat": 8721,
      "lip": 8722,
      "eskisinden": 8723,
      "hael": 8724,
      "verildi": 8725,
      "lack": 8726,
      "chim": 8727,
      "ıklarında": 8728,
      "negle": 8729,
      "accep": 8730,
      "acıklı": 8731,
      "ident": 8732,
      "rained": 8733,
      "sos": 8734,
      "utmost": 8735,
      "alling": 8736,
      "dence": 8737,
      "shine": 8738,
      "shop": 8739,
      "peye": 8740,
      "const": 8741,
      "gelmiş": 8742,
      "parıltı": 8743,
      "yapış": 8744,
      "ladder": 8745,
      "kaldık": 8746,
      "çıkmış": 8747,
      "rous": 8748,
      "roused": 8749,
      "yanıyordu": 8750,
      "yansky": 8751,
      "yanıt": 8752,
      "hose": 8753,
      "ipek": 8754,
      "lamıştı": 8755,
      "sanıyordum": 8756,
      "laşmış": 8757,
      "uyuş": 8758,
      "uyarı": 8759,
      "dish": 8760,
      "incele": 8761,
      "güney": 8762,
      "geçici": 8763,
      "yaşadığım": 8764,
      "Itali": 8765,
      "lately": 8766,
      "firmed": 8767,
      "bileceğimi": 8768,
      "leriniz": 8769,
      "isions": 8770,
      "yoksun": 8771,
      "Karş": 8772,
      "talim": 8773,
      "gitmeyi": 8774,
      "konuşmasını": 8775,
      "downstairs": 8776,
      "ounce": 8777,
      "sincere": 8778,
      "thanks": 8779,
      "burning": 8780,
      "tuttuğu": 8781,
      "girdiler": 8782,
      "risen": 8783,
      "tırman": 8784,
      "heads": 8785,
      "insanlara": 8786,
      "vanın": 8787,
      "şimdiki": 8788,
      "nedenini": 8789,
      "bırakmak": 8790,
      "silly": 8791,
      "grim": 8792,
      "smoke": 8793,
      "inclu": 8794,
      "düşünceleri": 8795,
      "getirdim": 8796,
      "HAT": 8797,
      "sağlay": 8798,
      "çıkarmaya": 8799,
      "anlamlı": 8800,
      "gösterdiği": 8801,
      "stepping": 8802,
      "görüle": 8803,
      "görüyorsunuz": 8804,
      "kadındı": 8805,
      "kadınların": 8806,
      "üstün": 8807,
      "babam": 8808,
      "babamın": 8809,
      "submit": 8810,
      "yönünde": 8811,
      "brothers": 8812,
      "arabacı": 8813,
      "dışarıda": 8814,
      "elections": 8815,
      "excuse": 8816,
      "gidiyorum": 8817,
      "telgraf": 8818,
      "enemy": 8819,
      "geçirdim": 8820,
      "giderken": 8821,
      "Sviyazhski": 8822,
      "ifadesini": 8823,
      "sounds": 8824,
      "dağı": 8825,
      "shoes": 8826,
      "straw": 8827,
      "şaşırdım": 8828,
      "yavru": 8829,
      "sorts": 8830,
      "sesiyle": 8831,
      "çizg": 8832,
      "havaya": 8833,
      "korkuyordum": 8834,
      "köylüler": 8835,
      "hanımlar": 8836,
      "kiral": 8837,
      "sevgil": 8838,
      "descended": 8839,
      "öpü": 8840,
      "crossed": 8841,
      "provided": 8842,
      "trembled": 8843,
      "spark": 8844,
      "öldüre": 8845,
      "plantation": 8846,
      "hayranlık": 8847,
      "separate": 8848,
      "nobles": 8849,
      "çukur": 8850,
      "healthy": 8851,
      "fastened": 8852,
      "İtalyan": 8853,
      "wounded": 8854,
      "Shcherbatskys": 8855,
      "başlıca": 8856,
      "increasing": 8857,
      "teşvik": 8858,
      "commenced": 8859,
      "assured": 8860,
      "Yaklaşık": 8861,
      "conceal": 8862,
      "virtu": 8863,
      "şarap": 8864,
      "aristo": 8865,
      "sports": 8866,
      "kahkaha": 8867,
      "younger": 8868,
      "ayakkabı": 8869,
      "fruit": 8870,
      "superior": 8871,
      "kahverengi": 8872,
      "16": 8873,
      "Ano": 8874,
      "Amer": 8875,
      "Buna": 8876,
      "Cen": 8877,
      "Dev": 8878,
      "Flor": 8879,
      "Gre": 8880,
      "Hare": 8881,
      "Kut": 8882,
      "Kah": 8883,
      "Lat": 8884,
      "Nap": 8885,
      "Od": 8886,
      "Pi": 8887,
      "Rome": 8888,
      "Sır": 8889,
      "Still": 8890,
      "Yat": 8891,
      "cab": 8892,
      "cana": 8893,
      "eman": 8894,
      "gl": 8895,
      "geni": 8896,
      "gging": 8897,
      "glasses": 8898,
      "koku": 8899,
      "mitted": 8900,
      "nişan": 8901,
      "sme": 8902,
      "ymiş": 8903,
      "yığın": 8904,
      "öted": 8905,
      "İŞ": 8906,
      "Şim": 8907,
      "şok": 8908,
      "anya": 8909,
      "heves": 8910,
      "atları": 8911,
      "attered": 8912,
      "alaş": 8913,
      "andaş": 8914,
      "thrust": 8915,
      "level": 8916,
      "ads": 8917,
      "meal": 8918,
      "mess": 8919,
      "melek": 8920,
      "mesaf": 8921,
      "unfortun": 8922,
      "ayıp": 8923,
      "definite": 8924,
      "cez": 8925,
      "dign": 8926,
      "elimde": 8927,
      "etmenin": 8928,
      "novel": 8929,
      "beard": 8930,
      "bust": 8931,
      "buhar": 8932,
      "vererek": 8933,
      "ırdım": 8934,
      "lerdir": 8935,
      "wash": 8936,
      "uring": 8937,
      "rot": 8938,
      "neye": 8939,
      "acın": 8940,
      "acious": 8941,
      "eyken": 8942,
      "giyim": 8943,
      "deney": 8944,
      "loaded": 8945,
      "üzüm": 8946,
      "shan": 8947,
      "kada": 8948,
      "muc": 8949,
      "izledi": 8950,
      "odasından": 8951,
      "benzi": 8952,
      "taught": 8953,
      "başardı": 8954,
      "yici": 8955,
      "deri": 8956,
      "derdi": 8957,
      "düşkün": 8958,
      "parladı": 8959,
      "embro": 8960,
      "tances": 8961,
      "yapacağımı": 8962,
      "kalmaya": 8963,
      "exper": 8964,
      "antas": 8965,
      "düşüne": 8966,
      "düşünmüş": 8967,
      "çıkmaya": 8968,
      "çıktığında": 8969,
      "menizi": 8970,
      "masum": 8971,
      "gülü": 8972,
      "somehow": 8973,
      "Any": 8974,
      "baktığımda": 8975,
      "ahır": 8976,
      "sormaya": 8977,
      "yerlerde": 8978,
      "duyuyordu": 8979,
      "duyduğunda": 8980,
      "tary": 8981,
      "günden": 8982,
      "günüm": 8983,
      "geçtiğini": 8984,
      "ettiğinde": 8985,
      "yakış": 8986,
      "olanları": 8987,
      "yaşında": 8988,
      "ables": 8989,
      "eping": 8990,
      "kapıl": 8991,
      "kapalı": 8992,
      "göze": 8993,
      "iliğin": 8994,
      "açıldı": 8995,
      "yoluyla": 8996,
      "katlan": 8997,
      "dönmek": 8998,
      "dönmüş": 8999,
      "büyüktü": 9000,
      "harness": 9001,
      "scor": 9002,
      "dinlemek": 9003,
      "Birden": 9004,
      "söylemedi": 9005,
      "söyleyen": 9006,
      "sensation": 9007,
      "sıkış": 9008,
      "nevertheless": 9009,
      "risk": 9010,
      "eliği": 9011,
      "otururken": 9012,
      "geldiği": 9013,
      "misiniz": 9014,
      "contrast": 9015,
      "insanı": 9016,
      "horrid": 9017,
      "yatıyordu": 9018,
      "gülümsü": 9019,
      "elerinin": 9020,
      "mediler": 9021,
      "oğlum": 9022,
      "solitude": 9023,
      "düşüncelerimi": 9024,
      "fortnight": 9025,
      "doorway": 9026,
      "partner": 9027,
      "Aleks": 9028,
      "attitude": 9029,
      "ildiğinde": 9030,
      "olmasaydı": 9031,
      "döndüğüm": 9032,
      "Petrov": 9033,
      "changing": 9034,
      "ilgisi": 9035,
      "rested": 9036,
      "samond": 9037,
      "easier": 9038,
      "continue": 9039,
      "ruhsal": 9040,
      "ruhunun": 9041,
      "murder": 9042,
      "olacaktır": 9043,
      "amayacağım": 9044,
      "amayacağı": 9045,
      "saçlı": 9046,
      "saçlarını": 9047,
      "Albay": 9048,
      "ANNA": 9049,
      "unutmuştu": 9050,
      "ENS": 9051,
      "deliber": 9052,
      "points": 9053,
      "furn": 9054,
      "ediyorlardı": 9055,
      "gemide": 9056,
      "ormanda": 9057,
      "repeating": 9058,
      "hayırsever": 9059,
      "olduğumdan": 9060,
      "teknede": 9061,
      "güneşin": 9062,
      "sinirli": 9063,
      "steadily": 9064,
      "summon": 9065,
      "olabilecek": 9066,
      "swam": 9067,
      "Korsun": 9068,
      "başladığında": 9069,
      "worthy": 9070,
      "gururlu": 9071,
      "talihsizlik": 9072,
      "hostess": 9073,
      "avoided": 9074,
      "weakness": 9075,
      "hesab": 9076,
      "strangers": 9077,
      "Committee": 9078,
      "seeking": 9079,
      "favourite": 9080,
      "titreyen": 9081,
      "infant": 9082,
      "frequent": 9083,
      "accordingly": 9084,
      "sürdürdü": 9085,
      "Tavşanı": 9086,
      "yürüyüşe": 9087,
      "öfkelen": 9088,
      "emotion": 9089,
      "Rosamond": 9090,
      "vague": 9091,
      "increased": 9092,
      "mürebbiye": 9093,
      "platform": 9094,
      "bilincinde": 9095,
      "Juli": 9096,
      "sığır": 9097,
      "Such": 9098,
      "cheese": 9099,
      "çırp": 9100,
      "quantity": 9101,
      "conviction": 9102,
      "Stephen": 9103,
      "donuk": 9104,
      "küfür": 9105,
      "Another": 9106,
      "Aleksis": 9107,
      "Con": 9108,
      "Cev": 9109,
      "Coun": 9110,
      "GH": 9111,
      "Gu": 9112,
      "Give": 9113,
      "Kan": 9114,
      "MOR": 9115,
      "Nereye": 9116,
      "OT": 9117,
      "RA": 9118,
      "Scat": 9119,
      "Thus": 9120,
      "Those": 9121,
      "Umar": 9122,
      "WAS": 9123,
      "Yüzü": 9124,
      "ame": 9125,
      "binip": 9126,
      "dine": 9127,
      "dwell": 9128,
      "dilik": 9129,
      "eme": 9130,
      "fu": 9131,
      "fli": 9132,
      "gol": 9133,
      "gere": 9134,
      "gence": 9135,
      "houses": 9136,
      "ife": 9137,
      "ju": 9138,
      "kili": 9139,
      "lünün": 9140,
      "mber": 9141,
      "oya": 9142,
      "pip": 9143,
      "ralı": 9144,
      "wl": 9145,
      "woke": 9146,
      "zek": 9147,
      "çadır": 9148,
      "üret": 9149,
      "şer": 9150,
      "şun": 9151,
      "iny": 9152,
      "inner": 9153,
      "intik": 9154,
      "anında": 9155,
      "angr": 9156,
      "aradım": 9157,
      "encoura": 9158,
      "ony": 9159,
      "edge": 9160,
      "edemedim": 9161,
      "irse": 9162,
      "aspect": 9163,
      "altered": 9164,
      "isiz": 9165,
      "isiniz": 9166,
      "leading": 9167,
      "meler": 9168,
      "meyin": 9169,
      "tobac": 9170,
      "akar": 9171,
      "unknown": 9172,
      "aydım": 9173,
      "itive": 9174,
      "desol": 9175,
      "depri": 9176,
      "defect": 9177,
      "deceived": 9178,
      "amuse": 9179,
      "elimi": 9180,
      "daire": 9181,
      "etmeliyim": 9182,
      "beef": 9183,
      "tible": 9184,
      "vermiş": 9185,
      "chil": 9186,
      "washed": 9187,
      "neyi": 9188,
      "whist": 9189,
      "sipar": 9190,
      "acının": 9191,
      "aber": 9192,
      "absur": 9193,
      "düğ": 9194,
      "rapor": 9195,
      "ric": 9196,
      "shy": 9197,
      "shri": 9198,
      "kare": 9199,
      "karan": 9200,
      "goats": 9201,
      "başımı": 9202,
      "appet": 9203,
      "appointed": 9204,
      "bilmeden": 9205,
      "hatları": 9206,
      "gelmesini": 9207,
      "geldiler": 9208,
      "maaş": 9209,
      "ümden": 9210,
      "ladığında": 9211,
      "evinin": 9212,
      "ource": 9213,
      "ikâ": 9214,
      "ikan": 9215,
      "işini": 9216,
      "işine": 9217,
      "exist": 9218,
      "düşünün": 9219,
      "kendiliğinden": 9220,
      "permission": 9221,
      "agger": 9222,
      "ilerine": 9223,
      "çekmeye": 9224,
      "çektiği": 9225,
      "sorum": 9226,
      "soruyu": 9227,
      "laştı": 9228,
      "dayken": 9229,
      "composed": 9230,
      "space": 9231,
      "gets": 9232,
      "laying": 9233,
      "avuç": 9234,
      "değilse": 9235,
      "söylendi": 9236,
      "varmış": 9237,
      "varoluş": 9238,
      "varlığını": 9239,
      "yarısını": 9240,
      "pratik": 9241,
      "gözünde": 9242,
      "lands": 9243,
      "overcoat": 9244,
      "üzerime": 9245,
      "açısından": 9246,
      "Onlara": 9247,
      "begged": 9248,
      "otor": 9249,
      "korkul": 9250,
      "hanging": 9251,
      "sensible": 9252,
      "çalışmak": 9253,
      "söylediğinde": 9254,
      "sözcü": 9255,
      "chet": 9256,
      "görünmüyordu": 9257,
      "control": 9258,
      "açıklay": 9259,
      "vessel": 9260,
      "istemedi": 9261,
      "önemi": 9262,
      "kararlılıkla": 9263,
      "elerle": 9264,
      "bununla": 9265,
      "singing": 9266,
      "icken": 9267,
      "ically": 9268,
      "öğüt": 9269,
      "curi": 9270,
      "valu": 9271,
      "bath": 9272,
      "partment": 9273,
      "gösteriyordu": 9274,
      "özellik": 9275,
      "görüyorsun": 9276,
      "üstelik": 9277,
      "babasına": 9278,
      "yönelik": 9279,
      "stron": 9280,
      "ilgisini": 9281,
      "consent": 9282,
      "plate": 9283,
      "bakışları": 9284,
      "luğunda": 9285,
      "ruhunu": 9286,
      "yemeğine": 9287,
      "olacaktı": 9288,
      "brea": 9289,
      "choose": 9290,
      "gıc": 9291,
      "kazandır": 9292,
      "capacity": 9293,
      "careful": 9294,
      "kapıda": 9295,
      "binlerce": 9296,
      "annesine": 9297,
      "güvende": 9298,
      "triumph": 9299,
      "vurdu": 9300,
      "gizlice": 9301,
      "öğrendi": 9302,
      "Before": 9303,
      "kimseye": 9304,
      "military": 9305,
      "okula": 9306,
      "sitem": 9307,
      "mahrum": 9308,
      "wondering": 9309,
      "darkness": 9310,
      "philo": 9311,
      "olmamıştı": 9312,
      "çocuğa": 9313,
      "schoolroom": 9314,
      "getirdiği": 9315,
      "occupation": 9316,
      "cağım": 9317,
      "çevirdim": 9318,
      "meyve": 9319,
      "defend": 9320,
      "government": 9321,
      "aşkına": 9322,
      "Without": 9323,
      "complex": 9324,
      "acquaintances": 9325,
      "sokak": 9326,
      "etkisi": 9327,
      "okulu": 9328,
      "ikamet": 9329,
      "Mean": 9330,
      "uzatarak": 9331,
      "gloomy": 9332,
      "beyler": 9333,
      "stirred": 9334,
      "PRIN": 9335,
      "olmalıydı": 9336,
      "disturb": 9337,
      "seferinde": 9338,
      "wedding": 9339,
      "Venedik": 9340,
      "highest": 9341,
      "mountains": 9342,
      "bbing": 9343,
      "eskisi": 9344,
      "apartment": 9345,
      "attacked": 9346,
      "vatandaş": 9347,
      "itibaren": 9348,
      "tormented": 9349,
      "cümle": 9350,
      "distress": 9351,
      "suffered": 9352,
      "pursued": 9353,
      "intelligent": 9354,
      "çiftçilik": 9355,
      "Louisa": 9356,
      "Sevgili": 9357,
      "bıçak": 9358,
      "celebr": 9359,
      "railway": 9360,
      "Mareşali": 9361,
      "kuvvet": 9362,
      "arguments": 9363,
      "grateful": 9364,
      "İmparator": 9365,
      "gerçeği": 9366,
      "attach": 9367,
      "Thank": 9368,
      "scythe": 9369,
      "Brazils": 9370,
      "Umarım": 9371,
      "intikam": 9372,
      "angrily": 9373,
      "tobacco": 9374,
      "absurd": 9375,
      "philoso": 9376,
      "Beş": 9377,
      "Celine": 9378,
      "Kon": 9379,
      "Neved": 9380,
      "Oğ": 9381,
      "Pen": 9382,
      "Pol": 9383,
      "Snet": 9384,
      "Was": 9385,
      "Walling": 9386,
      "Yaz": 9387,
      "Zaman": 9388,
      "cers": 9389,
      "cred": 9390,
      "claim": 9391,
      "gown": 9392,
      "jer": 9393,
      "mun": 9394,
      "mür": 9395,
      "pel": 9396,
      "rat": 9397,
      "skat": 9398,
      "yken": 9399,
      "yonun": 9400,
      "yenin": 9401,
      "yoz": 9402,
      "zıp": 9403,
      "Önemli": 9404,
      "çare": 9405,
      "çının": 9406,
      "ğit": 9407,
      "ıları": 9408,
      "Şey": 9409,
      "şah": 9410,
      "invent": 9411,
      "ancy": 9412,
      "arlı": 9413,
      "enge": 9414,
      "oradaydı": 9415,
      "irst": 9416,
      "oul": 9417,
      "thunder": 9418,
      "lev": 9419,
      "adıklarını": 9420,
      "revi": 9421,
      "ility": 9422,
      "birer": 9423,
      "birader": 9424,
      "sees": 9425,
      "olmanın": 9426,
      "dure": 9427,
      "diken": 9428,
      "dibinde": 9429,
      "stat": 9430,
      "eling": 9431,
      "ellerinin": 9432,
      "bez": 9433,
      "vering": 9434,
      "vermesini": 9435,
      "ımla": 9436,
      "forces": 9437,
      "absor": 9438,
      "abiliyordu": 9439,
      "mic": 9440,
      "soo": 9441,
      "terms": 9442,
      "rice": 9443,
      "tear": 9444,
      "dozen": 9445,
      "loo": 9446,
      "karg": 9447,
      "muyum": 9448,
      "izle": 9449,
      "izvo": 9450,
      "rules": 9451,
      "önlemek": 9452,
      "usundan": 9453,
      "bilmediğim": 9454,
      "düşmüş": 9455,
      "geleni": 9456,
      "geldik": 9457,
      "parents": 9458,
      "emed": 9459,
      "emindi": 9460,
      "tanıyor": 9461,
      "tanıştır": 9462,
      "wearing": 9463,
      "ikincisi": 9464,
      "expen": 9465,
      "düşünmeden": 9466,
      "düşünmedim": 9467,
      "kender": 9468,
      "kül": 9469,
      "perfor": 9470,
      "percep": 9471,
      "mobil": 9472,
      "hosp": 9473,
      "bakım": 9474,
      "baktığını": 9475,
[...]
